[PAD]
[EOS]
[UNK]
[CLS]
[SEP]
[MASK]
the
to
a
I
and
of
that
is
in
you
it
for
not
be
was
have
but
are
with
my
on
this
as
just
they
The
I'm
if
like
about
think
would
or
your
can
don't
at
so
what
do
people
he
it's
we
an
get
from
more
know
##,
had
all
will
who
me
out
because
by
has
been
how
one
their
If
his
really
when
going
want
up
You
some
her
no
were
It's
there
It
than
only
good
being
then
could
make
she
them
very
other
you're
even
see
also
time
any
lot
way
This
should
much
go
But
I've
into
still
need
sure
same
which
say
am
him
can't
And
He
feel
something
never
most
our
where
They
first
&gt;
take
why
that's
So
thing
over
We
back
find
trying
did
got
things
someone
didn't
said
right
work
doesn't
use
able
##s
actually
My
##"
few
pretty
A
I’m
new
many
too
those
always
-
better
it,
doing
after
own
best
now
these
In
made
probably
before
What
There
saying
little
used
person
through
off
tell
anything
different
long
believe
getting
look
does
bad
around
That's
years
point
while
don’t
help
might
try
i
She
down
its
thought
##)
every
That
two
bit
I'd
give
love
great
may
without
mean
idea
us
having
it’s
since
understand
keep
part
isn't
put
life
he's
last
big
hard
ever
kind
they're
enough
Trump
told
talking
I'll
come
read
world
makes
money
already
reason
problem
day
looking
As
well
making
both
here
seen
pay
US
fact
against
went
less
start
another
let
live
between
When
real
talk
done
Not
until
whole
guy
found
man
next
government
place
likely
such
seems
care
least
nothing
end
using
wanted
there's
old
started
change
You're
anyone
How
everyone
ask
Just
stop
year
far
means
friends
state
call
left
working
For
me,
hope
friend
small
you,
job
post
guess
thinking
question
human
show
away
everything
It’s
high
that,
remember
heard
##:
##'s
took
each
"I
called
agree
No
definitely
##”
wasn't
*
fucking
2
wouldn't
important
maybe
taking
##ing
case
under
number
story
power
system
wrong
saw
matter
tried
family
aren't
came
else
country
happy
Is
car
says
rather
home
free
seem
almost
possible
felt
myself
shit
feeling
times
won't
once
mind
amount
school
couple
single
sex
relationship
asked
is,
gets
we're
move
Maybe
buy
experience
hear
support
during
social
though
time,
Thank
study
quite
house
I’ve
living
looked
this,
knew
body
full
sense
Why
didn’t
Then
deal
Also,
based
similar
vote
word
wants
completely
needs
comes
days
Do
second
3
happened
huge
entire
control
He's
black
must
play
run
There's
health
answer
said,
open
parents
name
interested
exactly
##;
movie
die
literally
side
you’re
she's
become
Your
mean,
game
stuff
due
given
either
leave
large
company
Biden
past
rest
stay
interesting
public
ones
women
nice
instead
usually
##..
##ed
article
information
can’t
eat
food
them,
To
watch
set
water
Thanks
asking
common
##d
sounds
hate
certain
worth
Or
issue
gonna
kids
sort
party
room
fuck
People
##*
months
sorry
close
kill
order
##e
coming
group
easy
All
often
situation
##'
girl
So,
Because
political
learn
difference
whether
top
cause
actual
head
Yeah,
One
true
you'll
white
current
haven't
brain
simulation
woman
simply
couldn't
Even
Well,
police
doesn’t
again
video
lost
universe
chance
goes
.
know,
Now
happen
guys
him,
At
American
basically
hours
yourself
you've
face
now,
figure
glad
half
willing
10
telling
class
medical
However,
that’s
people,
reading
turn
seeing
create
type
taken
evidence
especially
check
supposed
comment
de
legal
explain
phone
running
sound
research
war
outside
1
main
others
behind
Federation
5
lose
mom
week
decided
clear
front
break
##’s
history
paid
yet
Bernie
whatever
imagine
child
men
wish
within
##y
bunch
wife
known
hand
data
cannot
4
term
No,
specific
allowed
realize
higher
music
##),
turned
fun
course
Yes,
wait
Some
normal
up,
computer
needed
longer
Well
middle
general
personal
media
book
looks
absolutely
light
energy
difficult
original
His
takes
aware
(and
insurance
ago
worked
film
three
out,
towards
issues
together
spend
gave
dream
After
night
her,
giving
watching
eyes
form
law
young
meant
level
paying
future
afraid
works
playing
weeks
hit
states
per
local
death
business
cost
Don't
knows
fight
what's
majority
military
door
low
poor
early
process
assume
force
words
cut
drug
New
example
line
They're
happens
later
weird
major
Also
themselves
dad
stupid
consider
dont
example,
humans
short
across
ability
God
enjoy
do,
argument
fan
several
Most
there,
super
shouldn't
bring
&gt;I
sub
news
tax
risk
##ly
way,
sleep
##s,
unless
problems
Are
recommend
send
hold
claim
"The
worse
"I'm
simple
mental
strong
market
lack
understanding
isn’t
currently
along
countries
Can
mother
easier
continue
Oh
worst
gun
age
kid
United
Like
created
month
eating
again,
write
That’s
##t
extremely
listen
itself
you'd
questions
expect
learning
though,
advice
Yeah
plan
children
lives
average
walk
ways
considered
college
population
life,
virus
provide
science
fine
&gt;The
thing,
day,
sent
pain
million
response
(or
test
wonder
position
certainly
area
worried
ready
contact
dog
city
Good
I’d
rate
alone
sometimes
doctor
allow
add
theory
years,
share
here,
speak
met
win
finally
6
TIFU
These
paper
hands
kept
effect
minutes
feels
piece
private
20
result
suggest
hurt
terms
internet
not,
save
account
all,
work,
(I
heart
gone
lead
companies
mostly
say,
access
watched
killed
society
person,
please
totally
one,
court
hell
appreciate
link
shows
written
blood
ended
act
sign
lower
trust
exact
voting
serious
team
calling
inside
choose
step
easily
self
build
wondering
source
drive
girlfriend
On
starting
##n
bought
late
I’ll
he’s
moving
clearly
##r
moment
China
sick
fair
sexual
popular
afford
multiple
Americans
(which
president
decide
sell
avoid
[WP]
voice
right,
waiting
soon
safe
including
sitting
&amp;
mention
above
pick
world,
spent
OP
space
scared
character
moved
accept
song
well,
wasn’t
surprised
store
red
value
near
favorite
physical
30
economy
studies
office
biggest
fix
follow
increase
prove
stand
case,
father
effects
wear
report
America
date
writing
worry
numbers
machine
further
opinion
dead
economic
reality
meet
perfect
drugs
dark
interest
gotten
choice
cool
title
cases
100%
argue
involved
trip
With
necessarily
fucked
picture
hospital
healthcare
today
negative
stopped
building
handle
walked
positive
Of
loved
massive
finding
places
weight
learned
focus
Its
seemed
hour
basic
fall
socialist
okay
notice
fear
Which
thinks
view
himself
air
straight
responsible
recently
plenty
realized
laws
climate
obvious
workers
putting
random
ass
nicht
gives
hoping
forced
related
knowing
bed
attention
obviously
terrible
point,
so,
deep
generally
they’re
community
sit
changed
fit
fire
reasons
tired
except
While
natural
caused
meaning
doubt
particular
brought
price
lived
results
extra
older
walking
noticed
in,
correct
concept
brother
Republicans
She's
Democrats
like,
federal
potential
total
directly
man,
blame
protect
curious
thank
modern
comments
shot
held
field
rights
mass
THE
things,
good,
changes
list
Borg
language
conversation
yes,
rich
anything,
la
Please
Any
buying
on,
third
honest
losing
forward
boyfriend
knowledge
healthy
born
We're
##er
posted
drink
missing
too,
fighting
to,
funny
States
100
stuck
,
lots
tend
comfortable
truly
online
joke
impact
complete
size
student
died
Did
mentioned
powerful
gay
eventually
charge
games
passed
happening
election
fact,
driving
bill
spread
rules
truth
option
individual
hair
impossible
became
AI
beyond
pass
decision
we've
property
nature
ideas
liked
amazing
upset
prevent
sister
fully
entirely
travel
possibly
##a
UK
son
exist
nearly
compared
push
husband
honestly
stories
Our
cover
there’s
lawyer
clean
Sanders
describe
following
required
"the
policy
feelings
who's
grow
pulled
jobs
thoughts
species
scientific
wouldn’t
From
parts
damn
English
##",
available
immediately
rent
quickly
sad
treatment
played
trouble
"You
income
wrong,
trump
wanting
message
wearing
stock
action
Who
rid
wake
benefit
“I
baby
smoke
killing
crazy
before,
Does
characters
8
illegal
file
hot
they'll
began
job,
incredibly
ago,
regular
ran
kinda
remove
showing
le
among
quality
service
thousands
##’
##es
15
proof
credit
technology
no,
shut
cancer
planet
they've
forget
won’t
waste
movies
assuming
global
talked
personally
caught
reach
necessary
national
leaving
expensive
By
weren't
highly
aren’t
period
pull
text
upon
complex
Have
true,
context
teacher
significant
keeping
helps
confused
claims
album
somewhere
beat
bigger
quick
are,
course,
previous
fast
throw
friends,
model
fat
cold
attack
Chinese
starts
pas
helped
disagree
Would
somehow
fairly
drop
What's
require
harder
books
version
Her
built
Republican
lease
posts
taxes
Every
effective
millions
treat
purpose
industry
money,
nuclear
land
un
production
##.
primary
concerned
But,
resources
effort
Obama
holding
constantly
NOT
—
socialism
girls
(the
subreddit
statement
god
bad,
blue
/
yeah,
thread
shitty
nor
candidate
program
dumb
despite
special
problem,
listening
President
ship
direct
town
useful
points
disease
apply
broke
specifically
onto
question,
attempt
reddit
recent
ground
morning
definition
50
actions
couldn’t
limited
decent
solution
respect
doctors
Yes
return
oh
costs
reasonable
You’re
opposite
voters
standard
bet
anxiety
pandemic
helping
security
voted
types
students
address
An
speed
present
carbon
dating
U.S.
mine
education
uses
something,
member
goal
capable
offer
thanks
damage
various
##-
dangerous
fault
sorry,
smoking
que
subject
standing
back,
##.”
7
affect
begin
##l
search
Those
Once
seriously
causes
becomes
scene
married
hasn't
four
et
discussion
cat
South
designed
members
nobody
eye
culture
campaign
animal
depends
experiences
angry
series
larger
u
experienced
base
record
financial
considering
wrote
produce
growing
##o
landlord
apartment
rule
First
oil
attracted
removed
movement
key
Since
Edit:
deaths
beautiful
year,
sat
excited
contract
capitalism
tells
##**
then,
broken
familiar
covered
food,
French
ignore
drinking
diet
weed
dealing
lying
smart
religious
slow
off,
suddenly
earth
however,
us,
event
der
areas
admit
trade
showed
partner
male
groups
Oh,
Now,
posting
mad
ex
"What
patients
down,
treated
letting
benefits
they'd
ist
barely
skin
opened
emotional
train
separate
--
##al
judge
depression
card
turns
fake
ton
testing
crime
Democratic
horrible
dreams
asshole
luck
female
race
GOP
unable
hang
bank
touch
British
convince
Sometimes
beginning
approach
deserve
dick
[
shown
levels
although
copy
home,
we’re
Reddit
strange
dying
road
received
closed
US,
we'll
politics
Their
daughter
people's
heat
was,
daily
causing
becoming
regardless
War
threat
Great
##ng
gas
email
pressure
lie
simulated
racist
proper
degree
linked
house,
boss
Where
hearing
opportunity
creating
reduce
policies
smaller
woke
animals
vs
therefore
plus
capitalist
function
ahead
Many
loss
figured
slowly
otherwise
however
planning
raised
spending
particularly
math
role
guy,
prefer
essentially
keeps
influence
school,
advantage
bar
He’s
include
probability
friend,
mouth
false
developed
room,
myself,
supporters
press
it'll
failed
breaking
perhaps
Earth
story,
porn
grew
stress
cars
product
place,
requires
let's
gain
solve
progressive
greater
##m
safety
minimum
enjoyed
topic
via
##]
Only
boy
employees
coffee
##k
won
IS
German
12
reaction
expected
das
thus
sold
note
dude
acting
North
ok
none
pushing
episode
taught
conservative
about,
referring
cheap
TO
White
Everyone
miss
final
wall
letter
arguing
destroy
civil
bottom
defend
faster
stick
she’s
bathroom
teach
EU
closer
increased
with,
table
be,
VX
?
feet
stood
cant
better,
selling
associated
sun
likes
mind,
he'd
gender
rates
image
fell
evil
environment
raise
tiny
successful
belief
explanation
changing
qui
meat
relevant
five
birth
more,
respond
improve
les
heavy
##on
younger
possibility
extreme
manager
added
##S
legally
Get
hand,
cells
slightly
foreign
drunk
TV
system,
staying
guns
employer
dropped
did,
behavior
experience,
videos
track
dollars
calls
options
ban
words,
former
Joe
im
missed
careful
alcohol
according
symptoms
quote
managed
anywhere
much,
crisis
n
active
House
mistake
zero
billion
sources
perfectly
lines
equal
You'll
page
country,
allows
administration
More
training
solar
professional
kinds
discuss
Sorry
limit
details
network
(not
yes
decisions
attorney
adult
hole
responsibility
speaking
articles
floor
en
window
debt
wanna
des
events
coronavirus
à
vast
reached
labor
Was
sure,
family,
content
accurate
filled
catch
forgot
situation,
conscious
hundreds
conspiracy
practice
There’s
wing
Go
pair
carry
Dominion
solid
lucky
absolute
Let
release
c'est
visit
receive
owner
twice
intelligence
else,
40
throughout
systems
pictures
led
faith
measure
material
haven’t
green
first,
website
tough
state,
songs
method
##g
plant
patient
Trump's
movie,
car,
memory
laugh
potentially
criminal
conditions
scientists
cell
box
wealth
times,
picked
overall
fine,
(like
relatively
factors
USA
apparently
sugar
corporate
(in
##en
idea,
fired
develop
project
excuse
dogs
parties
democratic
game,
didnt
tested
suppose
released
meeting
YOU
Both
gym
sue
signed
regarding
season
toward
religion
liberal
wage
hadn't
nation
existence
violence
scale
info
valid
answers
turning
profit
hide
determine
site
replace
plans
recognize
smell
ice
hundred
great,
rise
relationship,
exists
AND
folks
perspective
harm
Russian
controlled
yet,
explained
and/or
Christian
largest
while,
reported
supporting
metal
exercise
connection
church
You've
John
Jesus
Star
quit
emergency
consciousness
center
individuals
proud
Here
minute
background
violent
secret
opposed
non
immune
greatest
Another
18
leader
facts
(as
reply
band
*The
–
moral
count
debate
ticket
color
actively
votes
genetic
agree,
##h
Nothing
taste
pushed
staff
parent
We've
Being
player
convinced
Should
OF
Look
Bible
believed
pointing
Black
shall
busy
charged
you’ve
universe,
leads
flu
earlier
whose
want,
plastic
factor
double
career
user
quantum
distance
compare
bag
art
King
yourself,
products
agreed
named
victim
street
path
leading
banned
assumed
steps
prepared
decades
Let's
join
Sounds
he'll
chose
advanced
night,
Especially
(
opinions
murder
board
abuse
unemployment
finish
additional
development
York
tool
Could
elected
However
survive
mess
maintain
critical
Europe
status
shift
citizens
Don’t
ending
reference
loud
later,
highest
employee
ego
cops
claiming
politicians
falling
checked
tech
freedom
focused
week,
und
style
constant
away,
Russia
wide
March
Im
Bitcoin
giant
followed
empty
complicated
arms
tests
author
stated
demand
plants
helpful
films
amounts
officer
yeah
today,
Take
provided
manage
ends
cheaper
intelligent
neither
loves
glass
##?”
somewhat
enough,
Same
mail
suit
i'm
es
Either
reason,
interests
ein
doesnt
cash
below
army
sentence
1)
think,
properly
9
see,
pretend
feed
relationships
percentage
appear
suspect
sides
other,
bother
suicide
driver
code
Party
Everything
universal
spot
percent
idiot
future,
examples
post,
depending
laid
expecting
days,
alive
Someone
together,
independent
grown
therapy
parking
consequences
really,
fought
Google
sending
saying,
bullshit
services
agreement
refuse
etc
heavily
du
Try
Roman
lies
core
businesses
IT
Canada
"It's
worker
understood
shame
finished
sleeping
significantly
official
eine
basis
unlikely
saved
failure
appears
x
severe
proven
of,
government,
##i
matters
for,
fill
connected
clothes
appropriate
&gt;If
"We
somebody
shoot
shit,
normally
continued
Unless
stronger
sex,
rare
hypothesis
awesome
supply
pointed
around,
stuff,
range
payment
opinion,
toilet
differences
Here's
shoes
done,
struggling
define
sharing
jump
ten
long,
cities
"
##s"
wind
guessing
fuel
World
protein
chicken
ensure
Perhaps
Again,
forms
&gt;I'm
published
guilty
ball
##0
seek
lady
2)
prior
unique
remain
hanging
##in
shouldn’t
ships
depressed
bus
burn
and,
nervous
milk
gut
alone,
thousand
researchers
logic
gotta
six
shape
owned
funding
Fox
possible,
months,
expert
described
activity
serve
end,
draw
propaganda
panic
cares
body,
struggle
Last
Dr.
corporations
Sure,
speech
rock
portion
combination
believing
physically
pants
hospitals
Be
have,
grab
we'd
typically
winning
favor
concern
Germany
zu
confirmed
thats
screen
generation
throwing
explaining
desire
Like,
threw
shop
minor
king
defense
arm
Empire
vaccine
est
awful
achieve
growth
communicate
block
trained
Big
views
plot
exposed
either,
condition
awkward
asks
California
very,
efficient
discovered
laughing
bitcoin
sense,
anymore
European
500
fish
applied
players
direction
"You're
whenever
chances
alternative
accidentally
##I
section
odd
round
predict
ignoring
help,
bottle
go,
stayed
seconds
believes
Never
represent
magic
existing
[The
vehicle
strength
offered
google
design
Will
CO2
locked
humanity
Japanese
Donald
weak
shower
ridiculous
moment,
Trump,
Senate
marijuana
logical
fly
Hey
##5
cleaning
bills
##ness
##ic
what’s
ourselves
location
balance
schools
historical
calories
match
herself
girl,
can,
accepted
tree
pissed
battle
pure
Fuck
##c
sample
identify
foot
"Well,
you’ll
suffering
scenario
moon
flag
cutting
tons
miles
replaced
pays
over,
medicine
(I'm
others,
auch
Probably
scary
music,
fail
##x
marriage
corner
Right
shared
legs
justify
bacteria
Keep
ride
includes
hopefully
weapons
simulation,
shirt
pregnant
classes
arrested
B
success
grabbed
adults
25
tries
accident
TL;DR
DNA
"But
powers
issue,
happy,
general,
dose
corrupt
users
till
rape
programs
laptop
democrats
power,
own,
arguments
SO
affected
situations
sees
saving
progress
cup
beliefs
Hillary
temperature
lazy
THIS
Before
Soviet
60
water,
uncomfortable
change,
lay
informed
Very
Imagine
##%
##st
usual
leaves
destroyed
allowing
State
pop
genuinely
runs
increasing
isnt
initial
200
teachers
peace
name,
Something
DNC
war,
toxic
technically
analysis
Klingon
God,
##*,
woman,
teaching
mods
largely
bringing
Facebook
##ers
structure
muscle
forces
department
capital
camera
0
truck
breath
mix
ate
France
##D
je
infected
experiencing
conclusion
traffic
surprise
license
jail
enter
##ve
setting
sake
produced
opening
exchange
restaurant
surface
originally
net
models
adding
ne
head,
dry
dollar
Stop
split
rural
cultural
soul
committed
bias
##2
wealthy
dress
une
spoke
review
chemical
budget
Congress
##!”
quiet
names
happen,
attractive
wave
summer
ich
app
2016
reporting
photo
bed,
Nobody
roommate
prices
neural
conflict
burning
warm
impression
friend's
cure
cum
confident
entitled
biological
HA
(if
suggesting
same,
“You
lab
claimed
apart
Civil
essential
candidates
alien
Anyone
kitchen
answer,
##able
den
Mr.
switch
spreading
shooting
request
die,
counter
collection
voter
supplies
infinite
ignorant
edge
book,
staring
Klingons
suffer
stomach
international
included
Then,
wash
smile
sensitive
relate
providing
film,
fellow
defined
authority
Make
prison
pieces
emotions
##an
root
environmental
Instead
passing
lot,
lock
company,
tools
assumption
Two
relative
fingers
brown
brand
bodies
target
revolution
hire
Seems
##1
sweet
puts
fixed
supported
sucks
seat
listened
happened,
escape
encourage
Think
Except
talks
leaders
flight
express
equivalent
door,
democracy
National
typical
intended
crying
Having
Anyway,
party,
equipment
effectively
wonderful
reduced
platform
mentally
hotel
honest,
finds
aid
MY
(a
outcome
noise
fresh
dinner
Tell
someone,
phrase
loan
forcing
developing
commit
papers
skills
flat
drove
pro
past,
ignored
foods
child,
studying
republicans
reports
park
management
fund
article,
ancient
Time
Man
whom
lights
grocery
aspect
##re
##ion
theories
person's
anybody
Although
variety
suck
rely
presence
diagnosed
artist
Me
trees
itself,
enjoying
suggests
nose
24
##us
wont
hated
device
class,
Japan
refer
kid,
everything,
blow
ur
software
placed
methods
century
cast
aber
Socialism
thought,
length
attacks
X
university
finger
checking
replied
phone,
laughed
hurting
genes
##,"
##or
screaming
plug
owners
enemy
danger
##le
families
extent
**
ruin
minority
interact
homeless
experts
discussing
capacity
stage
object
narrative
assault
16
refused
it'd
inherently
sexually
rough
roll
measures
coverage
anymore,
answered
Still
thin
says,
responded
physics
clue
:
wild
western
lets
increases
established
beings
THAT
union
plays
infection
hard,
everybody
battery
And,
would've
selfish
rarely
organization
kick
history,
grade
evolution
picking
personality
lift
cop
blind
(for
"what
##p
part,
calm
##E
unit
tied
sudden
kids,
issues,
Without
Red
Am
&gt;You
pour
indeed
doing,
decade
Clinton
“The
traditional
theory,
station
previously
famous
ce
COVID-19
suggested
identity
gift
cycle
Basically
sorts
react
naturally
guarantee
fee
stating
asleep
2nd
stable
interview
internal
Starfleet
lied
governments
deny
addition
warp
investigation
experiment
cook
charges
boring
Queen
##](https://www.youtube.com/watch?v
star
gold
dass
aside
Best
soldiers
merely
flow
cannabis
They’re
##T
show,
relief
o
employment
"a
society,
silly
crush
Had
pulling
mood
hero
auf
News
"How
##ation
sum
singularity
Dems
spirit
owe
medication
leg
frame
crew
weapon
fewer
Warren
3rd
eyes,
does,
desk
care,
women,
recall
Other
face,
besides
Unfortunately,
2020
##A
treating
trans
thrown
spoken
perform
least,
intense
fair,
exposure
University
"to
pocket
kicked
immediate
customer
##nt
trash
study,
leadership
##3
##…
ya
listed
confirm
closest
attitude
accused
Hope
therapist
prepare
gene
describing
confidence
Dark
50%
11
equally
everyday
January
ultimately
mixed
comment,
applies
Democrat
1000
side,
old,
law,
confusing
yesterday
someone's
teeth
sky
distribution
bright
aggressive
TL;DR:
Latin
C
instance,
ill
IN
HUMAN
welfare
purchase
left,
LSD
##e,
waking
studied
industrial
Sorry,
roughly
republican
coin
bear
14
reality,
cry
comparison
atmosphere
They've
"If
##rs
surgery
stands
socialists
moderate
minds
communist
choices
cases,
remains
okay,
native
central
Hopefully
"No,
##4
##ment
you’d
regularly
matter,
cross
chest
Florida
von
upper
information,
heads
##th
tip
strategy
sounded
signs
disappointed
detail
boys
"Oh,
wet
sea
legitimate
welcome
pizza
breaks
##ll
world's
stopping
realistic
memories
liberals
headline
See
horror
hiding
crowd
YouTube
regards
creates
computers
affects
Middle
spiritual
photos
lyrics
housing
contribute
joke,
hours,
hits
divorce
crap
challenge
casual
bedroom
##/)
weather
parents,
10%
she'll
funds
description
currency
audience
Thanks,
trial
masks
broad
None
trading
questions,
promise
consistent
chronic
area,
receiving
one's
mirror
consumption
Obviously
vision
stared
interesting,
fits
delete
border
"A
lunch
chain
transfer
she'd
racism
orders
illness
continues
complaining
Spanish
Federal
simulations
real,
knife
dependent
advice,
stars
hitting
explains
abortion
planned
insane
attacking
Bill
wages
radio
moments
loans
deposit
complain
cats
Humans
waited
seeking
mid
meal
justice
flying
different,
Medicare
"you
wondered
understand,
supports
storage
here's
guide
goals
fed
fans
correlation
provides
permanent
ordered
load
college,
About
rational
invest
electric
connect
burden
attached
Washington
Court
##w
literal
defending
bothered
##te
wedding
stimulus
ring
men,
handling
handed
fun,
billions
am,
accepting
Church
"This
"And
performance
kills
determined
contain
checks
bot
300
wood
themselves,
links
items
intention
failing
chosen
children,
brains
Union
stressed
raising
ownership
once,
mais
Hi
rude
problems,
city,
anyway
You'd
EDIT:
penis
human,
estate
dream,
crimes
communication
artificial
Unfortunately
Amazon
warning
soft
loving
circle
bike
##ies
##ce
mouse
meme
internet,
ideal
features
executive
Check
stores
educated
computer,
comparing
USSR
1,
##C
useless
hidden
friendly
Wow,
May
producing
host
hasn’t
gf
expand
evolved
entered
automatically
annoying
Today
Honestly,
what,
weekend
statements
smoked
short,
protection
hardly
far,
combat
but,
accounts
vote,
nowhere
conservatives
cheating
aspects
Pretty
AM
scientist
remembered
pattern
carrying
y
investment
images
everywhere
dirty
Though
C'est
task
payments
mainly
hip
dead,
Sure
Life
First,
&gt;This
whereas
steal
layer
holds
citizen
beer
we’ve
weeks,
tomorrow
schedule
reminds
nations
armed
Plus
Federation,
warming
values
materials
filed
drugs,
club
clinical
Until
HR
Death
##M
why,
served
monitor
mod
dans
concerns
Supreme
CDC
##ity
valuable
tone
shocked
fundamental
circumstances
Yet
Things
(at
pot
creator
D
April
##se
##f
sets
returned
poverty
laying
habit
falls
deal,
coal
chair
Lol
17
sports
searching
authors
apologize
Capitalism
simulate
plane
neighbors
meaningful
master
greatly
anyway,
age,
Western
Coronavirus
worse,
works,
weren’t
stops
ocean
neighbor
month,
handled
excellent
emissions
boat
balls
advance
Batman
##7
vacation
strongly
risks
regret
presented
generate
dude,
drinks
county
[this
China,
threatening
strike
science,
naked
mask
existed
engage
Round
Michael
volume
repeat
realizing
death,
cognitive
acceptable
academic
Super
substance
small,
practical
deeper
criticism
autism
addiction
Next
HAVE
Ah,
&gt;It's
mechanism
facing
click
badly
ALL
##8
sales
anti
Got
standards
sleep,
sites
mistakes
light,
efforts
brings
13
##/
##y,
##is
wins
morning,
garbage
embarrassed
desperate
We’re
##ne
prime
paint
courts
West
Social
She’s
During
America,
positions
plain
numerous
nice,
live,
latest
feedback
diseases
attempting
DO
walks
secure
poorly
innocent
dem
collect
button
best,
(who
"Oh
##L
use,
tears
creation
covers
childhood
wife,
nurse
goods
explore
Korea
##6
uncle
square
shock
remaining
process,
offering
odds
level,
involve
gap
frequently
closing
abusive
Israel
##”,
yours
mit
elections
deserves
blaming
Ok,
##ting
whoever
victims
two,
fossil
bit,
acid
Texas
unknown
socially
pool
als
aliens
agency
Doctor
traveling
temporary
sub,
pack
imply
discussed
clock
carried
attempts
attacked
*not*
robot
reducing
psychological
messed
funded
mortality
countries,
caring
vs.
shadow
liquid
interpretation
implement
god,
brain,
..
surrounding
presidential
decides
cuts
custody
anger
##ch
##and
wasting
stepped
salt
owns
man's
mainstream
forth
extended
domestic
responding
enforce
dragon
delivery
crash
couch
consent
3)
19
"we
read,
reaching
nothing,
houses
ghost
appeared
Old
##P
widely
thinking,
south
server
loose
infrastructure
il
everyone,
documentary
assimilate
Biden's
African
machines
fields
acts
Okay,
tight
means,
incredible
importance
humans,
group,
error
else's
driven
approval
"Why
##9
##ly,
“I’m
winter
vague
productive
offended
lifting
##R
young,
word,
stretch
hates
Italy
&gt;In
"no
##ry
transition
stone
office,
moves
from,
covering
corruption
collective
ashamed
dislike
allergic
YOUR
India
)
swear
repair
long-term
emotionally
defeat
control,
anyone,
Thats
Jedi
Health
Biden,
se
professor
pill
forgotten
beneficial
album,
admitted
Honestly
Christmas
##Y
yelling
trick
quarantine
oman
input
happiness
guys,
anxious
viable
refusing
objective
harmful
games,
doors
approved
acknowledge
M4A
Lord
"Yes,
update
strict
shoulder
removing
records
ideology
differently
biased
babies
Read
I,
wipe
unfortunately
shook
raw
jumped
dropping
asked,
arrived
Hey,
Canadian
##ble
will,
oxygen
hired
hat
Holy
vaccines
technical
routine
mobile
libertarian
intent
hung
Das
"not
statistics
realise
occurred
compromise
business,
artists
2,
underlying
sont
skill
profits
pregnancy
minutes,
implies
girlfriend,
funny,
cream
burned
trend
tea
rolling
reasoning
limits
fantastic
duty
correct,
consume
cards
assumptions
Others
Ich
Greek
&gt;What
##ty
slave
reverse
pretending
package
dealt
controlling
arrest
agenda
Whether
P
November
ARE
smarter
sequence
plate
needing
lesson
hands,
could've
Too
virus,
philosophy
genre
findings
commercial
ID
##z
tenant
region
pursue
psychedelics
emails
earn
dig
data,
being,
Australia
“What
wallet
projects
freaking
dressed
ER
Can't
(but
video,
throat
tall
painful
messages
forever
alarm
Remember
David
&gt;But
terrified
tank
stolen
plugged
handful
engine
cute
concrete
butt
bite
Science
San
Part
Je
90%
sale
revolutionary
reduction
politician
pain,
murdered
latter
language,
hurts
football
exist,
entity
diagnosis
deleted
classic
Long
East
##',
operating
neck
communities
##ist
##ism
term,
resistance
represents
protecting
protected
particles
paranormal
mark
invested
forest
flip
firm
collapse
stupid,
journey
indicate
hook
elements
NY
versus
trillion
this:
theme
map
important,
doctor,
destroying
combined
breathing
(even
##K
wars
vulnerable
stocks
sharp
research,
obligated
notion
holes
depression,
cult
February
"this
tolerance
scare
representative
reflection
perception
officials
love,
introduced
ear
don't,
disgusting
coworker
cared
PC
Ok
Basically,
2-3
&gt;It
processing
leave,
is:
intentionally
empathy
choice,
salary
primarily
jokes
fraction
dozen
bored
wasnt
shrooms
rice
pet
label
continuing
choosing
birthday
agent
Q
Ask
rental
remotely
regulations
populations
peak
lifestyle
grateful
grandmother
grandma
dog,
bound
Given
##tion
truth,
they’ve
states,
sacrifice
replacement
recover
purely
patterns
frustrated
expression
addicted
2018
&gt;And
threatened
they’ll
sword
mother,
himself,
fraud
eggs
FOR
90
"oh
##b
walls
sich
rush
ruined
immigration
grand
disorder
commonly
comfort
albums
20%
"It
touching
surely
screw
referred
polls
piss
lowest
downvoted
customers
chill
backed
Instead,
##id
##ck
thick
remind
reliable
phase
keys
grasp
establishment
creative
construction
chemicals
IQ
"I'll
web
violation
trips
peu
occur
new,
community,
argument,
Prime
Internet
"So
tv
recommended
prescription
position,
organic
jerk
he’d
cousin
conversations
2019
1%
refuses
perspective,
officers
neutral
movies,
immigrants
gravity
focusing
elderly
clear,
cable
\\
NO
Indian
45
(though
supportive
qualify
promote
observed
novel
document
date,
also,
Trump’s
Fauci
Christians
##less
weight,
unlike
supporter
sink
nasty
happens,
drawn
discover
demon
deeply
swing
pile
faces
cooking
contains
closely
application
ad
account,
abstract
Turns
Each
Doesn't
21
##um
##ie
who’s
space,
reminded
leftist
generations
fees
drives
denied
crypto
branch
Over
Hell
##ING
##man
unfair
skeptical
silence
knock
injury
disease,
depend
cheese
calculate
Constitution
Bush
"Hey,
##ts
trip,
shake
many,
lives,
fait
controls
chat
symbol
spectrum
representation
insurance,
https://www.youtube.com/watch?v
formed
decrease
Apparently
Ah
According
tripping
slight
qualified
polling
pleasure
manufacturing
instantly
hop
fruit
dedicated
applying
advocating
James
FBI
Back
##u
stranger
smiled
pills
permission
negotiate
mild
electoral
drivers
books,
Romulans
Jews
ventilators
sole
preventing
population,
operate
number,
insight
gained
explicitly
education,
degrees
Hell,
Africa
unsure
score
rolled
requirements
news,
legislation
idiots
Wars
Romans
Enterprise
tends
properties
president,
nearby
meds
maximum
influenced
high,
grandfather
governor
fascist
farm
detailed
client
awareness
Lots
Human
Catholic
&gt;A
"That's
##a,
ça
windows
tear
shaking
screwed
run,
registered
ones,
mountain
kiss
economy,
channel
appeal
activities
vitamin
s
participants
distinction
damaged
coworkers
Actually
you"
touched
subjective
race,
mom,
markets
manner
easiest
ballot
(it
superior
overwhelming
outbreak
homes
filing
Department
result,
outcomes
mode
line,
ground,
cheated
blown
avoiding
Socialist
Asian
1st
"it's
##s)
##nd
upvote
t
song,
safer
radical
print
pollution
perceived
paper,
notes
normal,
guard
director
creators
command
bread
attempted
UK,
Really
400
ways,
stealing
solutions
shopping
senior
recorded
racial
processed
overly
orange
jacket
interpret
fallen
ever,
electricity
cock
bands
answering
acted
They'll
Paris
OP,
*really*
ugly
trapped
surrounded
sauce
route
media,
leaning
league
lawyer,
headed
gods
fantasy
eliminate
dance
cancel
bowl
annoyed
adapt
Usually
Start
trigger
successfully
reputation
objects
let’s
killer
instance
health,
frustrating
figures
disaster
dated
capture
breast
breakfast
beating
awake
NYC
2:
(with
"if
"No
##ED
tie
submit
settle
ruling
responses
perfect,
obligation
neighborhood
military,
grey
compete
communism
##ing,
streets
shy
response,
proposed
note,
jobs,
hungry
forgive
establish
engineering
##t,
worn
visual
seven
misleading
invited
egg
bare
Second,
MDMA
Government
weird,
topic,
repeatedly
recognized
programming
nurses
mile
marketing
incident
incentive
formal
fleet
cheat
asshole,
ask,
Worf
Navy
Has
600
##B
##it
##de
writer
urban
prescribed
jeans
father,
extension
detect
creature
complaint
advocate
WHO
Plus,
80
tips
surprising
shares
robots
psychology
motivation
inner
inform
filter
environment,
deliver
cool,
blocked
banks
another,
Nazis
FDA
premise
overcome
outright
intake
hospital,
financially
evening
drama
charging
##X
youth
sick,
restrictions
remained
opposition
lie,
initially
improved
fundamentally
decline
\\-
CEO
BE
"I"
survival
sufficient
ruled
racist,
periods
library
insult
gross
field,
external
default
What’s
Almost
##ling
##ed,
##d,
traits
serving
rising
recipe
publicly
joint
healthcare,
er
economics
crack
bags
abused
"real"
"My
"Do
treatments
stays
silver
seemingly
resource
planet,
observe
joined
estimate
emotion
context,
confusion
Bernie's
visiting
peoples
numbers,
misinformation
miserable
drank
denying
concentration
bird
arent
(including
viewed
teenager
technological
teams
solely
scream
poster
politically
particle
mice
fault,
dad,
countless
bitch
attend
Women
Cold
150
topics
practically
participate
open,
mortgage
interaction
drops
divided
could,
chocolate
banning
England
(that
were,
unhealthy
spin
radiation
marry
kings
energy,
deals
bone
allies
Twitter
Nazi
Give
##N
usage
skip
prompt
junk
involves
documents
cap
We'll
(especially
snow
refund
refers
isolated
easy,
dialogue
batteries
OP's
20th
wiped
virgin
suggestions
slept
sight
exception
constitution
cardio
80%
yellow
ultimate
thread,
stance
sentient
rules,
reflect
promised
monthly
mine,
likelihood
hadn’t
election,
eaten
dirt
digital
deadly
damages
beach
actors
Finally,
Come
“We
unfortunate
trials
socialism,
progressives
paperwork
island
had,
graduate
fourth
clarify
bubble
boyfriend,
amendment
Venezuela
States,
Paul
Mexico
Isn't
!
vaping
tendency
signing
people’s
organized
medium
iron
incorrect
episodes
dominant
consumer
consistently
chess
Trek
T
Men
Literally
Die
Age
visited
unusual
unnecessary
replacing
politics,
introduce
hardest
correctly
coins
big,
Day
Call
theres
manipulate
investigate
granted
faced
convincing
contributing
contacted
capitalism,
bc
War,
Apple
##,”
romantic
resulting
rain
origin
measured
humor
guess,
density
corona
conclusions
bullet
accessible
Didn't
Anything
99%
##ns
voices
visible
switched
sur
simple,
safe,
punishment
nicotine
misunderstanding
lungs
hopes
golden
edit
directed
consensus
Wow
Use
70
##ted
##ous
##ish
##ing"
##ge
understands
transport
sooner
signal
movement,
move,
mining
earned
PM
Marx
Captain
##r,
##ive
mother's
monster
item
it"
invasion
efficiency
dreaming
drawing
creepy
Second
George
Friday
FELLOW
win,
troll
solved
protest
profile
nonsense
nights
morally
mentions
mature
irrelevant
feature
factory
dust
culture,
character,
authoritarian
Iraq
City
trusted
town,
speaks
severely
revenge
remote
poll
jumping
farmers
expressed
entry
ears
divide
assets
approached
adopted
abandoned
Idk
Definitely
Avengers
(my
worrying
verb
store,
relation
reasons,
rap
journal
ignorance
gone,
going,
free,
everyone's
distancing
depth
curve
convert
Source:
Or,
Nah,
Earth,
&gt;So
wouldnt
wise
tongue
tobacco
texts
raped
phenomenon
mutual
movements
meditation
magical
lifetime
jealous
functioning
fascinating
amongst
accomplish
Yea
",
seriously,
performed
passionate
market,
hair,
fool
feeding
Put
Pelosi
Joker
Dude
Despite
Act
*is*
##ent
“the
yard
sweat
spell
randomly
judged
improving
implying
household
horse
adds
THC
OK
"how
tickets
stairs
made,
identified
hunting
gaming
freaked
brief
arrive
Haha
AS
##O
worlds
spare
silent
program,
peer
networks
knocked
grain
genuine
estimated
bomb
We’ve
Marxist
Ive
COVID
##at
strain
still,
sexy
realised
ratio
production,
produces
paycheck
paragraph
mathematical
infections
implications
hilarious
firing
exciting
distant
destruction
cultures
burst
ain't
affecting
Green
English,
taxes,
sued
shots
scenes
savings
regulation
nous
narrow
hoax
glasses
gains
dismiss
creatures
civilization
buddy
bf
anxiety,
already,
ages
Monday
Love
High
Federation's
Dad
Bad
(although
##ian
##ally
we’ll
vacuum
stored
proceeded
owning
maintenance
involving
increasingly
holy
governors
frozen
fixing
filling
blog
argued
air,
Jewish
Europe,
wir
revealed
reject
rate,
processes
organizations
enforcement
cigarettes
brothers
Robert
Richard
Nice
Netflix
Let’s
It'll
10,000
(because
##F
trauma
lately
labour
guaranteed
für
entering
bathroom,
ADHD
##ed"
thoughts,
tens
subreddit,
protective
penalty
nightmare
mindset
loses
lawyers
fight,
ethical
begins
Looks
London
Getting
Fast
22
wrapped
shorter
reveal
privacy
persons
mission
insecure
hiring
engaged
eligible
deciding
blew
beside
aunt
antibiotics
anecdotal
absurd
Hulk
yelled
viruses
vape
suicidal
subjects
soda
senate
repeated
opens
mum
galaxy
clothing
belong
alive,
Okay
Learning
Eventually
35
2000
whole,
wasted
supposedly
purchased
occasionally
meals
lonely
lips
heal
gaining
fence
extend
employed
difficulty
dann
cleaned
capitalists
basement
at,
assistance
advise
Glad
December
Army
(to
through,
rights,
possession
orgasm
lung
leather
forgetting
feel,
eat,
dozens
confused,
birds
bang
Post
N
ACA
1.5
##sh
survey
subject,
southern
relax
property,
procedure
preferred
podcast
lol
hardware
fat,
bits
believe,
Putin
Actually,
&gt;We
resulted
loop
letters
hence
experimental
evolutionary
dump
demanding
chunk
carefully
bridge
blanket
bin
[This
Mom
Me:
Find
Blue
3-4
1/2
##...
writers
they’d
shelter
mere
literature
invented
inspired
favourite
dies
butter
Machine
Looking
4th
"good
west
title,
tissue
survived
programmed
phones
online,
nur
hey
cancer,
auto
Germans
%
##est
youtube
ye
reads
pussy
proving
plan,
output
married,
hydrogen
elite
diverse
association
Wait
TNG
##n,
##ke
##ar
worry,
texted
stare
searched
roof
punish
ok,
north
located
interactions
healthier
heading
founded
era
employers
discussions
calorie
S
wore
vegan
support,
pump
period,
n'est
juice
intentions
floating
flawed
dare
condom
adjust
[the
HIV
white,
unhappy
subtle
rating
payer
obsessed
harsh
gun,
formula
expectations
embarrassing
educate
donate
corn
conference
competition
assigned
Whatever
WILL
woods
virtually
soon,
sie
ripped
purposes
oppose
muscles
lawsuit
gather
father's
fancy
exit
consult
beautiful,
analogy
algorithm
Feb
Christ
&gt;There
##er,
##ate
wow
twist
stole
script
r
pressed
mushrooms
meat,
maintaining
freak
expense
expansion
died,
desperately
declared
bloody
aged
accountable
Otherwise
Hitler
Guess
F
1,000
&gt;He
wie
warrant
verify
twenty
speaker
reactions
public,
proves
mal
knees
ideas,
happier
figuring
engineer
doses
distinct
correctly,
committing
Wouldn't
PhD
Iran
##-like
##v
youre
such,
safely
police,
partners
liking
identical
enormous
endless
devices
describes
controversial
concepts
cold,
bench
appearance
TLDR:
Revolution
God's
Force
##G
workplace
viral
urge
unreasonable
technology,
statistical
punch
oldest
liability
functions
electronic
counting
VERY
Stay
Might
Makes
History
Britain
wrap
worthy
vice
threads
tastes
subs
societal
slavery
selection
rushed
nearest
même
mandatory
install
inclined
darkness
beauty
audio
Harry
CBD
wall,
slip
series,
samples
professionals
openly
m8
karma
it’ll
guilt
dire
crime,
cloud
atheist
Talk
CNN
"I've
workout
washing
trailer
team,
stream
rooms
rent,
officially
liable
happening,
garage
feeling,
experiments
expensive,
delay
Using
Such
Night's
Muslim
"in
##H
##me
visa
variables
sucked
stop,
sneak
shoulders
repeating
recording
rally
paste
inability
hey,
delivered
cried
colors
classical
buildings
bones
autistic
addressed
Journal
23
##\u
utterly
stem
son,
places,
oral
often,
m
limitations
lesser
hostile
flash
display
connections
card,
assholes
U
Neither
Little
Cuomo
##W
##ss
vehicles
sticking
reminder
proceed
presidency
practices
obtain
mouth,
lifted
it)
issued
insider
historically
e
boy,
annual
Wikipedia
Polo
3,
"just
##ful
“
wife's
wenn
voice,
view,
suffered
storm
settled
pages
nerve
medications
mechanisms
lasted
insulin
healthy,
goddamn
friendship
flew
faire
element
cigarette
buried
beef
Y
Research
L
"Are
wird
village
universes
strongest
species,
soil
slower
outside,
mistake,
lean
knowledge,
it..
incompetent
improvement
genetically
flesh
cruise
comparable
century,
borders
bien
applications
Windows
La
Always
100,000
submission
sits
second,
roads
psychedelic
pounds
password
motion
look,
earth,
France,
95%
##-based
##but
wine
waves
units
sounding
secondary
roommates
quarter
pathetic
partially
languages
industry,
incapable
genius
floor,
conducted
competitive
cars,
candy
blade
behaviour
apparent
angle
Zen
Labor
Canada,
(no
zone
witness
teacher,
suggestion
service,
serial
satisfied
rose
requirement
pee
offense
naive
i’m
guidelines
farming
crisis,
blocks
appointment
Saying
R
E
(this
##tic
virtual
treats
reward
retirement
proved
pride
preference
predicted
petty
nuts
flux
evidence,
etc)
democrat
da
comments,
coat
cake
blockchain
alot
accurately
WITH
Tom
Still,
Labour
General
Fake
(they
villain
test,
table,
sand
returning
rejected
recovery
reasonably
impacts
height
event,
crazy,
court,
bourgeois
boots
beneath
Were
Way
Le
Korean
Hello
CA
5,
threats
register
reduces
peaceful
parked
masses
haben
grant
expenses
ease
district
cuz
conduct
NFL
BUT
2.5
##V
workers,
uncommon
translate
tenants
teen
sends
races
principle
poor,
policy,
offers
offensive
late,
grass
etc,
enemies
civilian
Free
Dude,
*I
"What's
##nce
working,
women's
tracking
strong,
religion,
recommendations
realm
noting
nodded
nature,
memes
hes
heaven
halfway
dimension
bullied
beaten
beast
anytime
Right,
Rick
Germany,
Eastern
Covid-19
BEEP
(we
##ter
sin
should've
renewable
regions
punished
perceive
occurs
noted
fails
empire
drag
derived
dense
comprehend
collected
category
bible
ads
Tuesday
Jan
3D
##--
##,000
##king
unions
unaware
suited
sister,
screamed
pay,
mentioning
lease,
labeled
industries
hobby
exists,
disorders
dick,
cough
component
black,
Up
Iron
GDP
"Hey
##he
##et
##ary
terrorist
struck
stressful
questioning
promoting
opportunities
legit
joking
healing
diet,
dates
convenient
bully
attention,
announced
Under
Luckily
Assuming
5%
1200
widespread
timeline
threaten
river
right-wing
remember,
ongoing
ive
graduated
follows
expanding
deficit
criticize
congress
arbitrary
Voyager
REALLY
Cuba
"In
##like
##ia
whilst
volunteer
trap
territory
teens
size,
roots
rich,
renting
priority
preparing
march
laws,
investing
installed
inevitable
grounds
frequency
foundation
dad's
coup
copies
contacting
competing
chemistry
awhile
Wall
Better
30%
toll
symptom
substantial
steel
sad,
record,
rapist
rapidly
primaries
mothers
minimal
mehr
log
income,
functional
forward,
force,
dumbass
cleared
camp
absence
Personally,
IF
Going
Fucking
**The
&gt;They
"white
"Well
##age
transaction
mentioned,
impressed
importantly,
excess
drug,
criminals
ceiling
UN
Stalin
Deep
##ey
vary
tell,
shot,
regulated
pulls
ought
intend
habits
guy's
gens
clever
blamed
au
above,
Dr
Considering
40%
victory
popped
par
overweight
newer
mom's
implemented
feelings,
discovery
disability
crops
consuming
competent
baby,
awakening
Times
Therefore,
DC
Contact
"Is
##as
unrelated
setup
requiring
prone
organize
ordinary
males
joy
hell,
heart,
government's
dispute
constitutional
catching
addition,
Vietnam
Russians
Medical
BS
"Yeah,
##\\*
statistically
seen,
regard
rapid
prevents
pointless
overwhelmed
obesity
laundry
involved,
institutions
indication
grammar
fashion
eight
brother,
because,
Yep,
WE
Much
Italian
),
##the
vocal
versions
updated
troops
spray
shifts
pic
panels
occasional
knee
invade
gathered
experiences,
encounter
elsewhere
decades,
Sunday
Martin
##d"
singing
scheduled
revenue
replies
reader
practicing
pipe
paranoid
painting
kind,
instructions
homework
diversity
dems
dark,
contained
collecting
blocking
actor
Henry
Fair
Ever
(so
##ine
##ant
wings
unemployed
turnout
transportation
retail
regime
plausible
philosophical
navy
monopoly
instances
i've
fights
consideration
attraction
associate
TIL
Out
Mike
Medicaid
June
Anyways,
Air
"Okay,
##ze
vastly
variation
vagina
targeted
student,
sheet
rig
residents
reform
pray
planets
myth
ingredients
impeachment
generic
fucks
decision,
coast
c
adopt
wishes
which,
weed,
warned
vet
treatment,
tour
texting
strip
solving
skinny
sing
sector
riding
releasing
order,
obese
evil,
einem
drink,
division
defensive
counts
compensation
alter
agencies
\\&gt;
School
Communist
##e"
united
sucking
struggled
structures
steady
spends
sounds,
socialist,
seats
scope
rip
passion
need,
intellectual
grandparents
generated
fears
eviction
discrimination
disabled
conversation,
child's
billionaires
belt
avec
Ya
Trumps
Surely
:)
would’ve
wait,
ups
twitter
summary
serves
replying
recourse
principles
partner,
owed
nan
motivated
judgement
illusion
harassment
excuses
can't,
behalf
approximately
ON
weekly
ties
solo
sober
poop
play,
passes
mentality
luxury
liver
lit
limiting
lane
judging
invaded
horny
gold,
engaging
cope
carbs
american
airport
actions,
Reddit,
Knight
##es,
woman's
tout
torn
tonight
teenage
strangers
start,
snap
publish
ok.
longest
inherent
hoped
hallway
entertainment
crossed
consumed
bucks
brush
alternate
action,
Saudi
NBA
Haha,
4)
##U
utter
toys
thumb
television
steam
source,
separated
rhetoric
requested
prep
precisely
pace
older,
neurons
instant
fire,
facility
exercises
deemed
compatible
chip
bulk
blowing
behavior,
algorithms
absorb
VP
USB
Nah
Irish
Ford
California,
28
window,
we’d
theater
technique
tape
strains
statement,
shave
resort
objectively
minorities
lost,
judges
hating
demons
closet
cameras
biology
bailout
Three
Pence
Otherwise,
"good"
"Don't
##000
##00
##rd
used,
towel
sometimes,
sized
shortly
regulate
recession
pharmaceutical
oversight
nursing
mystery
make,
interested,
immunity
hall
guns,
gay,
fifth
east
corporation
confirmation
completed
classified
breathe
bar,
[I
Uber
Mars
Es
5th
##m,
##ized
##h,
techniques
tasks
snake
ship,
senators
ruining
rocks
relations
partisan
leaned
landed
invite
intervention
drew
deliberately
company's
cited
characters,
ballots
ancestors
affordable
Police
NRA
McConnell
LOT
GF
Change
4,
##up
##ance
spouse
shoes,
sentences
resources,
modified
minded
messing
magnitude
magically
injured
honestly,
holiday
happily
evolve
eats
critique
concept,
coincidence
Michigan
Jon
Depends
Christian,
##ess
“It’s
wiki
toy
theoretical
sustainable
soap
shoe
sheer
schon
row
personally,
pandemic,
option,
imagining
imagined
grip
fuels
expressing
ethnic
doctor's
chapter
challenges
boxes
behave
bail
avoided
assistant
aim
achieved
USPS
Sex
Problem
Kids
July
Additionally,
90s
(he
yell
trait
trail
terribly
suspicious
strictly
stories,
sells
scheme
restaurants
resolve
recently,
prevented
measuring
inch
iPhone
hypothetical
hill
f
elect
effect,
educational
declare
curious,
chief
atoms
Wisconsin
Ralph
CIA
Add
100k
string
severity
proportion
ordering
miracle
low,
introduction
inches
hint
gear
flights
einer
ass,
agrees
Scientists
Say
Mark
ME
IRS
Damn
Daily
1:
'I
&lt;
"why
##—
##il
yer
wherever
utility
unwilling
spring
smooth
smiling
sind
select
promising
procedures
organs
indicates
hooked
gym,
goes,
gate
form,
demonstrate
camps
aside,
Show
Meanwhile
Kingdom
Funny
Christianity
Central
##é
“This
who,
typing
tag
suspended
shaped
proletariat
performing
managing
linear
keyboard
irrational
exploring
discriminate
convicted
comme
bleeding
bees
bars
attack,
admitting
addressing
Watch
Personally
Alpha
Absolutely
&gt;No
"it
"He
talk,
stepping
soldier
scam
privilege
less,
layers
inequality
hunt
files
encouraged
electrical
convey
consciousness,
agreeing
actually,
Spain
Meanwhile,
II
August
##y"
writing,
whatever,
tactics
street,
running,
represented
reporter
raises
rage
polite
poison
pan
molecules
mate
lovely
interviews
dramatic
delicious
damaging
credible
commenting
clothes,
climb
clause
building,
breath,
boost
approaching
anime
amazing,
V
PTSD
PA
Mexican
ML
Dem
##(
speaking,
shutting
shady
reviews
question:
please,
picks
patch
oppressed
meets
math,
magnetic
luck,
loyal
link,
impressive
hatred
frankly
firearm
facilities
elaborate
doc
alongside
Thomas
OR
Dont
Council
Again
9/11
70%
#1
##el
zombie
wound
wider
washed
violating
vegetables
talented
suis
subreddits
strikes
spy
road,
opposing
molecular
machine,
lucid
locations
lessons
kissed
kann
implied
illegal,
enjoyable
dudes
download
depressed,
denial
comic
close,
clients
[Here's
Seriously,
Real
Public
Nope,
Kings
He'd
DS9
Climate
Chicago
BTC
##ding
wooden
void
today's
tail
struggles
selected
scratch
rifle
respiratory
pink
metaphor
meaningless
knocking
infect
inappropriate
hormones
grows
flaws
firearms
entertaining
encouraging
disappeared
dip
diabetes
debt,
damned
clicked
blatant
been,
basics
backwards
analyze
Less
(The
##o,
worship
slaves
rubbing
returns
pockets
other's
large,
involvement
inside,
fridge
fascism
evict
cooked
claim,
captured
by,
animals,
[Here
Water
Lol,
Left
Feel
CAN
80s
&gt;the
##zing
##ver
##sm
##ors
##ial
weights
twisted
tu
subset
smart,
serious,
sandwich
praise
ole
hour,
heroin
grades
fiber
extensive
effects,
duration
dreams,
documented
disappear
contracts
bent
belongs
Vote
TILT
Senator
Security
Depression
Been
2016,
"do
##sing
##out
##one
verbal
transmission
skin,
skilled
shifted
scene,
remembering
quickly,
possibilities
picture,
pacing
oven
organ
managers
lasting
interfere
imperialist
heroes
drunk,
differ
demands
cruel
containing
challenging
campus
breed
approve
anal
Step
Neil
Mueller
Mr
Law
20s
##ur
##ung
##led
werden
tooth
straw
sound,
smells
slammed
reddit,
protests
opponent
neoliberal
mutation
methane
membership
max
leap
jaw
interpreted
injuries
has,
fitness
drain
dragged
draft
distinguish
decreased
converted
chasing
capita
awarded
You’ve
Walmart
Mitch
Making
Furthermore,
2017
2008
(see
(it's
"We're
"They
##](http://www.youtube.com/watch?v
sport
sisters
simultaneously
signals
scenario,
qu'il
pound
operation
observing
mutations
metric
kingdom
is..
idk
freeze
forum
followers
distributed
dietary
covid
cite
b
authorities
abilities
Trying
NEVER
Jack
Islam
Interesting
26
violence,
unpopular
tune
theft
thankful
symptoms,
spit
slipped
shitting
senses
seller
screams
scared,
resist
removal
provider
p
nominee
moron
liars
influential
fluid
exclusively
consumers
bonus
behaviors
apartment,
allergy
You’ll
Tesla
Southern
PPE
Matrix
J
(from
"you're
##The
##LY
##.html)
##**,
##s'
talent
sustain
shouted
rub
quoted
proteins
preserve
negatively
meetings
land,
lacking
honor
grad
gently
gentle
flood
downvote
diets
dementia
dear
chance,
centuries
backup
backing
assumes
agriculture
adult,
Saturday
Man,
End
Bernie,
(you
'The
"fuck
##***
tracks
temperatures
societies
rule,
results,
refugees
quo
landlords
ja
guest
exam
earning
defeated
dealer
couples
components
begging
adoption
Peter
Ohio
Jim
HOA
GM
DMT
Corona
C.
Based
ANY
##so
##ring
##ier
vegetarian
triggered
supervisor
shadows
semester
roles
rocket
reviewed
psych
profitable
people"
nail
launch
flipped
expose
digging
demonstrated
dangerous,
crop
comedy
burns
bump
bullying
brilliant
beginning,
beats
beard
beans
allegations
ONE
"well
“It
wished
w
tweet
tourist
susceptible
stats
stages
solution,
simulating
sentiment
router
realization
reaches
quotes
propose
ppl
packed
model,
matches
leverage
learning,
inflation
idiot,
grandpa
freely
ethics
cracked
courses
conventional
construct
cleaner
bankruptcy
accusations
TV,
HPV
Earth's
10,
(unless
##ft
##am
would,
weigh
websites
wanted,
value,
top,
terrifying
suppress
stumbled
siblings
shield
replicate
partial
min
med
mechanical
massively
margin
loaded
intimate
ideological
groups,
gray
glitch
facial
dumb,
content,
bug
afternoon
accident,
WAS
Space
So..
Reserve
65
27
(such
##red
##der
yesterday,
traveled
trace
report,
observation
mutually
minimize
mall
lockdown
lil
leftists
kicking
journalists
ironic
investigating
hesitant
here:
glance
gathering
depressing
courage
colleagues
clinic
cinematography
bond
bath
available,
Here’s
He'll
AI,
##ny
##en,
wisdom
substances
started,
singular
retain
ready,
projection
pale
isolation
hid
format
finance
farms
expanded
dismissed
discussion,
council
clouds
chips
bot,
atheists
adjusted
addictive
True,
Satan
Office
October
Kim
Justice
Il
Cause
Carolina
*at
#
wheel
torture
stations
spider
peers
passive
passenger
outlets
manual
legitimately
heating
greenhouse
garden
forming
exercise,
equipped
criteria
country's
blank
bizarre
biden
Governor
Can’t
Borg,
“If
witch
variable
upcoming
uniform
terror
resident
providers
project,
price,
pressing
points,
most,
mitigate
little,
judgment
joining
highway
greed
grabbing
genetics
fabric
expectation
encountered
economically
distracted
conclude
computing
communicating
clothed,
chaos
carb
boot
art,
apple
angry,
Sam
Republic
"*
•
terminate
studies,
restricted
resolved
powder
pitch
pics
norm
mistaken
least*
lazy,
heck
glanced
gang
frequent
finite
fictional
fate
fan,
facebook
exclusive
equality
crossing
correlated
collar
classify
causal
believer
bei
assaulted
anonymous
alliance
Sun
Half
AN
&gt;How
##J
##ir
wildly
unpaid
trolling
tattoo
succeed
session
seeds
seed
risk,
rats
popularity
noch
hourly
get,
forever,
estimates
degree,
common,
coach
brutal
briefings
balanced
advertising
Yup,
William
Wenn
USA,
Need
Ferengi
Downvote
75
"That
##ld
##ay
v
upstairs
tossed
subconscious
style,
sperm
slid
self,
restraining
resistant
referendum
references
reading,
presidents
midst
mechanics
list,
justified
fires
fever
edited
drastically
definitions
cooling
consequence
concerning
call,
barrier
atmospheric
alcohol,
accusing
WHAT
Northern
Night
LGBT
GOD
Dutch
##.."
“A
violate
up"
unconscious
transferred
spots
soup
souls
slap
sane
revealing
resolution
reply,
relates
proposal
present,
powerful,
pin
organism
options,
oil,
nut
morality
man"
linking
kissing
jazz
herd
headlines
guitar
exploit
destructive
d
conditions,
captain
branches
bothering
Whenever
Wait,
Russia,
Mind
Disney
American,
##&gt;
##ow
##ma
“Oh
vital
tube
therapy,
switching
somewhere,
sexuality
scan
researching
prominent
nightmares
needed,
matrix
manipulated
libertarians
keto
finishing
existential
emphasis
devil
demographic
cat,
caffeine
bill,
begun
asking,
anywhere,
amazed
aimed
Young
Took
Reagan
Please,
Lauren
Hong
Exchange
Data
Australian
AT
"but
"bad
##os
##ning
understanding,
timing
til
suits
suitable
studio
streaming
speeding
smokers
pen
parallel
panel
notice,
nach
murder,
hug
he’ll
examine
didn't,
crushed
couldnt
compounds
cheapest
burnt
bothers
blood,
bastard
average,
agents
after,
Went
Rome
Poor
PR
ONLY
Mar
IP
Hollywood
GMO
younger,
whats
watch,
vodka
try,
tremendous
thoroughly
suspected
smelled
shove
respected
registration
quietly
purpose,
premiums
practice,
participation
ours
op
musical
mountains
meth
loss,
infinitely
id
guards
fuckin
footage
favour
explicit
entirety
difference,
decisions,
complexity
centrist
cave
box,
blindly
appointed
admin
Yea,
Street
Person
M
KNOW
Finally
Al
52
"normal"
"There
##ving
##ping
##ght
“But
upset,
underwear
teenagers
systems,
submitted
state's
sought
sore
shipping
religions
placebo
nutrition
mir
landing
justification
impacted
genocide
g
fusion
funeral
fruits
fiction
fast,
everywhere,
endorse
elementary
detective
desert
delayed
dancing
conversion
conquer
born,
boring,
bacterial
applicable
adapted
They'd
Study
Regardless
Pokemon
Kushner
College
"Not
##ide
surviving
supreme
someone’s
sister's
shortage
pursuing
purple
permit
offices
noticing
lying,
lists
investigated
infectious
grid
extract
difficult,
convenience
contract,
companies,
cautious
cancelled
both,
bitcoins
beliefs,
alleged
Totally
Thanos
O
K
Hence
Directive
Delta
250
*that*
##ical
worries
wire
urgent
synthetic
span
shallow
profound
precious
pleasant
physician
optimistic
opioid
ont
masturbating
manufacturers
intelligence,
insist
impossible,
honey
gravitational
fookin
folk
dictate
defining
compound
complaints
charity
backs
Years
Und
Order
Money
Home
Exclude
Afghanistan
##s”
##ra
##cy
worthless
underneath
surplus
stab
sky,
similar,
sexist
restrict
relationships,
recreational
purchasing
oppression
marked
leur
irony
instead,
ignores
guidance
fetus
exhausted
distract
disagree,
cummy
closed,
certainty
boss,
assure
appreciated
airline
adequate
act,
Secondly,
Pro
Obama's
J.
Ireland
Food
FUCK
Due
AOC
32
(maybe
"right"
##rt
##ot
wording
wieder
whites
warn
tripped
training,
towns
these,
theirs
sunlight
speakers
socks
serotonin
sensation
season,
satisfaction
researcher
reporters
relaxed
pushes
presumably
prescribe
predictions
player,
operations
noun
middle-class
male,
liar
hurt,
fear,
einen
effort,
dramatically
divorced
daughter,
crappy
changes,
broader
bottles
We'd
THEY
NHS
Exactly
"Because
##ons
weaker
tool,
threshold
temporarily
tap
suppression
shell
rescue
red,
protagonist
pit
northern
na
masters
lowered
launched
institution
identifying
ideals
hole,
females
elevator
editing
documentation
details,
contributed
cities,
bucket
blatantly
aus
assessment
arts
appealing
afterwards
Warriors
Today,
September
Scott
Les
Holocaust
Global
FUCKING
Boston
1-2
##ut
##ure
##to
##dy
##ated
trends
travelling
tho
specialized
slide
similarly
ratings
permanently
parenting
orbit
or,
lately,
journalist
jack
golf
fond
feminist
feet,
expert,
eager
driver's
domain
dish
dangers
chamber
absorbed
Z
Voting
Universe
Taking
Learn
Hi,
H.
Et
Empire,
Company
&gt;As
"too
"Who
##ying
##on,
traumatic
translation
tradition
tired,
terrible,
shocking
scenarios
risky
reset
recognition
quitting
protections
parody
page,
otherwise,
neat
moms
mathematics
material,
k
irresponsible
imperialism
husband,
he/she
guy"
graph
gladly
fuck,
flipping
fishing
explosion
equation
dying,
direction,
church,
celebrate
campaigns
brick
breakdown
brave
bodily
blows
automatic
assimilated
Theres
Therefore
TOS
Santa
Reade
President,
2012
##(s)
##ta
##q
##her
##ging
##ad
wage,
varying
understandable
transactions
toss
systemic
shouting
rude,
recovered
readily
microwave
legal,
knight
jar
interacting
english
dioxide
deer
civilians
china
carpet
bourgeoisie
belly
advances
Los
Game
25%
&gt;Why
&gt;When
"don't
##..I
“And
tuition
snapped
scores
requests
queen
protocol
powered
port
popular,
organisms
maybe,
masturbate
manager,
locking
location,
lands
insulting
inflammation
illegally
hobbies
ghosts
genome
faith,
epidemic
discredit
discount
dairy
d'un
coffee,
career,
caloric
boundaries
bitter
binary
baseline
Soviets
Question
Marvel
Leave
Adam
2010
##ization
über
website,
unified
taxed
tactic
sun,
suit,
simulators
significance
shed
shape,
senator
rolls
principal
outlet
monsters
kitchen,
i'll
girls,
focuses
flags
existence,
essay
criticizing
crashed
counted
could’ve
comprehensive
cells,
capability
bullshit,
antibiotic
accuracy
Welsh
True
Thursday
Note
Maduro
Kind
Insurance
GLASS
De
Book
60%
18,
*I'm
"get
##ls
##l,
visits
van
storing
sticks
spite
songs,
sometime
secretly
seal
satisfy
sadly
punk
offset
museum
misunderstood
kidney
jury
instinct
extinction
electrons
dumped
dictator
debit
break,
attractive,
asleep,
armor
abandon
a)
Thankfully
Targaryen
Mary
Land
LA
FAQ
Everybody
Doing
Doctors
Depending
Cut
Children
Care
Bang
Americans,
10k
"you"
"So,
##based
statute
starving
smallest
screen,
resting
printer
poorer
particular,
opt
noble
nation,
monetary
mins
melting
median
lord
leak
knowledgeable
killed,
interference
indicator
holographic
h
fascists
exploitation
episode,
earliest
dragging
dosage
dentist
debates
cups
cow
chest,
bat
attributed
Sanders,
Obligatory
Lets
Eventually,
Chief
Beatles
800
3:
180
1/3
(1)
##you
##n't
##all
yours,
yearly
threat,
therefore,
technologies
subsequent
spirits
smoking,
smoke,
scientist,
revolution,
psychiatrist
productivity
pre
mixture
martial
louder
living,
lightning
liberty
learn,
http://www.youtube.com/watch?v
executed
drive,
delegates
definition,
contribution
collapsed
bend
basis,
b)
arguably
alright
accidents
Work
UBI
Ron
Modern
Look,
IV
ICU
HALP
Fed
Didn’t
Cuban
Ben
Asia
2%
##Z
##ton
##ms
##ds
youngest
wtf
worded
videos,
tolerate
that'll
targeting
structural
stabbed
slow,
single,
similarities
si
shelf
services,
said:
relies
releases
rear
rat
precise
policies,
peanut
parental
network,
longer,
lined
labels
inevitably
govt
goal,
flavor
fathers
excitement
dictatorship
cousins
cabinet
boat,
bell
banking
areas,
approaches
anyone's
accommodate
Superman
Rights
Nor
League
Hard
Fun
China's
America's
(she
"bad"
##sis
##ol
##cal
“So
yield
watches
vivid
universities
tomorrow,
targets
sucks,
substitute
strategic
slice
simpler
shops
rabbit
pregnant,
poured
newly
nap
mold
memory,
lighter
kidding
just..
insisted
individual,
indicated
immoral
hype
horribly
highschool
fart
family's
entities
em
dumbest
downstairs
deserved
damage,
costs,
contractor
compelling
commission
colonies
circumstances,
acute
acceptance
abortions
W
Third
Ted
Small
Native
Master
Later
LIKE
Happy
##[
##-related
##t"
##my
##day
“How
weapons,
vaccination
unexpected
tomato
titles
thru
sympathy
spicy
sidebar
settings
scale,
risking
representing
representatives
plastics
partly
parties,
parent,
newspaper
mysterious
likely,
lake
indie
illness,
headphones
generous
gender,
frustration
exponential
embrace
effectiveness
cycles
crucial
commitment
coke
cheap,
centers
casually
brainwashed
blast
bernie
basically,
backpack
artist,
Worst
Within
Vulcans
Muslims
Mountain
Deutschland
Daniel
Car
Biden’s
6th
19th
(just
'
"that
"all
"Your
##ue
worldwide
veto
unto
travel,
theoretically
that..
swallow
supplements
summer,
stroke
stigma
spectacle
some,
sensitivity
rubber
questioned
promoted
privileged
priest
porn,
patent
opioids
necessary,
motor
medicine,
meantime,
makeup
lose,
lasts
hunger
hack
fried
foster
formation
flexible
evaluate
development,
demanded
cube
complained
certified
bills,
banana
VA
Theory
Society
NSA
Link:
Between
AP
AMA
29
##\\]
##les
whatsoever
wears
wants,
themes
tension
swim
surprisingly
supernatural
shower,
separation
realizes
rapper
rant
publication
probable
presenting
pork
pilot
parts,
paragraphs
painted
needs,
messaging
logic,
lithium
greedy
excessive
ex,
equipment,
electron
early,
distance,
covid-19
copyright
commented
coming,
churches
candidate,
bow
bots
borrow
blah
beds
automation
appoint
adverse
abusing
abolition
WAY
Trust
Nuclear
Kinda
Four
FU
Currently
Anyway
Andrew
5k
21st
2015
(by
"Just
##s*
vent
trilogy
thermal
stupidity
stretched
speculation
speak,
screenshot
printed
premium
participating
ou
olds
obtained
moderates
mixing
marks
limb
keine
immature
highlight
half,
factories
exercising
emotions,
disturbing
disregard
desk,
design,
declined
debating
console
cocaine
cheeky
breakthrough
band,
attitudes
[A
Thus,
Shit
Several
Mine
HE
Clearly
Bob
Aber
48
"new
##ff
##ating
vibrator
varies
throws
tearing
supplement
shootings
shining
shes
set,
reputable
rather,
navigate
moon,
misconception
me"
lobby
ladies
journalism
gradually
gaze
french
fired,
exceptions
edgy
eastern
disingenuous
custom
crowded
counselor
convention
contest
coherent
changed,
cease
bold
billionaire
bag,
bacon
accomplished
Seriously
Mais
Kong
Full
Bay
Arthur
4-5
*the
(assuming
'the
"he
##20
##use
##son
##na
##land
##ee
withdrawal
wireless
verge
upgrade
tweets
time)
suing
stability
specifics
sources,
site,
secretary
seconds,
rounds
retarded
reactionary
pets
overthrow
occupied
motorcycle
maximize
maintained
logo
leader,
laser
laptop,
invisible
invasive
inherited
hesitate
flowing
fiance
female,
expertise
coping
conflicts
classification
chair,
breeding
attract
attorneys
ambulance
ally
admit,
accuse
Private
Nature
Lenin
Landlord
Cena
Brexit
Battle
70s
(I’m
&gt;not
who've
unethical
uncertainty
tricks
traded
swallowed
substantially
spinning
spike
sons
sir,
saves
respectful
rape,
prevention
passport
overwhelmingly
overtime
offspring
noticeable
minute,
meters
metabolic
mandate
legislative
laugh,
hormone
groceries
framework
flu,
films,
failures
factors,
etc.,
dreamed
digits
curse
coughing
container
committee
colour
buys
broadcast
beg
anyways
Upon
St.
Killing
J'ai
Illinois
ICE
Colorado
(except
(This
&gt;implying
&gt;&gt;
##que
##pe
woken
wired
well-known
viewing
vibe
thou
those,
sighed
shooter
regional
receptors
razor
problematic
probate
printing
pouring
portrayed
melt
j'ai
intelligent,
heard,
found,
flame
faint
facts,
echo
doubts
dimensional
daughters
cured
criticized
cookies
con
comrades
coalition
clown
businesses,
blacks
base,
automated
affairs
abuse,
Service
Said
Regardless,
Luke
Jeff
International
Georgia
Five
Besides,
Amendment
(since
(of
"All
##.jpg)
##ther
##nk
##ite
##do
wolf
warnings
twice,
stress,
straight,
squares
sphere
spaces
smartest
slowly,
sheets
rings
ridiculously
potent
nutrients
mayor
lowering
like..
known,
grace
eye,
enact
dried
dominated
distribute
detrimental
cursed
compensate
cherry
cents
but..
behavioral
attending
allergies
Rule
Covid
Bank
BECAUSE
A.
*very*
"Sir,
##..and
##'s,
##zed
##ro
##ral
##ned
##lly
##ct
##ans
wary
trillions
subsidies
stack
speech,
shirt,
settlement
sequel
security,
relying
reacting
plague
personnel
mortal
monitoring
medieval
lobbying
loads
ist,
implementing
gloves
farther
essence
entrance
ensuring
doctors,
deed
deaths,
darker
confront
concentrated
commenter
cholesterol
carries
buyer
bugs
browsing
attended
apologized
angel
akin
advised
accusation
Pacific
Oregon
Mostly
Media
Maybe,
JUST
Found
Fire
Edit
Administration
5)
36
31
2013
*you*
(where
(2)
"more
##thing
##ps
très
thorough
this..
teaches
spy,
slowing
slightest
scar
retired
relieved
recommendation
projecting
president's
pops
popping
patience
outer
obvious,
message,
members,
manages
locks
licensed
lethal
it;
it:
intensity
incompetence
implication
heated
girlfriend's
fitting
feasible
explanation,
events,
enclosed
ego,
efficacy
dynamic
dreamt
donors
craft
corrupt,
complex,
channels
buddies
answers,
aka
aggression
address,
Steam
Netherlands
Kanye
Israeli
Help
Consider
Alabama
6,
350
(e.g.,
whispered
weekends
upvoted
trouble,
temp
tab
sworn
superhero
stake
speed,
seasons
schizophrenia
relatives
racism,
qu'on
planes
pharma
pesticides
migrants
measurement
lube
instrument
hot,
headache
grams
gibt
fortunate
explanations
donations
dogs,
disgusted
determining
desired
dental
creep
concerned,
compliment
circles
cause,
boiling
awesome,
autoimmune
arsenal
americans
airlines
Welcome
Thing
Seeing
MORE
It'd
GET
Exactly,
2014
*and*
(also
&gt;That's
&gt;I've
##..but
##men
##ger
vaccinated
unsafe
undermine
ultra
terms,
students,
spelling
shirts
replied,
prosecutor
prevalent
portal
pissing
peut
panicked
optimal
oi
observations
nomination
me)
immer
hammer
felony
errors
downvotes
democracy,
deck
credibility
classroom
chooses
castle
bankrupt
availability
agricultural
acquire
Speaking
Singularity
Reading
Network
Mass
Institute
Emperor
Elizabeth
Bloomberg
3.5
20,000
120
##ER
##un
##io
“No
writer,
weapon,
upvotes
upload
twin
tricky
toddler
taxi
swimming
straightforward
slowed
sheep
shaving
seize
recognizing
reacted
quantity
projected
producers
pressure,
petition
pants,
originated
module
marriage,
mandated
losses
into,
interests,
inspection
inaccurate
imagination
hurry
helpful,
handing
halt
glowing
flowers
firmly
film's
feared
engineers
dryer
downside
doot
discipline
database
currency,
controller
continuous
connecting
cent
carrier
calculated
bull
bro
bosses
barriers
assess
artificially
apps
apples
any,
america
administration,
addresses
\u
USS
Power
NEED
Marshall
Link
Knowing
Italy,
G
Bible,
"oh,
##gs
world"
wee
visualization,
upside
unarmed
tore
tasted
surgeon
socioeconomic
semi
scientifically
questionable
protects
product,
preferences
pm
parents'
organization,
ohman
molecule
modify
mini
left-wing
lap
insects
glucose
freezing
fox
flush
flower
flooded
edit:
drinking,
dragons
dishes
definitive
crashing
contradiction
combine
clip
briefing
benefits,
baseball
assist
asset
arrogant
array
[You
Want
WOULD
Trayvon
Suddenly
Steve
Pay
Often
Nancy
Jane
Gen
DXM
Child
700
3000
18th
"is
"big
"When
##we
##k,
##ied
“That’s
written,
witnessed
weekend,
voluntarily
ventilator
vaguely
universally
uni
uneducated
transgender
systematic
sugar,
so..
so-called
smoker
situations,
sigh
shout
scares
restore
researched
rep
prisoners
positive,
platforms
placing
lines,
lies,
letzten
knew,
jurisdiction
jet
introducing
intentional
hers
harmless
grief
generating
fasting
faded
engines
effective,
earlier,
destroyed,
curiosity
crystal
cows
cotton
cooler
co-workers
chart
characteristics
challenged
certificate
campaigning
beta
bartender
asses
alternatives
all)
aiming
addict
acknowledging
abolish
Vegas
Thor
Thinking
SEE
Meaning
Marine
Gotta
Giving
Different
B.
Alex
7,
2019,
(about
##per
##ory
##ley
##go
##er"
##by
“Well,
été
wirklich
username
triangle
text,
temporal
tale
sympathetic
surgical
stock,
slim
shipped
shifting
sensory
satisfying
sadness
reflects
rated
quicker
punched
programmer
profit,
pig
peek
organizing
olive
occurring
occasions
negotiating
mindfulness
methodology
loud,
loser
lbs
l
insanely
immortal
illnesses
i'd
hood
flames
fairy
exploited
everyone’s
etc..
equate
empirical
disgust
directions
criticisms
contrary
color,
classes,
citizenship
citation
chase
ces
board,
blue,
asthma
arguments,
absentee
Union,
Studies
Secretary
Secret
Reminds
Neural
Kylo
Ice
Guy
EPA
Damn,
Charles
Around
55
##/),
##’t
##sed
##ard
y'all
wrist
wot
willingness
willingly
warmer
vor
violated
validity
unfamiliar
squeeze
skull
simplest
shoved
rope
robust
psychiatric
psilocybin
proposing
prevalence
positively
populated
pity
pepper
paused
out"
nicer
multiply
manipulating
luckily
lip
laughs
interest,
inefficient
index
import
idiotic
humanity,
harassing
guests
faster,
employ
economies
drone
devastating
crusaders
cookie
colony
binge
binding
backyard
accidental
Wuhan
Wir
Sarah
Puerto
Park
OK,
Mother
Japan,
Instagram
Here,
County
Cap
5-10
3%
&gt;My
"hey
##ists
##ber
”
well-being
trumps
tomatoes
swung
signature
responsibilities
reproduce
qualities
proof,
profession
primitive
predicting
precedent
planted
physics,
physicians
patients,
niche
mega
lump
lecture
infant
hier
herself,
heavier
harassed
googling
furniture
encourages
ejuice
driveway
drastic
doesn't,
decay
debate,
cost,
cosmic
concentrate
communists
comfortable,
cloth
breach
batch
assured
accompanied
[Source
Virginia
Un
Somehow
Must
Lil
H
Friend
CPS
Amsterdam
@
(usually
##?
##i,
würde
worked,
wishing
weakness
vrai
updates
trusting
tragic
taxpayer
talking,
survive,
sufficiently
sovereign
simulator
shop,
shits
sealed
rushing
royal
richest
reproductive
programs,
princess
plead
onset
nowadays
lining
it),
isolate
immigrant
hotels
horrible,
hear,
hardcore
grants
gluten
girl's
function,
freshman
fetish
exposing
enjoyment
email,
edges
discourage
corrected
contrast
constructive
clearing
christian
childish
bearing
army,
arise
apart,
Venezuelan
Top
TL:DR
Republicans,
Orange
Made
Greeks
Grand
Goku
Da
Besides
AITA
15%
1.
##50
##ten
##rn
##ped
##ks
##gh
##be
être
you,"
thy
throne
testing,
stain
regulatory
referenced
quiet,
pause
nails
morals
laughter
lacks
kit
haunted
grin
governing
genre,
fragile
find,
factual
enforced
emailed
directors
defense,
considers
conditioned
complications
chickens
catalyst
brands
booked
boil
biases
autonomy
atom
armies
altered
alcoholic
Through
Stone
See,
Pete
Jones
HAS
Father
Enjoy
Don
Dominion,
Doesn’t
Cummy
Chris
Burr
:(
1/4
*are*
"Can
##'t
###
##")
##zation
##related
##ner
##ky
##j
winner
uh,
trivial
trade,
striking
stoner
slippery
skills,
schools,
promises
predictable
poverty,
pharmacy
patient,
park,
owes
notified
momentum
milk,
microbes
loudly
isn't,
investments
interrupted
influences
imaginary
horrific
furry
flaw
fiancé
feminism
fatal
entertain
dug
dressing
disclose
disagrees
destination
dealers
daddy
cummies
collectively
closer,
bee
background,
aircraft
affair
[EU]
Workers
Unlike
Syria
Suddenly,
Soon
Son
Smith
Plenty
Open
Mac
MUST
IMO
Gun
Democrats,
DID
Center
Arizona
30s
---
*"
"being
##us,
##no
##line
##ight
warfare
visuals
velocity
variations
university,
unfortunately,
um
transplant
tipping
tabs
stockpile
spreads
shutdown
segment
rented
refusal
rebuild
rallies
publishing
professors
probation
privately
praying
pose
nuanced
nose,
malicious
invent
impress
horses
gas,
founding
fade
examined
escaped
epic
entity,
endorsed
enable
downplaying
counties
coronavirus,
continuously
continually
condition,
comply
commentary
climbing
blonde
basketball
bark
align
York,
Yesterday
Ukraine
Socialists
Researchers
Recently
Palestinian
Obviously,
Music
Max
MAGA
Living
Family
El
AC
911
50/50
(one
##Q
##ence
##den
writes
unstable
typed
thirty
take,
she’d
scroll
retire
recovering
plants,
paths
ourselves,
occasion
needle
merit
m8,
levels,
integrity
havent
graphics
full-time
exploration
expired
eventually,
enthusiasm
ending,
employees,
elites
dive
derivative
cut,
credits
corpse
core,
copper
continent
concluded
concert
collections
citing
cart
browser
bombs
algebraic
Wednesday
WHY
Sith
Side
GRRM
Einstein
Conservative
Buy
2018,
/u/
*in
&gt;You're
"hey,
"Then
##\\
##:**
##ys
withdraw
wiping
waist
vocabulary
underestimate
tubes
trucks
toilet,
success,
strings
speculate
specify
shuttle
should,
scary,
reflected
re
rates,
purposes,
pumping
puberty
presents
overthinking
overnight
nerves
mistakes,
microbiome
micro
mg
matters,
matched
lottery
lawn
keen
induced
individuals,
improvements
huge,
hiking
hearts
fist
embarrassment
earnings
dorm
disrupt
dildo
curb
continuum
consists
come,
cardiovascular
bury
builds
broken,
aware,
assertion
arms,
antibodies
alert
advantages
activity,
Tony
Tinder
Thus
Sadly
Romulan
Party,
PTO
PLS
Needless
Matt
Jesus,
Infinity
Generally
Florida,
FB
Asking
Alzheimer's
9,
7th
"black
##.com
##time
“You’re
yo
whales
voters,
voluntary
virtue
unclear
triggers
travail
tragedy
this"
testosterone
suspicion
stoned
splitting
sizes
reveals
readers
proportional
properly,
prop
personality,
overall,
outrage
opiates
oceans
obscure
melted
medically
manufacture
manipulation
mad,
leaked
labor,
king,
kindness
independently
imagine,
hypocritical
grave
generalization
foolish
farmer
exploiting
execute
enjoys
driving,
dishonest
contents
constructed
commute
clerk
clarity
chains
centre
buzz
bra
bounce
beloved
asteroid
ants
alt
VR
Syrian
Sometimes,
Quadrant
Orthodox
November,
Moon
Marxism
Lost
Lmao
Johnson
Jason
Healthcare
Golden
Defense
D.
2020,
2009
(probably
(I've
"there
"out
##izing
##ious
##ice
##da
“you
upfront
unlimited
transporter
transported
tortured
surge
subway
station,
selective
sanctions
reserve
removed,
rang
quote,
psychedelics,
promptly
projections
prince
praised
populace
passed,
passage
nuke
narrator
migration
marginal
loyalty
listen,
legalization
knows,
ion
innovation
hit,
goals,
franchise
eternal
drill
divine
delivering
conquered
clicking
citizen,
chatting
catastrophic
cans
campaign,
cabin
boyfriends
award
autonomous
absent
SC
Obamacare
Gates
Calling
Arabia
Alcohol
3-5
-&gt;
"free
"Trump
##2,
##la
##if
…
“My
“Do
vested
unpleasant
tribe
treaty
trades
toe
termination
tended
stay,
staff,
smile,
slapped
sentence,
sections
screwing
scales
satire
purposely
pros
pronounced
preparation
plates
photons
photon
pense
peace,
passengers
obviously,
murdering
motive
mindful
met,
logically
kidnapped
kicks
inspiration
handles
gallon
fortune
fit,
finally,
fathom
fallacy
else’s
einfach
efficient,
dating,
condoms
clean,
classmates
citizens,
cancers
boomers
bonds
betting
attorney,
attach
arm,
anyways,
along,
allegation
ain’t
agreement,
Words
Wish
They’ve
S.
Oi
Islamic
Hello,
Dead
Christ,
Carbon
BBC
2.
0,
*all*
(on
(And
"well,
"my
##5,
##youtube.com/watch?v
##om
##ly*
“Oh,
worth,
willfully
waved
wakes
uniforms
thesis
static
starve
selfish,
scratched
sciences
scattered
routinely
rigged
restaurant,
rest,
responds
residential
repost
religious,
reactor
rank
qu'ils
physiological
parameters
nutritional
necessity
murderer
multi
mirror,
minus
midnight
menu
mail-in
lens
know..
interviewed
intensive
insisting
how,
horizon
hopeful
honesty
here’s
heat,
glimpse
follow-up
false,
exempt
equals
ecological
dough
doubt,
donating
corners
contributions
contacts
children's
celebrity
beginner
beep
admins
administrative
accurate,
Weird
Vice
Texas,
Tax
Simply
Ryan
Iowa
India,
Easter
DSA
Australia,
8th
1500
0%
*can*
&gt;*
##s/
##ries
##hip
##ha
##co
##back
veggies
unite
tunnel
tuna
transmitted
tightly
tax,
survivors
surprise,
successful,
strategies
stars,
squat
specifically,
solidarity
renew
relaxing
rejection
quit,
puppy
proceeds
pillow
origins
operates
noise,
natives
narcissistic
mighty
mess,
me..
investors
integral
indigenous
feminine
exhibit
elections,
drown
determines
detail,
departments
dealership
confuse
concentrations
check,
cellular
bullets
brother's
bailouts
anarchist
allied
[a
Turkey
Similar
Number
Low
Korea,
King's
Francisco
Defiant
Blood
34
20,
*do*
##S,
##of
##lt
##jpg)
##ile
##gen
“Why
waving
verb,
underground
travels
therapeutic
symbols
sword,
step,
sides,
shorts
ships,
sentenced
sarcastic
resume
repercussions
quest
puppet
posts,
possess
picky
opponents
obsession
norms
n'a
mud
mock
mob
mildly
mention,
manufacturer
magic,
lighting
ingredient
incidents
identity,
hungry,
hospitals,
hoax,
grabs
fork
fatty
extinct
eliminated
ecosystem
dripping
disconnect
device,
deployed
cringe
created,
converting
condescending
computers,
compromised
clarification
character's
bs
boils
barrel
[https://www.youtube.com/watch?v
Working
Title
Taliban
RNA
Ms.
Marcus
M.
Light
LeBron
Lastly,
Him
Boy
Barr
38
37
&gt;That
&gt;Is
##ES
##3,
##“
##tch
##ize
##ere
##ball
‘
you..
worthwhile
wizard
witnesses
wipes
weniger
violates
vessel
verbally
unprecedented
tense
stray
stones
sour
son's
smear
shag
rewrite
quantities
purposefully
products,
pre-warp
packages
only,
one)
nod
lover
licking
lick
junior
indicating
impose
hunter
highlights
helmet
genres
forbid
fish,
expects
eliminating
electronics
dunno
disorder,
discovering
discharge
dimensions
decreasing
counseling
conviction
confronted
composed
cheeks
cashier
budget,
blunt
battle,
baking
athletes
albeit
acquired
accounting
accounted
accent
South,
Short
Senators
Poland
Jared
Intelligence
Id
HUMAN,
Guardian
Far
Beyond
BMI
BC
75%
17,
15,
(some
(If
"real
"..
##NG
##–
##ust
##sion
##oo
##ked
##ep
##ase
waters
vraiment
tub
truck,
transparent
touches
texture
terrorists
tall,
surveillance
suicide,
sucker
soundtrack
soul,
shows,
servers
seriousness
sensible
self-driving
selbst
seasonal
say:
residence
requesting
punishing
provision
promotion
plasma
phenomena
payroll
party's
oils
noun,
noises
morons
men's
mechanic
lol,
learns
inheritance
independence
housing,
hoarding
herpes
hat,
guessed
googled
gaps
fulfilling
footsteps
fighter
fifteen
failure,
engineered
engagement
einmal
donor
dollars,
distress
deductible
cryptocurrency
corner,
contagious
commander
civilizations
cheek
called,
cage
bio
bans
bank,
always,
aligned
Walking
Place
Kavanaugh
Humanity
French,
EMAIL
Drug
Dear
Certainly
CS
CPU
BEEN
5000
10-15
(A
&gt;For
"no,
"Fuck
##ness,
##ise
##ew
##ah
“what
yoga
wreck
wander
vomit
virgin,
underestimating
treadmill
thier
thankfully
tests,
teachings
tables
stretching
socialized
smashed
singularity,
seizure
scratching
scrap
relating
refute
rampant
polar
poisoning
offend
meaning,
lifelong
just,
intuition
hypocrisy
hormonal
further,
fascinated
families,
environments
dull
doubling
disprove
devoted
critically
cracks
contracted
contemporary
bred
body's
bless
atmosphere,
abroad
X,
Us
Third,
Tara
SCOTUS
Royal
Palestinians
PLEASE
Normally
MCU
L.
I.
House,
HK
GI
DOI:
Brown
16,
(when
(i.e.,
&gt;Your
&gt;Do
##1,
##'d
##ome
##mg
##ler
“a
“No,
‘I
wonders
wholly
wedding,
warehouse
triple
teeth,
technologically
strive
spoiled
specialist
skirt
skewed
should’ve
satellite
sanders
roast
respective
reminding
reaction,
quand
protesting
progression
primary,
prey
presentation
practiced
powers,
politely
penny
pairs
oder
naming
metals
massage
masculine
manipulative
lid
libertarian,
legality
kits
kid's
hip-hop
guardian
gram
glue
geometric
gauge
finances
eher
dumping
drones
displayed
disagreeing
dining
developers
dads
cries
conservative,
comparison,
communications
codes
choices,
categories
cartoon
brushed
bleach
birth,
beam
bash
bases
banging
achieving
Youtube
This,
Senate,
STILL
STEM
Quite
Picard
Major
Klingons,
Isn’t
Flash
Europeans
En
Dragon
DA
Cannabis
33
2017,
(more
&gt;but
&gt;and
"who
##’,
##way
##ual
##not
##mp
##ka
##ers,
##ern
##bly
warranty
warped
villains
vaginal
va
trees,
tower
tow
time"
swinging
sweeping
stereotype
silently
sided
she’ll
screening
rot
reps
repairs
reluctant
radius
promotes
prioritize
payed
palm
opposite,
ol'
officer,
oddly
negative,
minister
minds,
loans,
jumps
invention
info,
ideology,
hypothesis,
hotter
historians
harvest
graphic
gist
forests
filters
fees,
feeds
empty,
elevated
edibles
doubled
differentiate
cures
crown
crimes,
couch,
contributes
constituents
charge,
capabilities
calculations
briefly
betrayed
baked
appearing
anderen
andere
Yet,
Seattle
Rock
NC
Libertarian
Facebook,
Darth
Cool
Came
50,000
"they
"Now
"He's
"Good
##ul
##ions
withhold
user,
tree,
traced
tech,
syndrome
steak
spine
specific,
soy
smash
sincerely
shuttlebay
shade
setting,
seat,
safety,
ruins
regularly,
receipt
pocket,
pleased
outdated
notify
nine
next,
nets
nazi
mercy
lyrics,
leaking
jargon
invading
ink
impact,
hybrid
humble
hassle
growth,
greeted
funniest
fulfill
fog
federation
faulty
expectancy
efficiently
eating,
diplomatic
differential
desirable
crushing
creativity
correlate
contradicts
contradict
confirming
composition
compassion
co-worker
burger
blessed
bleed
billing
bias,
bears
atomic
apologies
antebellum
anecdote
amount,
allegedly
addicts
accountability
abundance
\\*
Whereas
Video
Uncle
Political
Legal
Kennedy
Kelvin
England,
Communism
Code
Association
14,
'to
&gt;She
"She
"Did
"Come
##r"
##op
##ming
##fe
##ded
yeast
wrestling
women’s
victim,
venture
vegetable
turkey
threatens
thing:
taller
tales
suffers
stubborn
stir
squad
specified
spam
soccer
skipping
shiny
richer
rice,
regression
regarded
racists
pumped
psychotic
potato
pass,
owner,
one’s
oh,
numb
newest
neglect
muscle,
moments,
messy
medicare
mean..
mates
journey,
influenza
inferior
importantly
if,
hyper
husband's
homosexuality
holodeck
grounded
girlfriends
friendly,
foods,
fold
fentanyl
exponentially
enlightened
drowning
downplayed
downplay
documentaries
dice
diagnose
demonstrates
debts
coupled
consciously
concede
circuit
cardiac
buy,
bong
beers
barbell
angels
adults,
Total
T.
Sweden
Solar
Snow
Send
Season
Putting
Point
OH
NYT
Mad
Liberals
LOVE
HUMANS
GOOD
Episode
Early
Companies
Amy
8,
5-6
30,
(both
&gt;Also,
"that's
"go
"Let's
##10
##tle
##tes
##body
zombies
wolves
violations
version,
useful,
tribal
suburban
stripped
spot,
sessions
reserves
priced
pounding
pasta
paid,
nude
meter
measurements
meal,
listens
lame
knack
journals
joe
intro
integrated
infer
induce
horrifying
hierarchy
harming
goodness
freedom,
framed
extent,
exclude
drinks,
dopamine
disrespectful
disagreement
dinner,
department,
delicate
decade,
conferences
compelled
colored
colonial
caps
came,
amateur
advocates
admission
Wonder
Vulcan
Ten
Sadly,
Norway
Market
Mail
January,
Economic
Dreams
CO
30,000
2,000
*have*
*A
***
"one
"Where
##.I
##’d
##what
##ward
##tor
##sts
##s:
##od
wikipedia
voltage
vehicle,
up..
unemployment,
turn,
trolls
translated
that'd
tanks
surface,
sugary
strength,
stove
statistic
spun
sorta
sensors
sensor
saturated
reserved
removes
remembers
realistically
quoting
punching
progress,
preventable
prediction
pre-existing
potatoes
portions
pod
pneumonia
pisses
pains
opinions,
oath
nervous,
negotiations
murders
monkey
metrics
metabolism
man’s
lucky,
listing
lightly
indicative
incorporate
improves
immense
hero,
hairs
gentleman
flair
fastest
exotic
exceed
exactly,
emerged
downvoting
donated
discomfort
dinosaurs
demonstrating
defines
dataset
crawl
cord
conveniently
careers
boyfriend's
behind,
bedroom,
attribute
apartments
accepts
\\[
Vitamin
Tried
Steven
Run
Remember,
Rand
Presidential
Obama,
Nations
Military
Mario
Magic
Hospital
Education
E.
Deal
Bro
Bernie’s
Believe
Africa,
2015,
*a
(after
"we"
"for
##pm
##ose
##ore
##ly"
##in,
##ians
“What’s
worst,
worker,
wealth,
wars,
viewpoint
usual,
upwards
unit,
thereby
tariffs
tackle
suspension
surroundings
subscribe
stuffed
stares
stairs,
sorted
resign
reopen
related,
region,
recycling
reckless
receives
reactors
ranks
ranked
radioactive
pursuit
province
prison,
plea
paar
outlook
nickname
negligence
motivations
masks,
maps
livestock
jail,
inherit
indeed,
incidence
inadequate
hike
geometry
enters
employee,
dysphoria
dunno,
dot
digestive
digest
detected
demographics
delusional
deadline
concessions
chairs
causation
cards,
capital,
bus,
borrowed
borderline
beach,
bay
bass
asylum
assault,
agreements
aggressively
You’d
Year
VX,
Seven
Rather
Parents
London,
Island
HOW
Flu
Conservatives
Bruce
B,
A,
3d
(most
&gt;I'd
"There's
"Thank
"Of
##AL
##40
##ster
##ok
##nts
##mo
##ime
##ill
##g,
##ene
##ba
##ass
y’all
wondering,
when,
weak,
voting,
vector
vampire
uncomfortable,
tuned
trouve
trickle
terrorism
suicides
subsequently
structured
strange,
slam
singer
sim
shine
salad
sacrifices
sack
rubbed
robe
rises
ringing
recognise
prescribing
praising
pistol
pigs
offender
nukes
now)
nominate
never,
narcissist
musician
marine
m8s
limbs
life"
legalized
ineffective
immediately,
hateful
grow,
govern
galactic
flies
finished,
femmes
extensively
evident
envelope
emperor
electorate
dort
dit
distraction
depressive
dent
deleting
crew,
constitutes
conflicting
censorship
casting
bullies
breeze
bout
bombing
bipolar
beer,
beaches
backlash
approach,
apology
alpha
Vader
Testament
TLDR;
System
Sir
Riemann
Ren
NASA
Morty
Marijuana
MSM
Live
Down
Cancer
Board
Aside
ALWAYS
0.5
(n
'n'
"when
"we're
"new"
"best"
##ON
##0,
##year
##ole
##oid
##lb
##just
##ht
wind,
wife’s
whale
well..
weighed
vicious
vessels
utilities
twelve
trust,
trunk
thoughtful
theyre
therapist,
testimony
tent
swept
surrender
stated,
standardized
stall
spoon
slavery,
shakes
seul
sake,
rumors
referencing
redditor
proxy
proximity
prisoner
precautions
pictures,
peer-reviewed
path,
pastor
observable
ob
multitude
moderators
mines
meta
liquor
learnt
lb
in-depth
imposed
impeached
hospitalized
ha
gov
folded
fokin
fighting,
fifty
f(x)
exams
ex's
eigentlich
drift
dope
detention
deep,
daycare
concern,
comforting
climbed
claims,
chin
cheer
chased
cell,
canceled
bulb
bitch,
bipartisan
bi
battles
appreciation
analysis,
VX4
UK's
Thought
Pope
POTUS
Original
MS
Louisiana
Kelly
Iranian
EMH
Drugs
Corporate
Byzantine
Breen
Boomers
Alexander
60s
200,000
12,
(i
(aka
&gt;Not
"your
"people
"She's
##ID
##30
##15
##yo
##ya
##tal
##n"
##ell
##care
“He
workforce
withstand
vaccine,
unwanted
unrealistic
undocumented
twins
titled
thumbs
thanked
taxing
tapped
supplies,
sums
structure,
stopped,
spilled
speaker,
slope
sliding
skipped
simulated,
salaries
safest
round,
roads,
ritual
relevance
reign
rehab
range,
purchases
pressured
populist
players,
penis,
outweigh
original,
ohno
notorious
neutron
motives
mic
metal,
matching
mass,
marijuana,
mankind
lemon
leasing
lady,
interview,
insect
inhabitants
infection,
ideologies
hope,
hazard
goodbye
globe
ganz
furious
friend’s
framing
for-profit
float
exploded
endure
electromagnetic
easily,
doomed
ditch
designs
costly
communication,
colleague
booth
boom
blend
biting
bid
bad"
awe
awake,
aussi
assignment
al
aging
advancement
adequately
[Contact
WWII
Tobacco
Spain,
Simple
POV
MA
LSD,
Hate
Greece
Foundation
Computer
Common
Anyways
Alright,
25,
20k
11,
(an
"God
##-style
##**:
##ware
##tive
##ong
##fy
“this
“That
viewers
told,
tire
temps
temper
stereotypes
spelled
spark
sins
simplistic
shattered
sexism
robbed
respect,
relieve
provisions
producer
platform,
pipes
phrases
overhead
observer
null
nominated
nerd
nd
models,
margins
malaria
legalize
interfering
integrate
indoor
indirectly
hollow
hive
gigantic
garlic
footprint
fines
favors
enthusiastic
enforcing
duck
dual
dominance
doch
disposable
disinformation
despise
descriptions
democratically
daughter's
club,
closet,
cliff
caution
calculator
bust
bud
breakup
boobs
birthday,
barking
announce
animal,
administered
Universal
UP
UFP
TweetsInCommentsBot)[
Truman
Tifu
QB
One,
Montreal,
Microsoft
Mao
LL
Granted,
Fall
FL
Explain
EVERY
EU,
DM
Business
Boys
BY
Apparently,
1k
10th
"less
##ties
##r/
##ple
##n-
##ments
##ly)
##hr
##free
##cing
yea
worries,
votes,
valid,
unlock
u/
teenager,
tangible
summon
styles
spiders
shame,
separating
secular
rooted
rival
rewarded
reforms
realities
raging
pub
protein,
pawn
overlap
orientation
oblivious
nutrient
migrant
messaged
logged
legs,
incident,
image,
ie
helicopter
hears
gays
front,
formally
forehead
fall,
excluded
evening,
environmentally
downtown
diseases,
dies,
dash
costing
cortex
corporations,
coordinated
conform
coconut
clarify,
circular
cheese,
camping
bodies,
belief,
bargaining
attachment
algae
advisor
accumulate
[**
Turkish
Story
SS
R.
Pakistan
Minecraft
Keys
Kentucky
Jahren
ISIS,
HUGE
GMOs
Elon
Cardassians
Canadians
19,
1.2
/r/politics
*any*
"To
##stic
##off
##med
##house
##em
##ably
world’s
wins,
walk,
wages,
w/
vision,
violently
views,
transit
tracked
tourists
tea,
taxation
t-shirt
sustained
stacked
silence,
shoots
shields
scrolling
scent
rotation
rob
rigorous
rewards
republic
qualifications
prosecuted
professional,
panic,
overseas
ocean,
obscene
notification
nations,
misses
manufactured
locals
litter
liar,
lanes
lamp
knowingly
investigation,
innate
initiate
horn
hi
heterosexual
here..
hedge
graduating
gen
gallons
fiscal
fats
f.
extraordinary
execution
eternity
discourse
discord
definite
defended
cunt
congressional
conclusion,
cohort
co
clubs
child’s
cheaper,
centered
buck
broadly
bragging
basing
bacteria,
attest
atleast
artistic
Virus
Technically
Stephen
Source
Sea
Saiyan
Sad
Potter
Ottoman
Neo
Mrs.
Move
LPT:
Jersey
Iraq,
Hot
Dogs
Dick
Der
Dawn
DIY
BF
Art
Ancient
Adderall
;
50k
30k
24/7
*only*
##4,
##.,
##tter
##this
##s.
##ou
##in'
##hing
“we
“I’ll
yourselves
year's
won,
waitress
visitation
vein
undoubtedly
undo
troll,
tried,
traditionally
tipped
tier
tested,
terminal
tad
supremacist
supporters,
struggle,
status,
speeds
soaked
slush
sketchy
sixth
sickness
short-term
shithole
sacrificing
return,
remedy
recipes
purity
pulse
prisons
priorities
presume
premature
person"
parce
overlooked
object,
notices
notable
modules
meditate
maker
leftover
leaving,
laughed,
jerk,
informing
informative
implementation
homosexual
his/her
helps,
hate,
guilty,
glow
gifted
generator
folder
fail,
expected,
example:
elf
elected,
dumpster
docs
dismissive
dismissing
dicks
deficiency
decentralized
collapsing
chuckle
bush
arc
anger,
amazon
afraid,
adaptation
acknowledged
accustomed
abide
Yep
We’ll
WW2
WOW
Shining
Overall,
Moreover,
Millions
Jem'Hadar
Information
Indeed,
Greg
Franklin
Democracy
China’s
Cat
Capitalists
Brazil
Bar
6:
42
/b/
(Spoilers
(Not
&gt;..
&gt;"
"be
"an
##\\\u
##6,
##-up
##zy
##s\u
##s-
##o-
##iness
##how
##head
##down
##cs
“They
woof
whisper
went,
warrior
voir
varied
values,
unheard
twisting
tumor
transform
ticket,
terminology
symbolize
swap
supermarket
submitting
stimulation
sticky
sticker
steps,
spiral
spectrum,
spat
smiled,
sip
sincere
salt,
reference,
quality,
pronounce
predator
pi
panicking
offense,
note:
niece
manner,
magazine
km
kindly
jerking
jeans,
insignificant
indirect
incentives
hydroxychloroquine
households
hotel,
grade,
gifts
gesture
generation,
generates
gates
fur
freezer
flows
floated
flashing
falsely
extending
explored
eu
error,
elephant
electing
educating
dissolved
disastrous
dictionary
developer
desktop
cooperation
continuation
conspiracy,
conscious,
conlang
conflict,
chicken,
cattle
bites
bitcoin,
bald
attacks,
assembly
arrow
appointments
ant
analyses
adrenaline
Word
Woman
Welt
Wasn't
Stock
Species
Section
Report
OUT
OUR
Musk
Listen
Leo
LOL
Godfather
Falklands
FDR
Executive
Eating
Du
Dream
Dan
DON'T
Among
ACTION
900
4.5
&gt;mfw
&gt;So,
##](https://www.reddit.com/r/
##LE
##!
##t-
##ph
##ko
##hl
##ged
##are
“Yes,
“There
zero,
walls,
verified
valued
underage
trump,
track,
toxicity
thrive
thc
thanks,
tempted
syrup
sway
suspend
sudden,
stumble
spying
smelling
smaller,
secrets
saw,
salty
righteous
respond,
residency
rek
reinforce
reconcile
rail
quarantined
purse
psychopath
prospect
prank
philosophy,
permitted
overdose
outfit
occupy
mood,
membrane
manifestation
manifest
mail,
lunch,
lesbian
lend
last,
landscape
it’d
intense,
injection
inject
hopped
homophobic
homemade
haha
forgiveness
flirting
festival
era,
emerging
elsewhere,
echoed
disrespect
delta
def
declaring
darn
critic
crawling
constitute
communism,
colleges
cinema
chinese
chew
centralized
boop
boards
belongings
beings,
bait
awful,
autism,
authorized
assimilating
as,
ankle
alt-right
abnormal
Washington,
They’ll
She'll
RUN
Notice
Model
Mississippi
LGBTQ
Kill
It’ll
Evolution
Dave
CCP
But..
Berlin
Anybody
A)
20's
1,200
(ie
"true"
"i
"are
##'ve
##y)
##wn
##s..
##s),
##n’t
##ily
##ex
##ever
##e)
##ability
year)
wow,
worldview
whichever
wheat
webpage
vous
volatile
vaccinate
utilize
users,
undergrad
trop
trial,
traps
to"
tl;dr
throat,
threesome
this;
task,
surgery,
succeeded
streets,
specially
someones
shouldnt
scientists,
saucer
rock,
restroom
residual
renewables
regulating
referral
re-election
rainy
prolonged
probe
prejudice
pregnancy,
prayer
postal
playlist
phrased
pc
oppressive
nicely
myriad
metro
medication,
marketed
majority,
loneliness
ladder
judicial
intervene
interpreting
inspire
insert
insane,
inflated
inflammatory
hydro
hunted
hostage
good"
gig
gambling
galaxies
fraudulent
fee,
fatality
explode
experimenting
enacted
emission
emergency,
eachother
don
dissolve
dispose
designated
depths
cracking
costume
copied
contributor
considerably
chilling
calcium
busted
buildings,
banned,
awkward,
atheist,
asymptomatic
arranged
amino
ahead,
admittedly
addiction,
You,
WTF
THEN
SARS
OS
Iceland
Haven't
Harvard
Harris
Happened
Friday,
Finding
Energy
Duke
D7
Current
CRISPR
CEOs
Barcelona
Arab
Alan
Academy
4:
10x
-1
*know*
'I'm
"and
"Let
"Alright,
##M)
##0)
##.5
##-in
##xt
##ws
##tory
##side
##r-
##ker
##ins
##ick
##hen
##end
##ap
##an,
“In
years)
worried,
wandering
verse
veins
usable
urine
uploaded
unlocked
tropical
trainer
tits
taxpayers
submissive
subjected
stronger,
stores,
starvation
stakes
spill
skeleton
sighed,
show's
shoulder,
shaved
seized
seeming
sci-fi
sacred
riddle
rhythm
relevant,
racing
quick,
pun
prosecute
posted,
poem
peasants
outta
outdoor
occupation
now..
nicht,
neurological
neck,
naval
muscular
mom’s
moderator
moaning
mercury
mediocre
machinery
loving,
like:
lengths
legacy
latter,
intersection
instructed
hygiene
humanitarian
horrified
homes,
heater
hacked
guides
green,
fungi
fraud,
frankly,
foul
forums
feats
exaggerated
evolving
eventual
equations
discusses
disappointing
difficulties
desires
decreases
cynical
cluster
cement
bore
awkwardly
apologizing
anti-
announcement
aggregate
aforementioned
adopting
adjectives
activated
a.
[top
Who's
WA
Trump:
Talking
Running
Per
Palestine
Natural
Math
Manhattan
Local
Gold
Feeling
Dyson
Class
Cigarettes
Cardassian
BLESS
Agreed,
3.
*more*
*"I
([
(5
&gt;**
"right
##US
##2)
##they
##ri
##ord
##man,
##lich
##ility
##es"
##com
##art
##ane
##ain
“Don’t
“Are
woods,
withholding
whining
welcome,
wavelength
volunteering
vitamins
visit,
uninsured
transferring
time..
tiddecute,
them)
that)
testify
surgeries
sugars
stretch,
spewing
special,
sondern
snack
smiles
slipping
sign,
share&amp;utm\umedium
sehr
routine,
roller
remainder
reinforcement
receptor
reassure
prize
pricing
powerless
posters
post-scarcity
pole
plot,
outcome,
nowhere,
nausea
nation's
monkeys
method,
machines,
lone
license,
letter,
landlord,
kg
influx
ils
illustrate
hometown
his,
heir
headset
happiness,
guts
gum
grammatical
full,
froze
flee
figure,
experiment,
enhance
easier,
ears,
drawer
divisible
disparity
dis
directly,
destroys
deadlift
crying,
creator]](http://np.reddit.com/message/compose/?to
cops,
conquest
compensated
combo
colder
code,
coastal
clueless
clone
caught,
cash,
calmly
calculating
biologically
audience,
associations
articulate
arrangement
aisle
adjusting
W.
Uh
Tuesday,
Spurs
Services
SF
SAME
Rather,
Professor
Miami
Luckily,
Koch
King,
Growing
Germanic
Couldn't
Chuck
Cash
Atlantic
Ages
90's
40,000
101
(P
'em
"no"
"For
##PA
##45
##1)
##'ll
##und
##ood
##ip
##hat
##ese
##aw
##ations
##ast
##ak
workers'
weakened
wandered
volunteers
violent,
viel
upbringing
uber
type,
to)
thrust
throwaway
tho,
textbook
teasing
te
tactical
subsidized
sophisticated
somehow,
someday
ripping
rendered
released,
recipients
recipient
r/politics
quantify
puzzle
psychologist
proofs
prohibited
processor
precision
poke
penalties
paralysis
paradox
occurrence
not)
nephew
neighbor's
names,
monogamous
misunderstand
million,
member,
meant,
mammals
ma
logistics
lmao
jokes,
joints
interior
interface
interacts
instruments
infinity
incoming
hurricane
horrors
horns
harvesting
governmental
gods,
ghost,
gag
foreseeable
foam
fallout
exchanged
everyday,
establishing
drum
doors,
dividing
distances
disconnected
dial
delaying
cry,
crotch
compliance
comp
combustion
claws
circlejerk
circle,
charts
bottom,
believable
author's
appeals
app,
ancestor
ahold
admire
ability,
abducted
[How
WHICH
Simon
Similarly,
Si
Play
PPL
Marxists
Ill
Guts
Feinstein
Ebola
Director
Di
Castro
Case
Barry
Bajorans
BELIEVE
Autism
Asians
21,
2.2
15th
**I
(there
(that's
"Ha
##99
##2/
##.com/
##work
##ox
##ology
##mate
##kin
##che
##bility
##ana
“oh
“do
“Is
zum
yr
wounds
wheels
way:
wax
was..
virginity
vegans
ugly,
tan
swore
summoning
subscription
stupidly
star,
snakes
since,
rides
respecting
radar
proposals
preventative
possessed
pie
payment,
pat
outlined
odd,
obligations
nodded,
muss
medicines
loved,
lights,
lien
licensing
languages,
kittens\ufrom\uspace)
inviting
intrinsic
interpretations
insurers
installing
injected
infants
houses,
homo
hobby,
gamma
file,
faithful
explain,
exhausting
evolution,
evaluated
dynamics
dumbbell
drained
dots
dodge
doctrine
distrust
districts
disk
dim
devastated
deceased
cumming
crippling
credit,
corrupted
correcting
cooperative
considerable
complicit
communicated
collision
clearer
chick
chapters
censor
capacity,
calendar
byproduct
arrival
apocalypse
admits
add,
Utah
Tower
Strange
Pennsylvania
Outside
Moscow
Mexico,
Karen
Harold
Ha
Galaxy
GP
GO
Friends
Flood
FMLA
Excludeme)
Diet
DOES
Coming
Brain
Article
Arctic
Americas
Achilles
80's
20-30
15-20
*What
(think
(E
''
&gt;To
"Look,
"Go
!”
##-4
##&amp;
##ref
##nal
##mer
##lling
##level
##it's
##ible
##hy
##gar
##for
##ei
##e-
zones
z
yields
woman’s
wheelchair
wand
wager
uninformed
undergraduate
toes
tissues
them..
tendencies
sweet,
sweating
sunk
steadily
spending,
smokes
sidewalk
shrink
shoulders,
shaming
sein
scandal
ruler
rows
ride,
rewarding
refined
redditors
recycle
recreate
recommending
receptive
rebellion
pretended
pressures
poorest
politicians,
personalities
people)
où
opiate
offenders
needless
musicians
mr
moving,
modest
missile
methods,
meantime
me](https://www.reddit.com/message/compose/?to
me](https://reddit.com/message/compose?to
makers
loading
islands
increase,
impeach
hugged
historic
higher,
grind
gorilla
genders
fry
frantically
flora
flooding
flashed
firms
filmmaker
fertility
favorable
facilitate
expressions
executives
evils
everytime
escaping
editor
drunken
dreaming,
doom
disproportionately
disadvantage
determination
detection
deaf
crawled
craving
coward
contractors
computational
comprised
cas
cardboard
camera,
calculation
btw
brink
bind
bigger,
baggage
atrocities
assert
argues
answered,
anecdotes
analyzing
ambient
accommodation
[TOMT]
Yang
Wing
Well..
WH
Typically
Telling
Support
She'd
Rhaegar
ROBOT
Quadrant,
Prince
NOW
N95
Large
Kevin
K.
Information](https://np.reddit.com/r/WikiTextBot/wiki/index)
Indians
Heaven
Granted
Further
Freedom
Edward
Eat
EDM
DMV
Corps
Bond
B)
Albert
ALSO
ABOUT
5:
4,000
3,000
2/3
"on
"all"
##7,
##60
##-A
##world
##ug
##ses
##res
##pa
##now
##lbs
##ities
##ion,
##ig
##ens
##ction
##ca
##bs
##ace
“Well
“I’ve
yells
winds
whipped
weighted
wealthy,
waste,
visibly
vile
viewer
veterans
vague,
undergo
uncertain
unbiased
tribes
tifu
stems
standards,
sports,
spinal
socialists,
sims
shortest
school's
routes
rotting
reread
reelection
ramifications
proponent
predators
pre-
plans,
person’s
perpetual
parks
parent's
panties
painfully
operator
operated
nouns
nodes
neighbour
mushroom
mug
mounted
motherboard
messenger
measles
legislature
j
intuitive
initiative
infecting
identification
hugely
hello
heavy,
harass
grinding
grains
genitals
galaxy,
frame,
folks,
flour
few,
faut
far-right
escalate
entropy
emphasize
duties
durable
dread
drama,
douche
dominate
disappointment
diesel
derive
danger,
d'une
cultures,
criminal,
counsel
cop,
contemplating
containment
conception
clit
clips
chemo
celebrating
calories,
calculus
buddy,
breeds
behaving
balance,
awaiting
authority,
aluminum
altering
active,
activate
acids
\\#2:
\\#1:
Zeit
WI
Venezuela,
Tim
Stupid
Stuff
Source](https://github.com/kittenswolf/WikiTextBot)
Schumer
Representatives
Paris,
PM](https://www.reddit.com/message/compose?to
P.
Off
OPs
Name
NSFW
NJ
Lee
Jackson
Halloween
Frank
Fat
FROM
DUI
Completely
Arya
2k
2011
200k
2007
*should*
(only
(all
"take
"most
"can
##8,
##5)
##19
##-type
##):
##'m
##%20
##va
##ser
##point
##low
##li
##lar
##ear
##al"
you:
yea,
worms
wormhole
worker's
where,
warmth
ward
veteran
vapor
v.
unfit
unacceptable
umbrella
transparency
traction
to..
tampon
suffering,
stomach,
stat
stand,
stamp
spotted
spaceship
sourced
sock
slut
simplified
shrugged
shark
sacrificed
reversed
restricting
repay
renewal
reliant
registry
recurring
real-world
rare,
prompts
posed
playing,
plane,
perspectives
perceptions
pathway
packaging
overview
nuance
node
naturally,
naked,
mundane
moot
modification
mocking
meeting,
meditation,
markers
links,
life's
liberal,
leaf
lawsuits
key,
investigators
independent,
incorporated
incomplete
incompatible
impulse
impaired
imbalance
imagery
ignorance,
hypocrite
husbands
harmed
habe
governed
glaring
gateway
gamer
fringe
fined
filtered
feds
famine
equity
endorsing
empire,
empathize
effected
déjà
draining
downward
donation
dock
differently,
diameter
diagnostic
deliberate
dawn
critics
contact,
consultation
conspiracies
conjunction
compliments
compassionate
compares
commenters
coma
clues
clinics
clickbait
catches
brushing
breakfast,
bread,
brag
bombed
benefit,
avid
arrested,
apt
alright,
accumulation
YES
UI
Type
Twilight
Tu
Tarantino
Stark
Romney
Regarding
Pythagorean
Politics
Planet
Plan
Pick
Overall
Minister
JFK
Indiana
ISIS
Guns
Girl
Future
Fear
F.
Enough
Easy
Demon
Congress,
Commission
Clash
Chomsky
Capitalist
CT
COVID-19,
CI,
CC
Bezos
Anti-
Anti
Against
AD
3x
2x
2D
2-
1.4
..and
(meaning
&gt;Because
"old
"me"
"make
"best
##\uof\u
##OR
##4)
##12
##'S
##ven
##tting
##sa
##rs,
##rk
##nge
##ja
##ich
##hood
##ative
windows,
warm,
train,
trademark
tongue,
tone,
toast
tease
sunny
subgroup
standpoint
speeches
sneakpeekbot)
smack
screws
scans
scanning
scanned
rightfully
ridiculous,
responsibility,
reproduction
render
records,
ramp
rack
qualifies
prestigious
prescriptions
preferably
planting
outrageous
offer,
of)
noticed,
mouths
monster,
misdemeanor
materials,
masturbation
large-scale
juste
japanese
inspector
insomnia
insecurity
infected,
inconsistent
ignorant,
iPad
genes,
fucker
flirt
filthy
fields,
federally
eyed
etymology
electricity,
eggs,
earns
duplicate
dr
downloaded
dirty,
diese
diagnoses
descended
demand,
cycle,
curtain
crude
corruption,
consulting
consisted
connection,
complicated,
combining
circulation
cereal
canned
calls,
bureaucracy
boxers
bored,
bodyweight
blessing
begged
bailed
assessed
ash
arse
appetite
anarchists
ammo
advancements
absorption
\\#3:
[My
Zero
Wolf
Wild
Whole
Trans
THEIR
Simulation
Simpsons
Saw
Quit
Progressive
Persian
Museum
Me,
Marx's
MUCH
Lord,
LORD
Know
Info](https://np.reddit.com/r/sneakpeekbot/)
Image
IMO,
Hunter
Howard
Hero
Heart
Han
Games
Few
Dog
Disease
Cavs
90s,
6)
5x5
44
4%
100,
1-
*could*
(now
&gt;Trump
"I'd
##You
##VE
##.’
##'re
##old
##mal
##ire
##hole
##ek
wildlife
wicked
vest
unreliable
tricked
transwarp
tonight,
token
tinder
that"
sync
summoned
subconsciously
stereotypical
south,
soldiers,
snacks
smartphone
silly,
sight,
sibling
shortages
shitty,
shampoo
seizures
runner
rotten
romantically
rigid
repetitive
repeal
relied
regulations,
ray
rappers
protocols
protection,
profiting
prequel
post-
positives
porch
poker
piece,
pathways
packing
outgoing
opted
of..
namely
multiplayer
motivate
mon
moins
misread
mich
me:
maternal
mate,
lurking
libertarianism
labs
lab,
introverted
insured
hoard
flare
fingers,
fills
feminists
fatigue
fashioned
exhaust
evicted
enemy,
emissions,
dry,
driver,
downvoted,
dog's
divorce,
distributing
ding
developmental
descendants
curled
coverage,
coral
condo
chorus
cheering
charger
changing,
ceremony
candle
basket
barber
arrange
alleviate
albums,
af
abuses
Wife
Weed
Watching
VX6
US)
UPS
Truth
Trade
Toronto
Testing
Targaryens
THERE
Sims
Return
Ray
RIGHT
Pour
Politicians
McDonald's
Kirk
IOTA
He’d
Gonna
Ghost
GA
File
Emergency
Crazy
Control
Church,
Breaking
Bajoran
Attorney
Area
AIDS
64
49ers
4000
(95%
(2
"so
"man
"As
##?t
##95
##8/
##6/
##22
##x,
##wer
##wa
##ved
##ship
##over
##ort
##net
##mes
##light
##let
##ium
##ies,
##ery
##ement
##don
##ation,
“no
“Who
you;
whistle
whip
wellbeing
weirdest
verses
versed
vegetables,
valley
unnatural
unity
transformed
transformation
tous
top&amp;t
timely
ti
three,
terminated
swings
sweep
superpower
suburbs
submissions
strangely
stadium
spells
ship's
shelves
separately
screenshots
role,
rogue
rod
rivers
rested
remarkable
refreshing
raping
ranking
prophecy
pro-
primes
packs
organisation
obey
neglected
musician,
mistaken,
microphone
memo
mec
matter)
lonely,
lifespan
lest
investigations
inverse
interstellar
insanity
in-person
impending
imo
hurtful
hunters
harsh,
hacking
grossly
got,
glory
glass,
german
fluids
filmmakers
farts
fantasies
faggot
extrapolate
extracted
explosive
existed,
excluding
examples,
endorsement
encounters
emit
do)
disability,
designer
deposits
delays
defendant
cum,
crash,
correlations
contaminated
cons
conflating
confirms
confess
conditioning
condemn
commodity
closure
civilized
cette
cervical
celebrated
cats,
casino
carriers
c'était
butts
bumped
browse
bribe
boycott
boy,"
bon
bending
be"
asexual
antidepressants
analyzed
amusing
amid
agenda,
adamant
activation
Xi
Xbox
Wash
Valley
Used
UV
UTF8&amp;qid
U.S.,
TLDR
Special
Speaker
Sleep
Romulans,
Pandemic
Oxford
Outlook
Omg
NATO
Movie
Management
Lincoln
Liberal
Lake
Keeping
Johnny
Inside
III
Flat
Falcon
DOJ
Credit
Clinton,
Cats
Boss
Boris
Bitcoin,
Bilderberg
Aunt
Animal
Along
AR
5,000
2006
17th
1.3
*still*
*did*
(or,
(In
("
'a
#2
"what's
"getting
"friend"
##We
##Trump
##Me
##CE
##5%
##3)
##—and
##y-
##uld
##tt
##tar
##ron
##pt
##ney
##mic
##ment,
##lin
##ith
##ism,
##e*
##act
##a-
zoo
wenig
weather,
walking,
ventilators,
upsetting
unsustainable
trim
transmit
tourism
tools,
temperature,
teacher's
swords
stunned
strengthen
starter
starship
stands,
standard,
stamps
social,
slows
share,
sell,
self-aware
secured
sanitizer
salvage
sabotage
s'en
rifles
rejecting
refrain
reflecting
reconsider
raped,
races,
puke
protestors
propaganda,
prompt,
popcorn
partake
parasite
outbreaks
orbiting
nudes
nazis
mushrooms,
mount
mommy
mobility
microbial
mi
masculinity
looking,
locally
lo
literacy
listener
lingering
lengthy
leash
items,
it,"
intellectually
injury,
indistinguishable
incorrectly
icon
holocaust
holidays
hips
hail
gullible
gradual
gf,
fukin
friction
fled
filmed
fake,
factually
factor,
example)
escort
empathetic
emitted
drip
don’t,
disturbed
disliked
discriminated
disappearance
differing
defender
deduction
crave
crap,
corresponding
coordinate
contempt
closes
clearly,
circumstance
choke
chalk
center,
cardio,
busy,
bummed
brighter
booze
bonne
boiled
blames
basement,
baseless
awfully
attitude,
assign
ashes
articles,
architecture
anxious,
animated
accounts,
accelerating
WikiTextBot&amp;message
WHEN
WANT
Unemployment
Turn
Tucker
Told
TA
Starbucks
Shame
Says
Republican,
Quick
Quantum
Pun-Pun
Program
PERFORMING
Organization
Ontario
Oliver
Non
Nearly
NP
Male
MSNBC
Hand
HS
Fred
Firstly,
Face
Exercise
Excludeme&amp;subject
Employer
East,
CI
Auto
Alzheimer’s
750
140
*my*
"look
"let's
##RA
##MA
##90
##9,
##83
##6)
##-a
##za
##rate
##py
##m)
##logical
##ho
##his
##eth
##ef
##dge
##com/
##bo
##atic
##ame
##als
zur
wohl
wives
wires
winter,
wallet,
vu
villages
tripping,
trash,
trains
towels
think)
taco
suppressing
superiority
storm,
storage,
sprayed
spirituality
speculative
softly
sideways
shrooms,
shred
shock,
secret,
seated
screens
sampling
rotating
rode
restriction
regretted
regain
redundant
protesters
propa
preferable
predictive
possibility,
podcasts
piano
pest
persistent
patient's
patches
orgasms
no-one
monitor,
moderation
mind's
mid-
meds,
measurable
map,
manually
management,
locker
limitation
limit,
lifts
leaders,
kill,
infamous
individually
heels
heartbeat
harm,
haircut
generational
gel
gases
fury
ft
frames
fooled
fluent
feud
favorites
exploding
empathy,
disruption
disguise
dignity
diabetic
defect
dagger
d'être
cook,
compute
clock,
cheating,
chaotic
cab
buttons
bracket
bottled
border,
boomer
blinked
blame,
backstory
avenues
added,
accumulated
abortion,
](https://www.youtube.com/watch?v
Walkers
Vegeta
USSR,
Tl;dr
That,
Team
Spirit
Set
SHOULD
Possibly
NK
Multiple
Meinung
Lakers
Knicks
IRA
Hmm,
Hip
Hill
Hang
H1N1
Further,
Fortunately
Fan
Chicken
CD
Buttigieg
Buddhist
Brian
Beach
4chan
2005
14th
*lot*
*I*
(what
&gt;I’m
&gt;All
"social
"Yes
"Please
##RE
##25
##21
##-level
##‐
##w,
##top
##ren
##oy
##ne,
##ings
##ga
##des
##a/
était
x,
writings
write,
wonder,
weil
vidéos
validate
tucked
thing..
telephone
tbh
supporter,
stitches
steals
statue
soooo
sociopath
soak
shoving
shapes
seeks
scam,
sanity
rumor
route,
responsible,
recollection
ranging
proactive
presumed
preserving
portfolio
pornography
polynomial
pinned
physicist
pharmacist
parle
papers,
ozone
one:
nans
mother’s
moisture
moderately
miners
metallic
meta-analysis
me,"
master's
loot
loop,
locate
liberation
liberalism
legend
learned,
killers
kidnapping
keeper
jokingly
jam
is)
invitation
interventions
insults
inadvertently
inaction
imprisoned
imminent
immigrants,
here"
harness
harder,
fulfilled
fuel,
follow,
fingering
featured
export
enabled
embodiment
embedded
embarrassed,
edible
ed
disproportionate
diamond
develops
declaration
culturally
crafted
courtesy
consent,
concerns,
comprehension
completely,
commercially
citations
chunks
charitable
buyers
blowjob
bitten
bisexual
belonged
bathrooms
atop
asks,
arrived,
apologize,
and..
alphabet
afterwards,
afterlife
adventure
absorbing
abilities,
Zealand
Warren,
Turing
Timeline
Tbh
Swiss
Susan
Stannis
Soul
Somebody
Scotland
Revolution,
Philippines
Peace
PT
PD
NAL
Monday,
Millennials
MRI
Liz
Jerry
Jay
Higher
Hes
HIS
HIPAA
GPA
Ex
Essentially
Electric
Ed
EVER
EC
Doomsday
DEA
Correct
Compare
Collective
Circle
Ce
Baby
Average
Apple's
Alaska
Admiral
AA
99
50s
450
2010,
1.8
/u\\/
"pixel"
##7)
##1%
##/ref
##—the
##ye
##week
##ular
##sen
##s",
##right
##ric
##on"
##of-
##oe
##nder
##llo
##ken
##ced
##bar
##aries
“not
“Not
écoles
wrapping
weakest
warrants
veut
vertical
venue
user's
unnecessarily
trouver
travelled
traditions
toxins
today’s
tl;dr:
that:
territory,
stabbing
spouting
sponsored
spikes
spatial
slides
sleepy
sketch
silicon
shuts
sequences
senile
searches
says:
sausage
sarcasm
rocky
robotic
ripe
rhetorical
retrieve
renewed
recruit
recognizes
reacts
ratios
rag
quarters
punishment,
probiotics
prick
preservation
predatory
precursor
pragmatic
posts](https://np.reddit.com/r/
plumbing
pinch
pets,
permits
pension
patriotic
paradigm
outraged
outline
outbreak,
nurse,
nitrogen
nicest
neighborhood,
negativity
nailed
mobile,
mimic
lungs,
lobbyists
legitimacy
laughing,
knives
knees,
kidneys
justice,
inhale
influence,
inept
independents
imperial
hr
hosting
horde
healed
hash
hab
guided
gradient
gift,
genius,
gasoline
gamble
fuckup
fearing
erstmal
equal,
entangled
enrich
enemies,
elbow
efficiency,
down"
disabilities
dimension,
despair
daily,
customs
creeping
crashes
controversy
contrast,
constraints
constitution,
consistency
conservation
consenting
clinically
claw
chores
chili
charities
champion
certain,
cane
boner
blinded
blasting
benzos
benevolent
beat,
bean
battery,
ban,
badass
baby's
analogy,
advertise
activists
Where's
What,
West,
Twitter,
Treasury
Shouldn't
Punisher
Psychedelics
Princess
Personal
Obama’s
MC
MADE
Lack
Jimmy
II,
IE
Grey
Great,
Grant
Gay
GPU
Forget
Finland
Evil
Corporations
COVID19
Bring
AG
AAA
A-
80s,
39
3-
2500
2008,
(which,
(sometimes
(possibly
(mostly
(S
(1
&gt;"I
##0%
##.pdf)
##-I
##…”
##yer
##sation
##rl
##p/
##our
##or,
##on-
##o"
##nes
##most
##logy
##k-
##ina
##im
##fa
##dom
##d*
##bed
##ath
##ab
“Your
“Just
“Hey
wit
wild,
wide,
who'd
wherein
weirdly
wave,
vidéo
useless,
toujours
tough,
there'd
there"
therapies
testament
temple
taste,
tapping
stricter
stranger,
stimuli
stimulate
steep
slit
section,
scum
scratches
scars
scarcity
sailors
robot,
risen
rinse
revised
restart
relief,
regardless,
random,
rambling
q
proudly
predominantly
pollution,
political,
playbook
pending
payments,
paranoia
oz
ounce
opportunity,
on..
obstruction
notably
neuron
negligible
negate
nationalism
motions
millennia
meditating
marker
marital
mans
mailing
literally,
library,
lessen
laughable
laboratory
knife,
kitten
kindergarten
kein
internally
ingrained
influencing
impacting
identifies
hrs
ham
glued
glasses,
garage,
fungus
fries
freedoms
forest,
fluoride
floors
flat,
fixed,
favored
father’s
fame
expect,
even,
evaluation
erase
enjoy,
emerge
elves
educated,
dwell
dusty
drowned
draws
downfall
denies
deepest
declining
cues
conscience
combat,
clothing,
chuckled
chloroquine
ceiling,
capacitor
candidates,
cancellation
breathed
breasts
breaker
bladder
bicycle
beholden
author,
alles
adhere
access,
accelerated
accelerate
absorbs
Whoever
Venus
Velvet
Tuvok
Tor
Though,
THEM
Sugar
SPD
Russia's
REM
R&amp;D
Pi
Pearl
Nevada
MDMA,
Lewis
Language
Kratos
Kid
Jazz
Internet,
Imperial
Hospitals
Heck,
Head
Hawaii
HER
GPS
Foreign
EM
Cross
Client
Chi
Chess
Carter
Carl
85
72
500,000
401k
35%
*want*
**A
(his
###
"other"
"Yeah
"Wait,
##],
##What
##SE
##He
##80
##75
##72
##64
##44
##43
##-old
##water
##val
##ters
##ncy
##lo
##ising
##html)
##here
##ges
##ea
##cks
##cking
##ces
##ang
##a\u
“We’re
zip
wäre
worlds,
wool
wood,
wing,
welcomed
waiter
visualize
uphill
upgraded
universe's
unbelievable
tying
tweeted
trustworthy
traumatized
touch,
tires
timer
they,
tha
teachers,
supply,
strategy,
storms
stark
stage,
spirit,
skill,
skeptic
single-payer
signaling
shy,
shore
scored
sais
rounded
rooms,
roommate,
roof,
revenge,
rethink
resent
resembling
ranges
radically
psychotherapy
prosecution
professionally
probabilities
policing
pinpoint
persuade
pace,
owners,
outsider
obtaining
obstacle
negligent
monarch
mocked
misery
minority,
memes,
meanings
markets,
lifestyle,
lawful
larger,
lag
kzreminderbot&amp;subject
knights
invalidate
inspect
initiated
inclusive
imaging
images,
hologram
heaven,
guarantees
goods,
fueled
frowned
frog
forces,
features,
extends
exceptionally
essence,
enables
emergent
edition
economics,
durch
distracting
discrete
disc
disasters
disaster,
differs
deposited
dependence
deflect
darkness,
crowds
criminally
contrary,
continued,
confidential
concise
coal,
clarified
car's
capitalist,
bypass
burgers
bubbles
bubble,
bouncing
bonuses
block,
bikes
balances
aura
antimatter
algebra
ago)
affiliated
adjective
[*
Wtf
Wie
TOO
SA
Really,
REAL
PO
Ocean
Moral
Midwest
Las
Lady
Keto
Jurassic
Joseph
Israel,
ID,
Hillary,
Feb.
Eh,
EU's
Doctor,
Criminal
Costa
Commander
Coast
Christians,
Called
Cali
CBT
Buddha
Alice
Act,
130
/s
/r/
(very
(B
(*
&gt;People
&gt;However,
&gt;Das
"yeah,
"wrong"
"war
"she
"human
##\uand\u
##TE
##SA
##RI
##NT
##ME
##LA
##IC
##F)
##D,
##AT
##36
##33
##13
##-free
##-2
##y\u
##urs
##ult
##ude
##ture
##tions
##that
##sive
##nic
##n\u
##ki
##kes
##hn
##fore
##dd
##bot
##ale
##air
##ade
##ack
zone,
wrecked
wrath
welcoming
we,
watching,
translates
thus,
tf
tasting
swine
suppressed
stink
spraying
spice
sophomore
soft,
sniff
slang
shelter,
settling
selectively
se,
screaming,
schedule,
sauce,
riot
replica
relatable
rationalize
ram
pyramid
prosperous
prosperity
prohibit
pretty,
presidency,
portray
pickup
peripheral
part-time
pad
overwhelm
outstanding
optical
open-minded
now"
nombre
newbie
negotiated
nefarious
natural,
missing,
minerals
memorable
meme,
medicinal
making,
lowers
licked
killer,
joked
insulation
input,
infrastructure,
indicators
included,
honesty,
holder
hast
go-to
fuzzy
funding,
frightened
forgiven
fleeing
financing
fend
fecal
fare
expelled
evenly
estrogen
enlightenment
engineer,
emotional,
emotion,
dolphins
doll
disco
dime
diarrhea
deutschen
descent
deficit,
deduct
cute,
cubic
continent,
consensual
conditional
commie
comfortably
cigarettes,
cheesy
causality
catchy
capturing
broker
brand,
boots,
axe
appropriately
anniversary
alley
advertised
adventures
advantage,
actor,
activities,
abolished
[message
[FACIAL
Worth
Wake
Trinity
Test
TP
TIME
Spring
Single
Serious
Rich
Rey
PS4
PE
Oklahoma
Non-
Nixon
Ned
NOTHING
Mormon
Missouri
Michigan,
Mental
Leaving
Houston
Her:
Guys
Grim
Fantastic
Ein
Core
Corbyn
Cooking
Congrats
Committee
COULD
CDU
Bell
Barack
Asia,
Angeles
Andy
Afghanistan,
95
47
13,
*some*
*You
&gt;-
"optimistically
"We've
##TA
##ST
##NA
##54
##38
##34
##100
##1/
##03
##/d
##.org/
##-out
##-ish
##’re
##z,
##wing
##ti
##rth
##reddit.com/r/
##pro
##orn
##og
##mi
##lk
##lf
##lation
##key
##ham
##gle
##ero
##er's
##d-
##cm
##cle
##cause
##can
##ada
“it
überhaupt
yard,
wingers
whine
watched,
warriors
walkers
vomiting
villagers
variant
variance
unlawful
tug
transporting
tossing
thermostat
tasty
sterile
steering
stained
stabilize
squeezing
spoke,
software,
socialize
skim
skepticism
shelters
scream,
same-sex
salmon
review,
reportedly
replicator
recall,
rapists
racially
psychologists
prices,
portable
pool,
planet's
pitched
pieces,
phrase,
petit
peoples'
penetrate
paced
optimism
oppress
offensive,
off"
obnoxious
non-essential
nominee,
newborn
needles
nationalist
muttered
monitored
modifications
minorities,
merge
merchant
match,
marathon
manageable
malpractice
lsd
looks,
littered
lifetime,
lieu
lectures
investigator
intoxicated
intolerant
instrumental
individual's
in"
impatient
ill,
ideally
hurdle
headaches
he,
haunt
gripped
globally
giggle
functions,
friendships
freed
forbidden
flushed
flex
fiancee
feedback,
fading
extraction
exclusion
erection
entirely,
endurance
endangering
enabling
employment,
embassy
démocratie
dumber
drafted
divisive
discoveries
disappearing
directing
dinosaur
devoid
deter
debunked
debilitating
danced
damn,
crowd,
cortisol
correction
copying
concealed
cling
climate,
civilization,
characterized
carved
button,
brute
breastfeeding
breakthroughs
bolt
blink
benefited
bats
assertive
agent,
agency,
again..
YouTube,
Ya,
YOU,
Write
Wouldn’t
Wind
Wii
VX5
Ultimately
Started
Standard
St
Smoking
Singapore
Self
River
Rise
Project
Ottomans
OT
OMG
Nobel
NTA
Mirror
MD
KKK
Judge
Jo
Interesting,
IR
IMF
Hotel
Hopefully,
Gore
Gods
Fortunately,
Evidence
Election
Drink
Detroit
Democrat,
DVD
D&amp;D
Couple
Cook
Columbia
Che
Charlie
C,
Body
Bali
Agency
AB
9th
69
51
50,
41
40s
4-
3k
3/4
10-20
*your*
**Rep**
**Dem**
(other
(Even
(18
&gt;he
&gt;[
"why"
"simulation"
"human"
"free"
"fake
"better"
"at
"They're
"Have
"Big
##LL
##ENT
##EN
##DE
##A,
##8)
##76
##500
##37
##3/
##.3
##yr
##ugh
##uck
##type
##tin
##table
##sure
##pi
##p-
##p,
##name
##lu
##ing*
##hi
##fter
##etic
##een
##e\u
##dit
##d'
##ator
‘The
yards
wo
weighing
wealthier
waits
villain,
vie
vacate
upward
unjust
toxic,
tide
thing"
th
tattoos
target,
surfaces
subsidize
stressing
stomp
stocks,
statistics,
stalking
solves
sodium
socializing
smell,
sleeping,
skew
shills
self-worth,
salesman
reviewing
respects
resilient
replication
realize,
raids
quelqu'un
pumps
psychoactive
prayers
postpone
poo
plugging
plant,
photographer
permission,
perhaps,
performance,
pedophile
peasant
paternity
particles,
palms
packet
overweight,
overrun
override
orgasm,
of"
nuts,
notoriously
non-profit
mosquito
more)
modem
misinformed
medic
maturity
low-income
liked,
knocks
king's
keyboard,
ketamine
joking,
jetzt
it”
intermittent
intact
insights
hostel
homelessness
homeless,
hockey
him/her
here)
helpless
habits,
forth,
formatting
font
feudal
faction
extreme,
ethically
etc),
enslaved
enhanced
economists
economist
eben
dumbbells
dress,
downright
disclosure
discern
deux
designing
defence
dam
contracting
contamination
consumption,
considerate
confounding
confession
condemned
conclusive
compromise,
comes,
coin,
coil
catastrophe
boys,
bounds
borrowing
blackout
bidding
balancing
badge
avenue
aroused
appease
apparatus
annoys
altogether
adolescent
accordance
Zone
Wave
Wars,
Valyrian
Underground
Starting
Starks
Sort
Sanders'
Rico
Rice
Radio
Quebec
Porn
PEOPLE
Nike
Nick
Mediterranean
Medicine
MAN
Lucky
LED
Kansas
Job
Industrial
Hold
HAD
Girls
Gas
GTX
Fact
EVERYONE
Doe
Doctor's
Dany
Club
Clinton's
Chinese,
CNN,
Aren't
Already
ATM
20s,
160
12th
125
*always*
*actually*
**My
(without
(whether
(her
'A
&gt;you
&gt;Die
"nice
"first
"Ok,
##Do
##@
##7%
##69
##26
##05
##.2
##..the
##-8
##-1
##"..
##yn
##word
##ves
##vel
##ught
##tate
##tan
##state
##ssion
##rse
##rian
##read
##pot
##po
##ote
##ness"
##ji
##ist,
##ised
##ie,
##ics
##hand
##er-
##e'
##di
##cation
##car
##box
##bon
##ach
“just
“if
«
zinc
xenophobic
workouts
womb
wifi
wield
wet,
warning,
visitors
vintage
verbless
unqualified
unique,
unions,
union,
troubles
tilted
tight,
tick
them"
thee
than,
territories
teleport
tasks,
takeaway
synthesize
sympathize
symbolism
swollen
superficial
strapped
stiff
stay-at-home
stationed
speculating
sooo
solitary
smug
sleeps
slander
ski
sir
sinking
sin,
shit"
seventh
separates
self-conscious
sedentary
scoop
scarred
retaliation
resisting
resigned
resentment
remnants
regimes
reflex
reflective
rash
pushups
prostate
premises
polluting
polls,
poking
planetary
phrasing
phones,
percentages
peacefully
pandemics
ow
outs
obliged
nichts
neighbours
multiverse
mph
mouse,
month's
mongering
mitigation
mirrors
meanwhile
marrow
macro
loophole
lizard
lion
limited,
leisure
leg,
isolating
intrigued
interviewing
intel
institutional
inputs
inhibit
impoverished
imposing
impactful
illogical
humane
horse,
horizontal
hindsight
haul
harms
habitable
grinned
grilled
gorgeous
glove
generals
game"
fuse
français
forgets
foreskin
fooling
flexibility
exchange,
ex-wife
employer,
elegant
differences,
dichotomy
diagnosis,
descriptive
deploy
depicted
decently
dangerously
cycling
cure,
cup,
corps
connected,
confident,
comparisons
comics
coincidence,
coils
clingy
clearance
choking
childhood,
checks,
charges,
cet
certification
careful,
bursts
bum
bro,
brightest
blockers
bastards
balcony
aren't,
applaud
antibody
ambiguous
aired
agriculture,
agony
aftermath
aesthetic
advising
administer
Zeus
Writing
Whats
Vietnam,
University,
Tea
Taiwan
THANK
State,
Specifically,
Sound
Song
Sean
Samus
ST
Room
Rent
Religion
Press
Postal
Polish
PayPal
Pain
Oil
OP’s
Napoleon
NA
Moving
Minnesota
Met
Maul
MI
MAY
Libertarians
Juan
Join
Jake
Interstellar
IM
IIRC
Hispanic
Hannity
Guard
Gender
Gamma
Fight
FTL
Donnie
DNA,
Crown
CAN'T
Artificial
Agreement
AfD
Abrams
AFTER
ADHD,
:---
7%
3M
24th
-The
*why*
*not
(over
(T
(R
(O
&gt;a
&gt;On
&gt;It’s
&gt;He's
"socialist"
"other
"mine"
"as
"New
##](http://www.reddit.com/r/
##OP
##I'm
##5/
##32
##0/
##-looking
##-6
##y/
##vo
##uch
##tis
##s’
##sin
##rry
##ree
##port
##own
##oh
##ode
##lp
##lls
##ku
##ket
##ity,
##int
##in-
##iest
##get
##g-
##ford
##ely
##eld
##ech
##e/
##bing
##ala
##ae
“well
“When
“Can
you?”
worm
welfare,
vielleicht
vapes
unpredictable
universes,
trying,
trajectory
towers
tile
thrilled
theories,
then..
tasked
sweaty
surround
surprises
surgeons
supplied
suggestion,
stuffing
stationary
startled
stable,
squeezed
spies
specializes
slamming
shocked,
shaft
shades
scaled
rust
roar
rise,
retard
reports,
renters
regulation,
refugee
receptionist
rebels
reactive
ramen
r/science
puff
proletarian
presumptive
press,
poly
pizza,
photos,
photo,
pesticide
partners,
partner's
paranormal,
paralyzed
outcomes,
onion
oneself
nutjob
mysteries
money..
misguided
mice,
methylone
memories,
mask,
marginalized
magnet
madness
lever
latch
landlord's
l'éducation
knob
keys,
jus
jealousy
invoke
innovative
informal
indoors
immortality
immigration,
ibuprofen
humor,
humanoid
hooking
homework,
hella
hangs
greet
glyphosate
glorified
given,
fruit,
forefront
fools
fink
evangelical
ethic
equality,
enough"
embarrass
elective
egregious
e-mail
dose,
diving
disservice
disposal
dismantling
digit
developments
deutsche
detecting
debris
curtains
curriculum
crises
credentials
cream,
contradictory
conjecture
confusion,
confined
conducting
company’s
coding
clutching
civic
chlorine
chewing
championship
celebrities
catholic
cargo
canon
calming
brake
boundary
botched
bogus
blinds
beforehand
barred
bargain
balloon
bake
aversion
averages
associates
assistance,
arrives
archaic
anime,
angles
alike
aint
advocated
advancing
administrator
adjustment
acid,
academia
abolishing
]
["
Which,
Wednesday,
Van
Target
TL
THINK
Suicide
Scottish
Salt
Rogan
Rachel
Property
People's
Oscar
Online
OTHER
NZ
Lower
Likely
Laws
Ku
Key
Justin
Jr.
Jar
Jaime
Halo
Hall
Gov
Girlfriend
German,
Former
Film
Felix
Eve
Drake
Double
Currently,
Crow
Confederate
Con
Compared
City,
Chernobyl
Carlson
Bio
Banks
Bane
BEFORE
Animals
Anecdotal
All)
Agent
Adding
ADA
40k
30's
26,
2-4
*need*
(3)
(10
&gt;Can
&gt;"The
"Hi"
##](https://youtu.be/
##](https://i.redd.it/
##To
##Po
##C,
##62
##56
##4/
##35
##);
##view
##very
##tation
##t\u
##sy
##room
##rm
##ov
##list
##life
##k)
##its
##is,
##ient
##hit
##have
##h"
##gy
##fied
##fer
##ed-
##ect
##d\u
##d/
##base
##ake
##able,
zwar
yrs
whispers
vois
visually
vanity
vanished
uprising
uphold
undermining
twenties
trips,
trembling
transportation,
transplants
trafficking
toilets
titanium
third,
thin,
tanking
taken,
tailor
tablet
swelling
sweater
supplier
summons
suddenly,
substance,
stupidest
strengths
streams
state’s
spotlight
spontaneous
spitting
spear
slack
sis
sinus
showers
shouted,
sharing,
semantics
scissors
rooting
rocking
ring,
retaining
restrictive
resistance,
replicated
repairing
rejects
refill
redo
reception
receipts
rebound
rays
randomized
radiation,
queens
publicity
prohibition
priests
preserved
prefers
preface
predicts
positions,
poisoned
playground
plate,
pine
piercing
philosopher
patrol
participated
parasites
orbits
ol
niveau
neighboring
nationwide
n'ai
mineral
mieux
microbiota
meats
mathematicians
mathematician
massive,
longevity
literary
lim
leadership,
lake,
lacked
knelt
juvenile
justifying
ironically
internship
interacted
intensely
instructor
instruction
inspected
insists
insightful
imperfect
hyped
hosts
hold,
hints
harmful,
handy
hairy
gravity,
grassroots
graduates
gouging
gore
geographic
fuckers
freshly
forty
footing
folding
flushing
flown
flowed
finger,
fighters
faking
expiration
experts,
examining
exacerbated
escape,
erupted
ended,
emitting
downsides
distorted
displays
discretion
discouraged
director,
dictated
deviation
deserving
deport
demonstrably
demonic
democrats,
definitively
deem
darkest
dared
d'accord
crept
courthouse
county,
couldn't,
consequences,
conceive
compel
colonize
cohesive
cognition
co2
clicks
christ
cheat,
characteristic
centrists
cancelling
calm,
cables
brutality
bounty
blasted
bike,
bigoted
baffled
awhile,
awards
awakened
autopsy
attendance
assumption,
assisted
assassination
analogous
alarming
ages,
afternoon,
adolescents
administration's
adapter
acne
accuser
abundant
abiding
ab
YOU'RE
XR
Wedding
Wahl
Violence
VIX
USD
Throw
Tenant
Standing
Stan
Sky
Sisko
Save
Saints
SO,
Review
Results
Rest
RL
Pet
Op
Nine
Million
March,
Mal
Majority
MOST
Losing
List
Likewise,
Knights
Kashmir
Jill
Inslee
Hydrogen
Hahaha
GREAT
GOP,
Fort
Eden
ENT
Devil's
Destiny
DeSantis
Co
Cleveland
Catholics
Brussels
Behind
Batman,
Basic
Assad
AMD
49
190
110
*was*
*might*
&gt;There's
"[
"Nah,
"Maybe
"An
##MP
##ION
##For
##A)
##9/
##49
##24
##18
##16
##07
##/c
##-5
##%2F
##tu
##st,
##pan
##org/
##onic
##ng,
##m"
##lock
##lity
##gan
##g)
##ets
##els
##book
##board
##a"
“Yeah,
wrongful
world)
wish,
wine,
whispered,
week's
warum
volcano
ville
vendors
varieties
variability
valve
vaccines,
vaccinations
unprepared
unintended
understood,
undercover
uncovered
transfers
trailed
traffic,
toothpaste
tones
thick,
theorem
theft,
tenth
telescope
symbolic
swearing
swamp
surprised,
supportive,
stumbling
statements,
st
sprint
spread,
sort,
slumped
sitter
sites,
shithead
sein,
secretive
schedules
scapegoat
sapiens
sale,
rookie
rocks,
robbing
robbery
reuse
responsive
responses,
repeats
reimbursement
recieved
re-read
railing
progressive,
predisposed
poses
piles
pathogens
palace
operational
oak
novels
notes,
news"
negatives
name)
nah
moved,
monitors
monde
millionaire
migrate
messages,
merits
me;
mattress
mathematically
marriages
marched
malice
mailed
lucrative
loosely
life-threatening
lax
lactose
jog
issuing
interval
interstate
instincts
inflicted
indefinitely
incorrect,
inconvenience
immortal,
idle
holes,
height,
hacker
grasping
gatherings
ganze
fuss
forcibly
focus,
flight,
flawed,
flashlight
flag,
fiat
fearful
fashion,
failed,
ex-
euro
estate,
enzyme
endlessly
emergencies
emails,
elimination
dysfunctional
downhill
dodged
do..
described,
deprived
deposit,
deported
debated
dat
dab
cyber
customers,
country’s
correlates
copy,
consolidate
compromising
complains
competition,
competence
companion
colonized
collateral
cocktail
cloak
cliche
cites
chef
canceling
build,
buffer
booming
bland
birds,
biome
beverage
betray
below,
beautifully
ballot,
awakening,
authentic
assaulting
article:
arriving
arresting
arbitrarily
anticipation
anti-capitalist
amused
adhd
activist
achievement
[In
Yup
UC
U.S
T-
Syria,
Sir,
SHE
Robin
Remove
Racism
Questions
Protestant
PS
OCD
Note:
Neanderthals
NPR
Mnuchin
Menschen
McCain
Matter
MIL
MIDI
Larry
Kendrick
Jew
I'M
Heavy
Guide
Grow
GHG
G.
Founders
Following
Fascism
EDIT
DJ
D,
Cure
Corn
Channel
Baltimore
Ball
Although,
Aegon
2024
(read:
(depending
(He
(G
&gt;they
&gt;Some
&gt;Be
##
"self"
"E
##IN
##IA
##AN
##88
##67
##27
##/s
##-E
##,*
##zer
##vin
##ule
##tz
##tte
##science
##run
##ress
##post
##people
##nn
##ni
##nch
##more
##mm
##mb
##ike
##ign
##ically
##hot
##hed
##gi
##fully
##eur
##ert
##eat
##ean
##e's
##d”
##ci
##cent
##c/
##and-
##an-
##ail
“Hey,
workout,
workings
wonderful,
winning,
wink
willful
wiki,
weaken
way)
viruses,
unproven
truths
triggering
trending
topics,
tin
though..
this)
theater,
survivor
sunglasses
subscribed
steroids
spoil
smiling,
similarity
silent,
shill
shareholders
server,
serum
sellers
self-awareness
sectors
scrambling
scrambled
scheduling
sarcastic,
sang
sample,
salary,
rug
row,
rough,
rotate
revolves
reusable
retreat
resonate
resignation
resemble
replies,
remarks
reliably
release,
reassuring
rap,
raid
psycho
prospective
projects,
programmers
problème
pretends
potential,
posture
possessions
poetry
pivot
petite
penetration
peeing
peed
pedantic
paused,
paired
overlooking
onboard
observational
non-negative
non-
nationally
narrative,
n.
n,
museums
moreso
modeling
missions
mil
medium,
male"
maintains
mafia
loudest
losers
loopholes
looming
lead,
judge,
jeu
itch
it.”
irritated
interrupt
integration
insulted
in-laws
implicit
illegals
humidity
https://www.reddit.com/r/
hottest
historian
herbal
hearing,
habit,
gute
gestured
germ
generations,
forgiving
foil
flavors
fixes
finale
fertile
fell,
fad
explained,
expire
eBay
drifted
disjoint
director's
detained
demonstration
demons,
defenders
defamation
decency
daylight
curiosity,
cruelty
counter,
count,
cooperate
contradictions
contradicting
constantly,
consist
connects
completing
complete,
competitors
communist,
commanding
coinbase
cis
chromosomes
channel,
cam
cages
cafeteria
bunker
borders,
blog,
bitching
be..
authoritarianism
armour
appearances
annually
annoy
anecdotal,
ammunition
all..
aggressive,
abused,
[S
Works
Voss
Uh,
Tories
Tech
Switzerland
Spotify
Sexual
SOME
Roosevelt
Rome,
Rocky
Robb
Road
Reality
Production
Perfect
Patriot
PC,
Nowhere
Nintendo
News,
Milky
Mayor
Massachusetts
MU
MAKE
Letting
Khan
Jong
Including
Hundreds
FedEx
FOX
DR
Cup
Cue
Cost
Carolina,
COFFEE
CO2,
Break
BDSM
Android
Amazon,
Alternatively,
Agreed
988&amp;bih
57
5-
4.
24,
2.0
170
11th
*does*
(For
&gt;fuck
"have
"Free
##](http://
##SS
##EL
##E)
##47
##46
##4%
##39
##17
##-D
##%)
##wide
##uring
##ud
##tus
##tra
##s/)
##ris
##month
##made
##home
##fi
##cus
##ased
you”
winters
wholesome
wealthiest
way"
wasteful
waive
virus"
validation
urging
unsettling
unlucky
unknown,
unknowingly
uniquely
unfair,
underrated
tyranny
typo
trouvé
trauma,
tie,
though;
therapists
them;
taboo
swift
strawman
stocked
sting
steer
splash
spew
specialists
solos
snuck
sniper
sliced
slapping
sink,
simplify
signatures
shotgun
shooting,
shift,
shalt
settlements
selecting
sea,
scraps
scrape
schooling
ruthless
riots
right"
revolt
retribution
repaired
relay
recycled
reboot
reasonable,
reap
puppies
public's
psychologically
proposes
proportions
private,
primaries,
preliminary
politicizing
polarized
point:
planets,
plaintiff
pills,
performances
peppers
peel
parallels
overt
out-
optional
one-
obesity,
nurses,
nun
novel,
nonsense,
muster
multiplied
molten
misinterpreting
minors
middle,
meiner
maths
masterpiece
leurs
legalizing
ledger
league,
kisses
juice,
jazz,
jamais
irregular
intentions,
inhaling
immensely
hysteria
humming
hum
hull
hugging
horrendous
hookup
honey,
gros
grit
grandfather,
grandchildren
graduation
government"
gegen
garbage,
fukn
fu
fortunately
fluctuations
flatten
fission
felt,
feces
faces,
exchanges
exaggerating
ex-boyfriend
evictions
erst
entre
engineering,
elliptical
ear,
dystopian
drying
dragon,
dissonance
displaying
dismissal
dismantle
detriment
derogatory
defenses
crows
critiques
creation,
cover,
corpses
cooking,
consisting
conquering
confessed
concerted
comet
combinations
colours
colon
collaboration
coating
chicks
chess,
chambers
calmed
breathe,
bottle,
bonding
blankets
banner
axis
athlete
atheism
arrogance
anarchism
ambassador
allocated
all-
advent
advance,
accrued
accidents,
Yo
Warp
WP
Ultimately,
US's
Thanksgiving
Than
Tennessee
Temporal
Samsung
Saint
STOP
Rose
Religious
Rap
Random
RO
RAM
Prior
Ohio,
North,
Normal
Nope
Neutral
Nas
NYC,
Mum
Montreal
Mamba
Lisa
Lilith
Lawrence
Jordan
John,
Jedi,
JDBA
If,
Idaho
IG
Hop
Honey
Homo
Heat
Guaido
Grandpa
Georgia,
GOT
Forgive
FIND
Egyptian
EI
ED
Discord
DPRK
Cummy,
Cops
Chelsea
Cant
CL
Birds
BP
Aquaman
Anna
AGI
98
62
43
2000,
1918
1800
100%,
*never*
*don't*
**What
**If
(N
's
&gt;Yes,
"yeah
"let
"great"
"because
"Be
##CH
##?’
##9)
##0s
##08
##04
##01
##/3
##.1
##-to-
##))
##''
##’m
##és
##zo
##zi
##u,
##to-
##times
##t's
##si
##s://
##r)
##power
##page
##pace
##other
##ngs
##mon
##lease
##jo
##ind
##i-
##gate
##face
##f,
##even
##cer
##bi
##ange
##ama
##a)
“Where
“Of
you)
wounded
work"
withheld
width
whispering
weights,
weary
victims,
verbs
vagina,
utopian
utilized
uncle,
twitch
transcript
traces
tournament
thief
there..
tennis
tears,
tank,
synonymous
swallowing
surveys
supervised
suck,
subjective,
stripper
stripes
state"
stains
sport,
soit
soaking
snarky
snapping
slot
sleeves
simulations,
shone
sheriff
shaggin
servant
sadly,
robes
rightful
responded,
rendering
reinforced
regenerate
recoup
readings
rapist,
queer
purge
psychosis
propped
properties,
prob
pro-life
prints
poles
payout
paychecks
parti
parrot
parliament
parasitic
pans
ours,
opposes
omnipotent
officers,
notions
noone
nonprofit
no-
ni
n'y
mute
muddy
mist
missiles
measure,
mdma
mattered
mathematics,
localized
loan,
legislation,
leagues
lays
lawmakers
jerked
investigative
invalid
intervals
insult,
injuries,
infrared
infinite,
inference
inexperienced
illicit
i.e.,
hostility
hosted
hopeless
handsome
habitat
ha,
guiding
grandma,
glitches
generalize
friendship,
freaks
founders
fois
flashback
filler
femme
fantastic,
eyebrows
exposure,
excel
enrolled
economical
dwarf
dun
dubious
disrupted
disbanded
disable
deprivation
departure
dentists
demo
degradation
cuddle
confusing,
concussion
comrade
commanded
collapse,
coined
coated
coaching
cloaking
circumvent
chop
chime
charm
chanting
cater
cat's
carts
carbs,
candles
bureaucratic
bumps
built,
bright,
breaths
brakes
blacked
births
badly,
avocado
arrangements
armor,
apologise
apes
anticipated
analytical
ample
almond
alienate
agendas
affluent
advantageous
adulthood
adjustments
adapting
acres
abandoning
](https://www.
[O
Youre
Woke
Voyager's
Vietnamese
Usually,
U.K.
Travel
Tl;dr:
Ti
They’d
Teachers
Spend
Specifically
Spartan
Six
Sie
Sending
Sen.
RIP
Queen's
Portland
Pass
Organic
OB
Nowadays,
MANY
M4A,
Lyanna
Loki
Laura
Kate
Karl
Kamala
JD
Iran's
Into
Immediately
Ignoring
Husband
Hit
Generally,
EV
Driving
Dow
Division
District
Denmark
Dallas
Cube
Cruz
Crozier
Crime
Christine
Christianity,
Certain
Caribbean
Brooklyn
Bidens
Batman's
Baker
BO
April,
Alright
Agree
360
28,
**tl;dr**:
**"
(eg
(due
&gt;if
"You've
"One
"Look
"Get
"Am
##Se
##P,
##CK
##?s
##82
##66
##53
##/A
##..”
##-e
##-"
##’ve
##ype
##yl
##ww
##where
##wave
##uit
##ub
##tty
##style
##sic
##ria
##rge
##ove
##ough
##ological
##nor
##len
##l"
##iting
##ino
##ing”
##ids
##hour
##han
##gon
##gin
##field
##earch
##dia
##clear
“how
“but
“Thank
“As
yall
ya,
witty
willpower
whomever
warming,
waiting,
volunteered
usage,
unresolved
unholy
unhappy,
unchecked
treasure
transcription
traitor
tougher
totalitarian
thunder
things"
theorized
swell
swastika
surpass
successes
stung
story:
starters,
spoiler
slaughter
shredded
shitload
shaky
ses
sensations
seniors
selves
self-esteem
self-control
screeching
scaling
revelation
rests
real-life
reader,
re-elected
raining
publications
psychology,
psyche
proposition
professions
prepared,
plumber
plethora
pierced
performs
peculiar
patterns,
pattern,
pathological
partying
parole
parade
painful,
others)
others'
org
one"
obsolete
noon
nonsensical
nipples
newspapers
networks,
nervously
needy
needlessly
necessities
narratives
muffled
more..
mission,
misinterpreted
might,
meteor
mesh
merry
medicaid
mating
mainland
lurker
lips,
linguistic
limp
libs
letters,
leaks
know,"
kin
jewelry
intermediate
intending
institute
injecting
infantry
incremental
inconvenient
imperialism,
hoodie
hobbies,
herb
her..
haunting
hall,
grieving
greasy
gravel
graphene
genital
generalized
fundamentalist
fucked,
friends'
forged
fore
fool,
finest
facility,
expenses,
exaggeration
ethanol
esteem
escorted
eradicate
entitlement
embraced
driverless
dresses
donc
disorders,
dir
dictates
dialogue,
diabetes,
devil's
destined
description,
depleted
davon
dates,
curves
currencies
culprit
coughed
cough,
correspondence
conservatism
compressed
collapses
clarifying
circus
chewed
chemicals,
chemically
cheered
centuries,
census
capitalistic
buses
brain's
bounced
boats
blurry
biodiversity
bigotry
biased,
bands,
bailing
b/c
artists,
aquarium
approximation
appearance,
antagonist
anomaly
annoying,
anchor
alle
aids
affinity
affection
adderall
acting,
acquiring
accommodations
aboard
Wood
We’d
Weight
VX3
Thankfully,
Taco
TSA
Slowly
Shut
Revolutionary
Pot
Plants
Patrick
Older
OC
Neanderthal
Na
NEW
Mexicans
Marines
Louis
June,
Jamie
Jahr
Interestingly,
Individual
Ian
Ho
Hitler's
Google,
Good,
Gesetz
Furnace
Forgot
Follow
Financial
Feels
FYI,
FYI
FEMA
Eric
ELI5:
Country
Click
Classic
Citizens
Citizen
Chicago,
Chapo
Changing
Caesar
C-137
Buddhism
Brazilian
Bowl
Bolivia
BA
Aww
Aus
Ash
Arabic
Anthony
Airlines
Afghan
Affordable
ASOIAF
ANYTHING
AF
75k
500k
4-6
23,
2014,
1:1
185
1700
1.6
1.1
*“
**not**
(8
'no
&gt;One
&gt;Are
"very
"love"
"anti-
"We'll
"People
##](https://twitter.com/
##\ua\u
##TS
##TION
##TH
##Co
##But
##AS
##AA
##81
##/top/?sort
##.00
##..so
##-a-
##’ll
##wi
##vis
##van
##ump
##um,
##t)
##shed
##r\u
##r's
##orm
##order
##nna
##lay
##itis
##ition
##ion"
##ident
##ia,
##fu
##f)
##ed*
##ec
##core
##con
##class
##any
##ants
“good
“Then
“..
yelled,
wrong"
won't,
whiskey
whim
volume,
visions
vets
vectors
vanguard
validated
utilizing
unlikely,
unexpectedly
types,
truthful
trusts
triumph
tract
toys,
towed
tip,
thicker
systematically
synonym
suspects
supervision
stunning
strides
stimulating
startup
solid,
sleeve
slash
significant,
shovel
shite
sham
sexuality,
settlers
semi-
seizing
search,
romance
retaliate
restoring
reposting
remarkably
reasoned
realtor
realising
pussy,
psychonaut
pseudo
prompted
progressively
produce,
privacy,
prevailing
presence,
preparedness
populations,
pollute
pollutants
pleasing
pleading
phenomenon,
phases
partnership
overturn
outpatient
origin,
oriented
one..
objects,
objection
nightmare,
must've
movie's
mortified
moronic
mislead
misconduct
millennials
mill
miles,
mileage
messes
maternity
massacre
marching
man-made
là
low-
loops
long-range
liberties
layoffs
lakes
labeling
know"
jackass
itchy
island,
investment,
insure
inspiring
ins
infections,
incomes
inclusion
included)
in-
imports
hypotheses
hyperbolic
humour
hovering
horizon,
homicide
homeland
hilariously
heroic
heads,
headline,
havoc
hardship
handgun
guise
guardianship
graves
grammar,
government’s
governments,
goat
gloss
generally,
full-on
foundations
for..
fixated
fertilizer
fais
factions
extremes
experienced,
excused
excuse,
exceptional
ex-girlfriend
escalated
epigenetic
envy
entanglement
empower
embracing
edge,
dwelling
dust,
duct
doorway
documenting
dispensary
disappears
disappeared,
detector
deferred
defeating
dedicate
decisive
dams
dad’s
curve,
crystals
creepy,
cosmetic
coolest
controversial,
contested
competency
communities,
communal
commands
command,
cleaning,
class"
children’s
checked,
cemetery
ceased
catalog
casualties
captive
brass
bowls
booking
bolted
boarding
billion,
beverages
bedside
battling
baptized
bags,
asian
artwork
anticipate
alternative,
allies,
airplane
aims
acceleration
abstinence
[It's
Yoda
Wirtschaft
Win
Wayne
Turning
Tree
Therapy
Taxes
TD
Sphere
Silver
Shrooms
Share
Scandinavian
Safe
SSRI
SP
RN
Phase
Patients
Past
Ok.
Nonetheless,
Next,
Near
Nathan
NDP
Morning
Milk
Meat
Marius
Leader
Late
Jose
Illegal
Housing
GTA
Front
FDP
FAR
Essentially,
Empire's
Egypt
EVERYTHING
Dwight
Dumb
Davis
Cool,
Community
Chile
Brand
B:
Assembly
Anakin
Ahh,
Additionally
ASAP
80,000
76
7-8
53
25th
2004
13th
**the
(something
(p
(often
(20
&gt;we
&gt;No,
&gt;Neatiest
&gt;At
"super
"he's
"got
"Wow,
"S
"Mr.
"**
##OS
##OL
##ND
##Id
##IS
##ET
##DA
##C)
##BA
##?,
##9%
##87
##85
##8%
##65
##61
##57
##55
##51
##5-
##31
##02
##.gov/
##zu
##well
##watch
##war
##using
##une
##tone
##tly
##te,
##star
##some
##sel
##rump
##pen
##or-
##ob
##nter
##n*
##n'
##lle
##link
##le,
##lack
##l-
##know
##ject
##ini
##ik
##gal
##g/
##form
##fo
##ering
##eed
##ders
##date
##d)
##ato
##arian
##amp
##ai
##ac
##aa
“it’s
you.”
witnessing
whatsoever,
werent
wait..
vont
verification
venom
vehemently
vegan,
utopia
utilities,
unusually
uns
undergoing
trumpet
trump's
transport,
touted
torso
torch
tolerant
tiny,
thrift
though:
thigh
theaters
texts,
tenancy
tempting
taxable
tailored
ta
synthesis
swiftly
survives
suppose,
sung
stressed,
strawberry
stood,
spilling
sparked
sobbing
sniveling
sieve
showrunners
shitshow
shaping
shamed
sewage
severance
saying:
satellites
saliva
rulers
rhino
resonance
reside
request,
replicating
rapper,
queue
quantitative
puzzles
pulp
psychs
props
programming,
pressuring
prequels
practices,
potassium
pond
pirate
pick,
physically,
physical,
petroleum
permafrost
peanuts
overreacting
occasion,
neighborhoods
myths
mystical
my,
mortals
mono
misleading,
millionaires
militia
menstrual
melody
meet,
media's
marxist
marrying
mailbox
left-leaning
labelled
knit
kinky
kinetic
justifies
job"
involuntary
investor
invasion,
introvert
intolerance
intimidate
intercourse
insufficient
instinctively
infidelity
inequality,
incumbent
imagination,
idealistic
human's
http://www.
hires
hers,
hefty
harmony
happiest
guard,
growing,
grass,
goofy
glorious
glaciers
ghosts,
gestures
geht
futures
fuk
fly,
flow,
flaws,
fists
filming
favor,
fact:
fabricated
expression,
experimentation
evaluating
eternity,
ends,
elements,
elder
efforts,
ecosystems
droplets
dodging
divisions
disturb
disgrace
discharged
diminish
detached
desperation
density,
deforestation
defer
deductions
crypto,
crust
crooked
creator,
covid19
couple,
cores
containers
connotation
clay
choose,
choked
charcoal
cerebral
cbd
caveat
canal
burn,
brown,
broke,
breathing,
boxing
bloated
blinding
biology,
bells
behold
bashing
ball,
astronaut
are..
appreciated,
antibiotics,
amyloid
alien,
alarms
across,
accessing
academics
YTA
Worked
Wiki
Uni
URL
Two,
Tuvix
Thursday,
Throughout
Terran
Technology
Sunday,
Students
Student
Straße
Starfleet,
Scott's
SNP
Rural
Rob
Ridley
Recently,
Progressives
Pourquoi
Phone
POS
PI
O2
NY,
Mars,
Manager
Mainly
Lesson
Klingon,
Jeremy
ISPs
IBS
How's
Hilary
HC
Group
Greenland
Fund
Français
Fermi
FEEL
Everytime
Enterprise,
Engels
Ended
Economics
Earlier
Dominion's
December,
Complete
Clean
Bundestag
Bundesregierung
Brock
Bonus
Boeing
BEING
Avengers,
Access
ASD
9:
70's
7)
6,000
5K
56
46
2am
22,
12,000
1.0
1&amp;
*the*
*for
*do
**a
(don't
(among
(a)
(M
(H
(6
"common
"Ah,
##RS
##La
##IT
##9-
##63
##6%
##48
##41
##09
##.The
##-in-
##-10
##*)
##}
##xy
##with
##which
##ville
##uth
##used
##ura
##text
##sted
##ssed
##ram
##pid
##ount
##ots
##orld
##ont
##long
##llow
##ll,
##lated
##ites
##hm
##fuck
##eg
##dio
##df
##del
##dal
##ctor
##cked
##cial
##cast
##bles
##b,
##ano
##am,
##al,
wits
wings,
wether
wer
weeds
weaknesses
washer
vinegar
viele
victim's
variants
vain
uranium
unused
unilaterally
unfathomable
uneasy
undesirable
underwater
unbelievably
tray
trainers
too..
time-
terminating
tee
tar
taped
tags
tablets
symptomatic
superposition
suite
subspace
subpoena
sub-
stimulant
speculation,
soda,
sociopathic
sociology
snow,
smarter,
sliver
slips
showcase
sensitive,
semblance
securing
scholarship
right)
restaurants,
resorting
residue
reservation
researchers,
required,
repetition
regrets
redirect
recognizable
rapport
psychic
propensity
programmer,
profusely
productive,
proceeding
post-punk
pope
plywood
plastered
plant-based
plainly
pixelated,
physiology
physicists
photograph
peered
pedantic,
para
overlook
over-
obese,
notebook
nonstop
night's
nasal
mumbled
mindless
meaningfully
mars
marginally
mammal
makeshift
longitudinal
legion
leases
leaps
laptops
jungle
jacket,
ios\uapp&amp;utm\uname
introduces
intriguing
intern
interconnected
intellect
integers
int
insensitive
innocent,
ingest
indifferent
hop,
highlighting
heritage
handbook
hammered
gummy
glared
glare
giant,
gasped
gameplay
foot,
figures,
fierce
faux
faults
familial
fails,
faculty
europe
escapes
epicenter
entertained
engine,
embryo
elephants
einzige
eighth
dye
drilling
dome
disruptive
discarded
disarm
dipped
dictators
devices,
del
deficits
decree
decorated
declines
damp
damages,
crois
continuity
contingent
congressman
conflicted
complement
commits
comb
coats
clocks
changer
causes,
capped
cannabinoids
campus,
caller
cafe
ca
c.
butt,
bushes
burying
brains,
bidet
besoin
benefiting
be:
banks,
bang,
backwards,
backward
backgrounds
awareness,
aux
audacity
athletic
assignments
assessing
artist's
are:
apathy
apathetic
anti-vax
amphetamine
ambitious
alloy
allocate
alienated
airports
airing
activism
acceptable,
absurdly
a,
](https://
[I'm
Yeah..
Waste
W2
Toyota
That'll
Thailand
Te
Sweet
Summer
Strong
Stanford
Somehow,
Silmarillion
Sick
Sandy
SSRIs
SE
Reg
Prevention
Physics
Penny
Participants
Packers
Oddly
Nutrition
Nurse
Nazis,
NBC
Mo
McDonalds
Lyft
Lords
Loeffler
Location
Lo
Linux
Li
Lab
LP
LDL
Karma
Joe's
Iran,
IT,
ISS
I..
Hungarian
Happens
Gospel
Genesis
Focus
Famine
Example:
Evo
Er
Drive
Dota
Diese
Diego
Devil
Depression,
Darwin
Coinbase
Capital
CF
C-
Bush,
Build
Bot
BABA
America’s
Alibaba
Aladdin
Ahh
Adult
AZ
AL
ABC
9-5
66
40,
2021
2000s
1998
16th
10mg
10/10
10.
0.8
*feel*
**Romanian**
(Or
(C
'we
&gt;“The
"thing"
"safe"
"man"
"la
"feel"
"dark
"Sorry,
"Hello,
##\uthe\u
##TO
##GE
##CA
##84
##42
##400
##28
##2-
##14
##101
##1-
##/f
##-S
##-3
##&amp;t
##win
##ution
##ttle
##tical
##tial
##the\u
##tant
##t*
##ste
##st"
##oz
##ound
##ora
##of\u
##nger
##mt
##mas
##lm
##lled
##lla
##l)
##ic"
##hs
##gue
##f/
##es-
##ered
##eo
##ents
##ened
##eal
##cho
##bit
##ave
##arch
##ank
##ally,
“my
“So,
“Come
y,
xanax
winners
wen
watered
wannabe
victories
versatile
vegetarians
vanilla
vais
vacuum,
ups,
unsolved
unintentionally
tweeting
trope
trilogy,
trench
treasury
translating
transitioning
transitional
towing
touting
touristy
torturing
topological
terpenes
television,
taper
tagged
system"
sweeteners
swayed
superintelligence
summary,
suicidal,
subsidy
subjects,
stresses
stone,
stepdad
stash
stances
sovereignty
soil,
sneeze
sneaking
sloppy
sinister
shots,
shielding
sh
sexist,
sewing
servants
sensational
sens
seit
routines
rigs
reviews,
retained
respirators
reimbursed
reckon
rebel
rationality
radio,
quarantine,
punches
puddle
prudent
provided,
proton
profile,
probabilistic
privileges
premier
predisposition
preaching
preach
power-
portrait
politician,
plugs
pipeline
phased
pet,
pessimistic
percentile
pennies
pencil
patriot
password,
outlier
old-fashioned
obstacles
nutritious
nods
nest
near-
nano
mutate
monoxide
monarchy
mole
mitochondrial
miserable,
millions,
mediation
maple
manifested
mango
maintenance,
lord,
logs
licence
libraries
lettuce
lending
leapt
lbs,
lava
know)
kids'
journalist,
jeux
i’ve
irrelevant,
inventory
intrusive
intent,
installation
inmates
injure
imported
implicitly
hub
hooded
hipsters
hinges
hill,
highlighted
hides
heinous
halls
guys"
gut,
grease
grandmother's
gaslighting
forum,
formidable
former,
foreigners
flattening
flashes
feat
fans,
failings
fades
episodes,
entertainment,
ensures
earthquake
each,
débat
drugged
drifting
dreamer
domesticated
documents,
dna
divergence
disposed
disenfranchised
discovers
disclosed
disagreed
diminished
desert,
delegate
degenerate
dedication
declares
decision-making
day-to-day
cuts,
curry
crumbling
crosses
criticism,
cried,
cosplay
cooker
controls,
continue,
confidence,
conceal
colors,
colloquial
coarse
clogged
clauses
clarification,
clap
chore
chain,
celebration
cal
butter,
bud,
bruises
bowling
believers
beans,
babies,
awoke
avoir
attain
arrests
arose
arises
answer:
ancestry
amazingly
aliens,
ai
admiral
administration’s
accountant
abusive,
abuser
abs
[this](https://www.youtube.com/watch?v
[https://www.
Y'all
Wolverine
Witcher
Whilst
Vaping
Um,
Thrones
There,
That'd
Tears
TX
Stress
Sign
SNAP
SAVEN'T
Rogers
Response
Resistance
Quand
Price
Presumably
Pokémon
Plastic
Pizza
PhD,
Paradox
PL
Option
Nicotine
Nat
Murdoch
Movement
Milwaukee
Lying
Loved
LONG
Jacob
Ivanka
Israelis
Ideally
IL
HD
Greens
Governors
Form
Female
Faith
Edmund
Doom
Direct
Define
Darkness
Congressional
Coal
Cities
Centers
Cambridge
CV
CANNOT
Btw
Britain,
Blame
Bird
Because,
Baptist
BTW
Asked
Arabs
Alliance
Aka
ABLE
8,000
8%
78
6000
30-40
2A
20-
15,000
10-12
10-
000
*before*
*because*
*It
**all
**[
(while
(well,
(he's
(b)
(3
'not
"G
##This
##GA
##98
##89
##/I
##/5
##-to
##&lt;
##’s,
##y”
##y*
##y's
##vy
##vi
##ute
##uff
##ty"
##tre
##tech
##sp
##rp
##rand
##put
##onal
##lus
##left
##ju
##ien
##hin
##gent
##fc
##es/
##en"
##dl
##cat
##c-
##c,
##bn
##ash
“to
“Yes
“Now
école
zen
years..
wrote,
wrongly
wrists
woo
wholeheartedly
weirdo
wavelengths
warmed
vibrations
ver
veg
vacation,
using,
us"
uploading
unhelpful
undiagnosed
ultrasound
ubiquitous
treated,
tracing
too)
tonnes
tiger
tickle
thyroid
thrill
thousands,
thinkers
things:
theme,
theatre
thanking
technician
super-
sun's
summarize
stunt
streak
stew
stench
staple
staggering
spontaneously
sniffing
slightly,
skinny,
sirens
silenced
sidelines
siblings,
shorthand
shameful
sewer
sensationalist
scarce
savings,
sank
roam
rigging
revolutions
reversal
retro
restoration
resonates
rents
relax,
relativity
regressive
refund,
redistribution
recruiting
rebuttal
reasoning,
realized,
ranting
qu'elle
protest,
pronunciation
proceedings
principle,
prayed
practitioners
practitioner
pot,
ports
populous
pony
pleaded
playoff
pillows
piled
pertaining
perpetrator
peroxide
peaked
paycheck,
pawns
pads
ownership,
overheard
overhaul
out)
other’s
orders,
ones)
offending
occupying
novelty
noodles
nom
neuronal
neighbourhood
nationalized
myth,
muslims
modes
misuse
minuscule
millennial
militant
mentor
matrix,
major,
lust
logistical
literate
leans
launching
latex
ketogenic
it,”
it",
intimacy
instability
inexpensive
inducing
indoctrinated
incarceration
inactive
improvement,
improper
illusion,
ihre
ideologically
ideation
ice,
hurried
human-like
hose
hereditary
harshly
handle,
hallucinations
gutted
groupe
greed,
grandmother,
governance
gospel
gop
gasping
gasp
futile
furlough
funds,
forget,
flips
flick
flagged
fix,
fin
fever,
feels,
favorite,
fandom
extension,
exports
exploitative
expands
excited,
evidenced
essentials
equates
entrenched
eg
echoing
downs
dosing
documentary,
document,
distinctly
directive
dips
developed,
damning
crops,
cronies
create,
cravings
covered,
counteract
copypasta
cooled
converts
conversations,
contend
contemplate
constrained
compulsory
composite
comedic
comedian
collusion
collective,
cloudy
classmate
chubby
chat,
case)
caretaker
careless
carefully,
carbohydrates
cancerous
campaigned
bundle
brownies
boob
bolster
blackhole
bio-
behaves
began,
beasts
barefoot
automate
attendant
astronauts
asinine
armchair
argue,
apparently,
apologetic
anti-imperialist
all"
aggression,
affiliation
advisors
adviser
adventurous
[this](http://www.
Yours
Wohnung
Wealth
Warren's
WISH
Voter
Vermont
Venezuelans
Urban
Tulsi
Trotsky
Tldr:
Thread
Thousands
Taken
Table
Syndrome
Swedish
Survey
Sucks
Steel
Soon,
Shapiro
Server
Scientific
Risk
Republic,
Queen,
Q-wave
Proof
Possible
Planned
Patriots
PART
Oval
Orleans
Nordic
Netherlands,
NAFTA
N.
Mitt
Mid
Martian
Maria
Main
Lightning
Leon
Lay
LLC
Josh
Jews,
Ignore
IPCC
I-
Gord
Frankly,
FCC
Excuse
Evangelicals
Epstein
Environmental
Emily
Days
Daddy
Crypto
Create
Constitutional
Constitution,
Celtics
Bureau
Bride
Bottom
Bo
Bit
Billion
Bet
Avengers:
August,
Analysis
Amazing
Adventure
98%
97%
93
82
8-10
77
6'
4x
33%
2001
1960s
0.2
/mlp/
*will*
*real*
*anything*
**You
**This
(same
(despite
(albeit
(No
(I'll
(F
&gt;“
&gt;pls
&gt;it's
&gt;E
"some
"like
"life
"know"
"everyone
"a"
"Okay,"
"Hi,
##RT
##My
##DS
##?utm\usource
##70
##3%
##29
##06
##/a
##/S
##/0
##."
##-specific
##-C
##&amp;sr
##%2C
##%,
##"),
##—a
##á
##xed
##us-
##urn
##ungen
##uce
##ua
##sus
##sten
##sse
##sk
##s.com/
##re,
##ost
##on\u
##n)
##mental
##lue
##lor
##lass
##l/
##kg
##istic
##ional
##ink
##ing-
##ience
##he-
##h-
##gun
##ground
##going
##foot
##fire
##fic
##ez
##eople
##ena
##en.wikipedia.org/wiki/
##cu
##bd
“he
{
youtube,
you,”
yogurt
worthless,
wishful
winding
wilderness
well-written
waves,
wasn't,
visitor
vindictive
vacant
upvotes,
uptake
up)
unter
under,
unconstitutional
uncomfortably
una
turned,
tumors
troubled
travelers
thirst
thighs
testicular
tenant,
teleportation
swirling
supremacists
supplemental
substantive
strike,
starved
sprinted
spawn
spaghetti
spacecraft
spa
soreness
sooner,
something..
solved,
sollte
skate
simply,
sicher
shrug
shroom
shouts
shopping,
shatter
sequestration
sensed
self-centered
segregation
sec
scrutiny
score,
science"
schizophrenia,
scenes,
sandwiches
router,
robots,
robbers
rim
rewatch
resembles
replenish
remake
regulates
refunds
refrigerator
reductions
reclaim
recession,
rabid
promotional
profits,
procedure,
pretentious
precarious
plunged
placement
pill,
phobia
phase,
pervasive
pens
patiently
passwords
pardon
overestimating
outreach
optimize
operations,
opera
officials,
offended,
occur,
observation,
nutrition,
notch
not..
non-violent
no..
neighbors,
naturalistic
mosquitoes
mortgage,
month-to-month
money"
mobilize
mo
mis
minor,
ministry
migraines
mellow
meager
mastered
masked
manpower
maiden
lure
local,
livable
liter
lifting,
lib
leaves,
kinks
kink
jasie3k&amp;amp;subject
jailed
invoice
interviewer
interaction,
inter
insurer
instant,
inserted
injured,
inhaled
inflation,
inflammation,
indefinite
incompetent,
inclination
imperative
impairment
illegitimate
idiots,
identities
hunch
humid
humanity's
human-
hugs
http://
hospitalization
hinder
him)
harassment,
hangover
half-
guild
guesses
gripping
grim
grades,
gossip
goo
goalposts
germs
geography
gear,
gabber
frozen,
frightening
freelance
forms,
forcefully
flock
finish,
fiery
fetal
feral
faked
explosions
exhaustion
exert
exceedingly
everybody,
escalating
err
enslave
earnest
dysfunction
dues
drywall
downstairs,
doorbell
dominating
do"
distribution,
disputing
dispatcher
dishwasher
disgusting,
discriminating
disappointed,
diff
devout
deniers
degrade
defaulted
cyclists
currently,
curing
cultists
crow
creatures,
creations
courts,
convict
contingency
consulted
constructs
condone
conditioner
complaint,
comics,
collects
clones
clenched
classifying
chronically
chopped
charged,
certificate,
categorize
casual,
caste
caring,
buybacks
butterfly
bursting
bumper
buds
breaks,
blond
blob
bisschen
bishop
bets
bet,
behold,
behaviours
beard,
batteries,
basic,
bachelor
awaken
avoids
at-will
assassinated
asexual,
approximate
application,
anti-inflammatory
announcing
angrily
airport,
airborne
aid,
affirmative
additives
addendum
acquaintance
accomplishment
[What
[T
[C
Wrong
Wizard
Winston
Who’s
WERE
Ur
Trillion
Town
Terry
Teaching
TWO
TN
Sweden,
Strokes
Spongebob
Speech
Sees
STD
SRD
SK
SD
Repeat
Pun
Picture
Phil
Persians
POST
POC
Own
Oscars
OVER
OFF
Muslim,
Morales
Mindfulness
Mi
Metal
Meditation
Means
MP
MLK
LOOK
Jin
ITS
Hulk's
Huge
Hindu
Gulf
Gotham
Google's
Gary
Frage
Forcing
FBI,
Euro
Earl
Drinking
Detective
DS9,
DD
Court,
Countries
Costco
Congo
Colorado,
Chapter
Chances
Cam
CMV:
Businesses
Box
Bought
Bin
Billy
Bed
Atlanta
App
Anxiety
Angeles,
Allies
Actual
AR-15
74
73
1980s
1/5
1.7
1-3
1,000,000
0.1%
*something*
*no
*exactly*
*[
*This
*He
**Further
(“
(·)
(your
(yes,
(how
(aside
(My
(15
&gt;no
&gt;it
&gt;!
"yes"
"will
"theory"
"socialism"
"over
"great
"cool"
"Welcome
"T
"Our
"American
##\uto\u
##\uA
##Sa
##OT
##Man
##LO
##L,
##Is
##CO
##AR
##91
##59
##3.
##/whatever
##-ass
##(which
##zen
##yle
##wo
##vid
##ve"
##v/
##ux
##unt
##tta
##tain
##sm,
##pped
##pin
##pal
##ously
##ock
##ng-
##national
##mind
##mber
##lic
##kind
##itive
##ited
##ication
##ica
##hal
##graphy
##gel
##fish
##feature
##f-
##et,
##esh
##era
##eek
##ead
##du
##dam
##chen
##ax
##au
##ait
“in
“All
·
§
y/o
woefully
wiring
warzone
waged
vocals
village,
vibrating
veil
urged
untrue
untreated
unscientific
unrest
universe"
unconditional
unattractive
tweak
turmoil
trials,
trespassing
tremendously
traveler
traits,
timeframe
tilt
tighter
there)
them),
tender
teens,
tantrum
synthesized
swapped
suppliers
sunscreen
subtly
substrate
stride
strangers,
stranded
stagnant
spins
solutions,
soluble
softball
sober,
showering
shortened
setup,
session,
sentiment,
sentient,
scrub
scaring
sa
roasted
rite
risks,
right..
rien
revolutionaries
respondents
resonator
remedies
remark
registering
regeneration
reconnect
realistic,
put,
proclaimed
problem:
prime,
prerequisite
potatoes,
ponder
pokemon
playful
plastic,
peep
pathogen
patents
passion,
parliamentary
owner's
overrated
offence
now),
notifications
normalized
nonetheless
nodding
nipple
newfound
narcissism
murdered,
migraine
metropolitan
merging
mediated
marvel
magazines
mac
lowly
litigation
licenses
lenient
length,
leeches
least)
layout
layman
knowing,
knot
kidding,
jacking
it.
intimidating
intents
instituted
inquiry
infuriating
inconsiderate
incarcerated
implemented,
hurdles
hunting,
humorous
humanities
homme
homicides
holders
heel
heavens
gun-
gross,
grill
graphs
grandad
gov't
glancing
gerrymandering
geopolitical
generalizations
gaping
gaming,
gamers
gain,
furthest
frequently,
frantic
foresight
football,
fokn
flying,
floats
flickering
firearms,
findings,
filtering
figment
feathers
facto
eyelids
extremists
exterior
exceeds
examination
essays
enzymes
emptied
empires
emperors
elderly,
drums
drilled
dove
douchebag
doo
distinctive
dismantled
disguised
discrimination,
diploma
diesem
deity
degrees,
default,
decimal
dear,
crunch
cowardly
cos
confidently
conceptual
concepts,
compilation
comfy
collude
cocoa
coat,
co-op
cloaked
circulating
cinnamon
chromosome
childcare
cherish
charter
cannabis,
cannabinoid
burden,
bunk
btc
bribes
bowl,
blues
bled
blackmail
bigot
belt,
beaucoup
beast,
barked
backfire
avoidance
av
attractiveness
assets,
assemble
artifact
anti-Trump
anarchy
analog
amygdala
altar
allowed,
alerted
aide
adjacent
acre
accessory
abstract,
abruptly
abroad,
abhorrent
[here
[4
ZERO
Youth
Yemen
Wisconsin,
Wei
Web
VAT
Tylenol
Trek:
Treaty
Toss
Technically,
TELL
Shadow
Senior
Same,
SRS
Ross
Roger
Redditors
Raptors
Psychology
President's
Policy
Physical
Pharma
Par
Paid
PTSD,
OD
Net
NAL,
Mushrooms
Morgan
Molly
Miss
Merkel
Matrix,
Ma
M16A1
Liverpool
Lease
Later,
Kurzweil
Juul
Julie
Jan.
Isaac
ISP
Hulk,
Hopkins
Honda
Hmmm,
Hmm
HEAR
HATE
Grandma
God"
Fuck,
Final
Erdogan
Eine
Eh
Drop
Discussion
Des
Dec
Dean
DONT
Cro
Covid19
County,
Coronavirus,
Continuum
Consciousness
Coke
Cognitive
Ca
Brother
Borg's
Block
Beta
Beautiful
B-
Aww,
Austin
Auf
Arkansas
Alfred
AI's
ADD
68
6-8
6-7
3am
27,
2013,
2012,
1950s
15k
1099
1/10
0.3
/r/science
*to
*after*
*E
(un
(sorry
(particularly
(our
(me
(e
(It
(12
'in
#1,
"wir
"science"
"red
"perfect"
"people"
"nothing
"natural"
"gun
"global
"friends"
"deep
"You'll
"Yes,"
"Now,
"Chinese
"C"
##T,
##Pro
##PM
##Ne
##MS
##Li
##KE
##In
##Ha
##93
##92
##8-
##79
##78
##77
##58
##4-
##.png)
##..it
##-of-
##-ma
##ée
##yan
##white
##wed
##vil
##ups
##ui
##uh
##ty,
##tional
##t/
##she
##s://en.wikipedia.org/wiki/
##rus
##row
##rin
##ran
##ption
##person
##ork
##ola
##o\u
##nt,
##nie
##nding
##n's
##mel
##mark
##law
##iti
##ita
##ined
##iet
##ider
##ic,
##hh
##gic
##genic
##ense
##ening
##eet
##eb
##dis
##die
##ches
##cept
##cc
##bin
##bag
##away
##and\u
##aid
„
“fuck
yanked
würden
world,"
women"
wizards
weiß
vibes
vendor
vehicles,
vascular
variables,
urges
untested
undead
unbounded
tyrannical
turd
trousers
transition,
tracks,
toxin
tops
toddlers
timeline,
time),
thinner
themes,
the,
that’ll
that;
temptation
technically,
team's
syringe
syllable
suspect,
sushi
sunset
suggestions,
subsidizing
sub's
stump
studios
steroid
statutory
statewide
squarely
spouse,
specialty
spanish
sow
sorry,"
so)
snatched
slogan
skimmed
skeltal
skeletons
sizable
sisters,
sidewalks
shut,
shortcut
seriousness,
senate,
semen
selfies
screamed,
scraping
schizophrenic
scams
say..
sales,
rusty
russian
ro
responsibly
resolving
rephrase
repent
repair,
religions,
ref
reefs
recruited
recordings
recognised
recalled
rebate
real-time
reactionaries
rage,
quotation
questionnaire
psychopathic
prototype
proprietary
prion
principles,
presumption
pregnancies
poisonous
pods
playoffs
pilots
picturing
pharmacies
petrol
personal,
perpetuating
perpetuate
people..
patted
participant
overturned
overthrowing
overpriced
organizations,
oranges
openings
officer's
occult
obligatory
nuisance
not-
nope,
nominees
negotiation
n'ont
mutated
municipal
motherfucker
mortgages
mode,
mm
miracle,
minimizing
melts
meddling
masses,
magnificent
mage
lumber
loosing
lifestyles
liberals,
lesbians
lefty
lawsuit,
l'économie
krew
juices
jasie3k&amp;subject
item,
itching
is;
irritation
intricate
ingesting
improve,
howling
home"
highways
hemp
heightened
headache,
hath
hatch
hasnt
harsher
handicap
gust
gulf
granted,
grandparents,
grandfather's
geographical
geared
garnish
garner
gangs
game's
furniture,
funnier
frying
frustrating,
fruits,
fountain
fossils
format,
foresee
flirty
finals
fiber,
farmed
fantasy,
f(n)
exposes
exporting
experimented
equitable
equating
enterprise
enlightenment,
encryption
encouragement
emulate
employer's
elitist
eines
economic,
doubting
docking
disrupting
dip,
die"
depiction
densely
demonize
democracies
dementia,
defends
defects
decaying
debates,
day..
darted
dairy,
customer,
custody,
cursing
crusade
course)
contexts
consumes
consolidation
conservatives,
compact
collector
cm
client,
cleanup
censoring
cellphone
celiac
cautiously
capitalize
buzzing
butthole
buildup
bronze
bra,
borne
bones,
bombarded
blur
blip
binds
betterment
behaved
bananas
bamboo
ballpark
bachelor's
ayahuasca
autistic,
aunt,
audible
attributes
apex
anytime,
anti-vaxxers
anthropogenic
anatomy
amp
ambiguity
al.,
ah
agnostic
again:
advice:
acronym
accordingly
abusers
abstraction
a-
[3
[0,1]
[/r/
York:
Winter
Wear
Walk
Waiting
WWII,
WHERE
V.
Unburnt
Trump"
Timothy
Them
Thai
TI
Sub
Stewart
Spider-Man
Sonic
Smith,
Screw
Science,
SEC
Rush
Rockets
Reverse
RE
Proof:
Promise
Presidency
Polls
Pink
Pentagon
Ontario,
Nowadays
Nov
Nouns
Norman
Normally,
Nazi's
Naturally,
Nation
Mrs
Mods
Moderates
Mix
Ministry
Marx,
Madrid
Libya
Joker's
Johnson,
Jahre
IANAL
Hyper
Honest
Harvey
HELP
Graham
Gene
Fezzic
Feds
FISA
Eyes
Everyone's
Electoral
Eddie
Domestic
Depot
Danny
Czech
Cultural
Creationism
Congratulations
Comparing
Communists
Clear
Chemistry
Centre
Carr
Campaign
British,
Brandon
Birth
Biology
Biggest
Bieber
Betty
Bear
Ban
Bajor
BTC,
B12
Ann
Album
ACTUALLY
:D.
99.9%
8:30
87
8-
67
6%
4k
330
31,
300,000
250,000
23rd
2.4
1990s
1600
10K
100x
1,500
0.1
/r/nocontext
*In
(ie,
(either
(before
(D
&gt;They're
"work
"it"
"fun"
"easy"
"death
"War
"U
"Trust
"These
"Li
"La
"Excuse
##VX
##TY
##Q)
##AD
##AC
##://www.
##97
##9.
##86
##7.
##23
##2.
##/the
##/mo
##/etc
##/co
##/D
##.com/)
##..you
##-and-
##-9
##-19
##-1.
##--the
##)..
##”)
##‘s
##ö
##year-old
##www.
##ways
##wall
##vent
##us/
##us"
##ures
##ural
##uf
##til
##the-
##t.
##sting
##space
##sized
##shi
##rect
##rated
##play
##place
##pers
##ond
##oma
##o/
##nz
##nu
##nis
##nds
##n/
##mph
##ml
##ly-
##lie
##lia
##lands
##itt
##illion
##ife
##hold
##het
##gt
##fying
##erse
##eral
##er)
##eme
##eh
##ed'
##eam
##dor
##cted
##coin
##cies
##cience
##cha
##camp
##c)
##berg
##ational
##al-
##active
Ça
Æ
zoom
youth,
worst-case
wooded
with)
wird,
wildlings
wif
west,
werde
voiced
ventilation
utmost
unseen
understandable,
twenties,
turtles
turtle
tsp
tradition,
tolerated
timelines
time:
tiles
tighten
threats,
this,"
thermodynamics
theorists
that,"
tensions
temperatures,
talent,
takeover
swer
supremacy
superhuman
supercontinent
succession
subs,
student's
strips
stripping
stretches
straightened
stormed
stool
stern
stellar
standing,
stacks
spans
sofa
socio-economic
sigh,
shooters
shenanigans
shattering
sexes
semester,
semantic
selfless
scratch,
scoring
scarf
scammed
sauces
sage
sacrifice,
runners
runaway
rumours
rockets
roaring
roared
roaming
rn
rightly
rifle,
reversing
republican,
replacements
repeat,
reopening
renter
reliability
reinforces
recharge
received,
rationale
randomness
rammed
r/
pursued
pure,
psychopath,
proven,
prosecutors
propping
prophet
profiles
processes,
pro-choice,
predictors
preconceived
pouvoir
pounds,
podcast,
plutôt
plurality
pleasure,
pins
persona
parents’
paragraph,
paperwork,
pH
oxygen,
outskirts
outdoors
out..
ot
orientation,
orbital
optics
opened,
onions
one-off
not),
nostalgia
nochmal
nobody's
neighbor,
naughty
narrowly
nanoprobe
mythical
mutant
mot
mosquitos
morbid
mockery
mitigated
minimum,
might've
middle-aged
mein
me,”
mat
mashed
marble
manic
lower,
logistic
limits,
labour,
jews
jets
jealous,
jacked
isolation,
intestinal
integrating
institutions,
insistence
injustice
incentivized
incel
implant
ideal,
hysterical
hotline
homeowners
him;
high-level
hellish
heartbreaking
healthiest
haven't,
have..
hats
hastily
handouts
hallway,
goose
gears
gazed
gate,
funnel
functionally
fulfillment
frustration,
fracking
fours
fluff
flavour
fer
fascist,
fascism,
farm,
fairness,
factory,
exercises,
exercised
exemptions
excruciating
ethnicity
erste
erosion
equilibrium
epilepsy
enrollment
endangered
empowering
embargo
eleven
el
eigene
economy"
eagerly
début
duty,
drought
dressed,
downloading
doubtful
domination
dish,
discovered,
disagreements
disadvantaged
diminishing
diluted
diamonds
di
detailing
describe,
dependant
demon,
democrat,
delivery,
deeply,
decide,
day"
datasets
dank
cystic
curly
crux
crisp
cripple
crank
countryside
corroborate
corridor
corp
copyrighted
cooperating
convolutional
convictions
consecutive
cone
condemning
components,
competitor
com
column
colorful
collectors
clutched
clears
classifier
civilisation
circumference
circadian
chrome
chem
charming
charity,
characterize
cc
cascade
carriage
businessman
brows
broadcasting
breastfed
branch,
blinking
blender
blades
bird,
bikini
beneficiary
bench,
beef,
bedtime
be)
babysitter
auditory
audit
astounding
arrows
ar
animation
allowance
alignment
agreed,
against,
afforded
acoustic
accidently
[link
[No
[E
[CA]
Ye
Xanax
Won't
Witch
Why,
Welp,
We,
WWI
Vision
Visa
Understand
Trump-
Trudeau
Trial
Trees
Tomorrow
Tina
Sue
Stick
Stand
Silence
Self-
Saturday,
SURE
Roundup
Rica
Raven
Push
Pure
Protection
Practice
Posting
Pop
Parliament
Pakistani
PP
OK.
Netflix,
Neighbor
Navy,
Nate
Murder
Mega
Mc
Maryland
Luther
Logic
Libertarianism
Level
LORD,
Jr
Jonah
Independent
Idk,
IRL
IC
Homer
Hobbit
Heck
HRC
HIV,
HBO
Gut
Godard
Funny,
Freys
Francis
Forest
Finn
Fighting
February,
Facts
FA
Extra
Edgy
Economy
EMOTION
E-
Discovery
Development
DI
DDoS
Columbus
Clause
Chronic
Cars
Canadian,
Calvin
Building
Bra
Bills
Bernard
Bark
Bai
BM
Alien
94
92
9.
9%
85%
79
70s,
70,000
59
365
3.3
3.0
220
2009,
2.1
1900
18%
1400
115
0.6
-A
*they*
*so*
**EDIT
**2
(under
(is
(along
(Also,
(30
&gt;An
&gt;After
%2Fr%2F
"problem"
"official"
"dumb"
"Would
"Tell
"Some
"P
"Man
"First
"At
##](http://en.wikipedia.org/wiki/
##TING
##RO
##PR
##OM
##M]
##It
##Fi
##FUL
##EE
##DI
##American
##AP
##AM
##?id
##?context
##7-
##/not
##/month
##/?utm\usource
##-man
##-O
##zz
##whatever
##was
##virus
##unk
##t”
##term
##sta
##source
##self
##sch
##ry,
##rom
##rich
##rch
##rance
##pping
##pes
##ource
##ould
##ody
##news/
##mine
##lot
##lon
##ild
##i/
##hop
##fit
##fication
##fall
##ele
##driven
##dan
##ctive
##count
##coronavirus-
##cket
##ching
##ban
##ater
##ars
##amp;
“me
“go
“To
“She
“O
“Go
zipper
x-ray
work)
words:
wike
widow
whore
waiver
wahrscheinlich
vulnerability
volumes
voicemail
vigilant
viewpoints
vibrant
verifying
usa
up”
unsuccessful
unprofessional
unemployed,
uncover
uncontrolled
un-
triage
trend,
treaties
transports
transitioned
trailer,
tissue,
time;
tidal
tickets,
things)
thermo
theirs,
tame
tacos
tackling
swipe
surrounds
sunshine
summers
standpoint,
stainless
squinted
squats
spouses
spiked
spices
specialize
soviet
soothing
someplace
sociological
smirk
smearing
slut,
skinned
sinks
sings
silk
shat
seeping
sect
scumbag
script,
scenarios,
scalp
savage
sandwich,
salon
rushes
runes
rumble
rivalry
revolutionize
resembled
requirements,
repressed
relocate
relegated
reassured
rainbow
radicalized
quotas
quoi
quiz
quelque
pup
psychiatrist,
provincial
prostitution
progressing
programme
profoundly
pro-choice
primate
president’s
preexisting
predictor
possession,
positioned
pools
polished
poked
podium
pitfalls
perceiving
pedestrians
patently
passively
pandering
painkillers
package,
owing
over"
os
ordeal
oppression,
on"
omg
offshore
odor
noticeably
nope
neoliberalism
necklace
necessarily,
nationals
myself)
muttered,
motivating
motivates
moons
monk
mod,
microdosing
men’s
measures,
masturbated
market"
mansion
malignant
lords
loosen
login
locations,
lobbyist
lived,
literature,
lineage
likes,
lightsaber
legislate
lange
landslide
killing,
karma,
janitor
invariably
introductory
intends
instagram
incite
incentivize
in..
implants
impartial
hydrocarbon
hormones,
hoops
honour
highs
high-
helm
hearings
heal,
haven
handicapped
groceries,
gibt,
genomes
gay"
funeral,
fridge,
frail
forwarded
forgiveness,
foreplay
foremost
follower
follicles
fleets
flaming
fiancée
fetched
fence,
feather
farms,
farmland
familiar,
extraterrestrial
externalities
expenditure
exemption
exclaimed
exceeding
etwas
estimating
enriched
endured
endgame
encompasses
emptiness
empowered
emoji
emailing
elevate
electrochemical
eigenen
eerie
editorial
east,
dwarves
dunk
drop,
doubles
doctor’s
discrepancy
discovery,
diagram
detain
descend
derivatives
depressing,
depended
deliveries
decipher
decent,
darauf
cutoff
cusp
curved
cults
cue
crab
corpus
conveying
contributors
continues,
construed
constant,
considered,
concrete,
compromises
completion
commodities
colonization
clouds,
cleansing
city's
circuits
circles,
cigar
cholesterol,
chi
cheaply
cartoons
cartel
carrot
carpet,
caravan
bruised
brow
brightness
briefed
bride
boxes,
boulot
boo
bolts
blindness
bite,
bis
biotech
better"
betraying
besides,
benign
begs
bars,
bard
bankers
bacterium
awkwardness
austerity
artillery
arena
appointment,
applicants
apnea
anyone’s
antidepressant
anti-war
amusement
am"
ally,
advertisement
advanced,
addict,
acidic
X-ray
Wes
Weinstein
Wa
Volume
Vladimir
Typical
Turned
Turks
Treatment
Treat
Thunder
Thoughts
Text
TM
THING
TAKE
Squidward
Square
Sports
Somewhere
Smart
Siri
SUCH
STI
SHIT
SAT
Ring
Rape
RNC
Presidents
Powers
Post-
Port
Playing
Phoenix
Particularly
PRC
PCP
Nurses
Norway,
Muslims,
Movies
Menge
May,
Marriage
Maoist
MMA
MIT
Lucas
Lock
Listen,
Lifehacking
Lead
Latino
LPT
LET
Kobe
Kawhi
Katie
Juno
Juden
Japan's
James,
Instagram,
Immigration
Huh,
Highly
Hahaha,
Hah,
Growth
Greece,
Genetic
Folks
Fo
False
Fallout
FPS
Excellent
Eight
ERROR
Del
DAY
Cuba,
Craigslist
Cowboys
Council,
Couldn’t
Cersei
Celsius
Bull
Brothers
Blade
Bi
Bernies
Below
Baron
Barney
Bacon
BLM
Aw
Au
Anita
Anderson
Allen
Aliens
Acting
;)
8.
63
6.5
54
3.7
25,000
*this*
*R
**STEWART:**
**How
(still
(less
(do
(You
(Which
(Sorry
(4
(**)
'oh
'good
&gt;nigger
&gt;Or
&gt;According
&amp;nbsp;
"war"
"true
"stop
"only
"high
"did
"black"
"Take
"Star
"Great
##\uS
##\u1
##So
##S)
##R,
##PE
##OO
##NE
##IP
##HT
##Ba
##94
##73
##68
##200
##11
##/or
##/N
##/M
##/C
##/10
##.edu/
##.and
##.a
##..)
##-y
##-only
##-off
##-esque
##-12
##')
##&amp;message
##"*
##yard
##woman
##wise
##wiki/
##ush
##ually
##to\u
##there
##ssing
##s://www.
##rie
##rent
##ration
##rage
##r.
##ppy
##pp
##pack
##org
##olo
##nia
##ng"
##minded
##mble
##m/
##logist
##lings
##late
##lab
##ity"
##ird
##ining
##ing/
##ing'
##imate
##ift
##ified
##human
##hard
##gie
##eating
##cid
##bus
##bt
##bel
##because
##b/
##ara
##ami
##action
##able"
##a's
“why
“is
“hey
“*
years"
wrongfully
whims
wheel,
whatever)
wedge
voted,
volatility
visa,
verifiable
veggie
vanish
usefulness
upright
up:
untill
unprotected
unplug
unforeseen
uncle's
uh..
uh
tutorial
tutor
tribute
trails
tiniest
thugs
three-
themself
tedious
teaspoon
tandem
tails
switch,
surtout
surprising,
suggests,
suburb
study's
stroke,
stringent
straws
stolen,
stick,
stalls
sped
spared
soldier,
softer
société
sociopaths
smoker,
slurs
slaughtered
slab
simplicity
shootings,
shit-
shells
shadowy
sever
sequestered
seperate
self-fulfilling
self-defense
segments
secluded
seasons,
scrolled
scripts
screwdriver
scholarships
schemes
scanner
savvy
salaried
s'est
rustling
rudimentary
rounding
roster
revival
revert
returned,
responders
respectable
repression
replay
relaxation
reiterate
reborn
realm,
reach,
rain,
railroad
quickest
purchase,
pupils
punishes
pseudoscience
provinces
produced,
problem"
primal
preventive
preschool
poster,
portrays
porte
pornhub
pop,
pondered
polish
pint
pierce
persecution
perception,
people”
pedo
payday
patron
pasted
party’s
parted
parse
painter
overworked
overload
operative
operation,
omniscient,
obtuse
networking
nerds
neo
nanny
museums,
mourning
mounting
motion,
moron,
molested
modifying
mixes
mistaking
mining,
meltdown
medications,
medal
mc
materially
manuscript
mantle
machen
lotion
loses,
livelihood
life..
life)
libido
lesson,
lender
latent
kings,
jizz
jerks
jeopardize
jelly
is),
iron,
invoking
interviews,
insurmountable
inhabited
infringe
infested
industries,
industrialized
indulge
increased,
incomprehensible
incoherent
incest
inappropriately
impulses
importing
implanted
if"
ideals,
icing
hätte
hypo
homosexuals
holiday,
high-end
hetero
hesitation
here;
heavily,
hazardous
hay
hangout
growl
gripe
grieve
grey,
graveyard
gratitude
grasped
grandparent
governor,
goth
goin
giv
gar
furnace
fundamentals
functionality
frontier
frequencies
freeing
fracture
founder
forwards
formula,
flourish
flimsy
flickered
fleet,
flap
fishy
fibers
fetch
facebook,
extremist
expedition
executor
exceptions,
exacerbate
ethereal
erased
eradicated
environments,
enthusiast
energetic
encountering
employing
eliminates
elders
edits
eco
eagle
e-cigarettes
ducked
dormant
dogma
doggy
disputes
discard
disbelief
disapproval
disappear,
dimension's
dev
depth,
denial,
delve
debunk
de-
dawned
cushion
cursory
currents
cuddling
crony
crock
crispy
creative,
crater
cramps
courses,
counters
cosmological
coordination
convoluted
convo
connections,
conflate
condensed
computation
colossal
coded
clusters
churches,
christmas
chord
carbon,
caption
candidacy
bye
butcher
busting
burner
buff
brownie
bros
broccoli
brim
brainwashing
blogs
billed
bickering
biblical
basketball,
based,
banged
bandaid
balls,
backlog
avoidable
avengers
ave
attacker
assume,
asserting
aspirin
article's
armored
arch
anus
anecdote,
amend
altruistic
altitude
allergies,
afterlife,
adorable
acknowledges
accusers
accrue
accord
accessibility
absolve
about..
abort
[in
[[Imgur
[He
Yellow
Worse
Wilson
Williams
WiFi
Week
Wanna
Wage
WWE
WW2,
Vatican
VX7
VX-
VI
User
US-
Tweet
Times,
TNG,
TIFU,
Strikes
Straight
Stanley
Speed
Spartans
Southeast
Sol
Series
Sciences
SUPER
Russell
Romans,
Roe
Roberts
Rep
Regierung
Rec
Putin's
Pulp
Propaganda
Prison
Press,
Poly
Places
Pit
Personality
Parks
Ouija
Order,
Or..
OWN
Nu
Moore
Moderate
Micro
Metro
Med
Matthew
Malcolm
MN
MMR
Line
Lenin's
Kyle
Kurdish
Ken
Katrina
Jessica
Hurricane
Hitler,
Hence,
Hair
HP
GR
GE
Fu
Felt
Fauci,
Failure
Egg
EXACTLY
EP
ELI5
Dunno
Doc
Demand
Date
DB
Cuz
Criterion
Cour
Color
Claims
Civ
Century
Catholic,
Cas9
Carol
Capitalism,
Cal
COVID,
CDC,
Bundestagswahl
Brit
Brazil,
Belgium
BUG
Aussie
Army,
Angela
Alternative
Airbnb
Absolutely,
9/11,
8.5
8)
60,
55%
5'10"
4:30
2016.
2.3
1990
12%
10000
1-1
0.4
*”
*we
*must*
*much*
*most*
*S
*183
**In
**1
*"I've
(x
(plus
(myself
(around
'what
&gt;“I
&gt;so
&gt;[[Attached
&gt;[The
&gt;Well,
&gt;I'll
&gt;Also
&gt;(
"under
"something
"really
"co
"back
"Who's
"O
"Nothing
"M
"Da
"Black
"Aquiri"
##](https://i.imgur.com/
##](
##UN
##Ta
##SH
##Rs
##Or
##NI
##M,
##IL
##DO
##Bot
##BI
##B,
##An
##AI
##A-
##800
##7/
##52
##3-
##2%
##/year
##/p
##/day
##/comments/1
##/G
##/F
##/E
##.org
##..a
##-do
##-c
##-B
##-7
##)"
##(the
##(or
##&amp;s
##&amp;amp;
##!’
##—but
##ا
##zard
##youtu.be/
##yi
##wy
##wood
##wd
##vity
##verse
##valent
##ull
##ulation
##té
##two
##tv
##then
##ter,
##t'
##sia
##sha
##sexual
##ru
##rock
##rg
##rf
##ret
##rce
##peak
##oral
##ono
##oa
##o)
##ns,
##night
##nies
##nde
##nc
##mit
##member
##media
##market
##m-
##lung
##lter
##ll-
##lish
##lines
##less,
##kt
##ix
##itch
##ing\u
##ine,
##ict
##high
##h/
##grade
##gg
##gas
##game
##force
##food
##father
##ette
##ett
##erson
##ed”
##ection
##cro
##cond
##chu
##cht
##cher
##ch,
##ce,
##bound
##bal
##ature
##ari
##ages
##aaa
“you’re
“un
“e
“be
“He’s
“Good
“Get
‘s
πr
wraith
worsen
working-class
windshield
winded
wil
wiggle
whistleblower
whack
well)
web,
washes
was:
wartime
walmart
visceral
vines
vine
vibrate
venting
vacations
uses,
upvoting
unregulated
unfairly
undue
unbearable
trolling,
tre
transporters
trailers
trading,
totals
things..
thieves
them,"
teased
tbh,
tangent
switches
suspicions
supplements,
supplementation
supercomputer
suffer,
suction
subtract
subreddits,
stutter
studied,
stressors
strategically
strap
strangest
strands
strand
strained
stoked
stirring
steaming
stalked
stale
staffing
sr\u1\u1?ie
spreadsheet
spamming
sorting
sorry"
something's
societies,
socialistic
sobriety
slur
slices
slew
skeptic,
skeletal
simple:
sights
side"
sickening
shuffled
showerthoughts
shareholder
sexual,
sex"
severed
servings
sergeant
sense"
see..
seas
scythe
scouts
scholars
scariest
scammer
savior
saved,
satire,
sap
saddest
rodents
riders
rhyme
revolve
retract
reporting,
reporter,
reliance
refuse,
recruitment
recreationally
recess
rebuilding
rallying
rags
raced
quarantines
punk,
punishments
pry
professor,
probably,
privatized
prenatal
ppm
powder,
pots
possessing
portrayal
pondering
polled
pleasantly
planned,
ping
perpetuated
peddling
patented
pas,
partie
part)
paraphrase
pact
p.
overestimate
ovarian
out”
originate
organs,
ordinance
optimized
optimization
operators
one-time
offline
ofc
of:
norm,
non-stop
non-existent
nomination,
noir
neutral,
neuroscience
neurons,
nauseous
mythology
must’ve
mu
movements,
mountain,
motioned
motel
morale
monopolies
mix,
misrepresenting
misplaced
misinformation,
miserably
metres
metaphysical
mens
meine
mechanism,
mature,
manipulative,
lupus
lu
lovers
liquids
lightbulb
life-
left"
könnte
kunt
kitty
kingdoms
jurisdictions
judgements
jolt
jo
introspective
interpersonal
intake,
insinuate
insides
innocence
indica
incur
imprisonment
imp
hyper-
household,
horror,
honorable
histories
hills
hierarchical
heed
heats
heap
halted
habitual
guardians
groping
grid,
grapes
granting
grande
grader
golfing
goddess
girl"
gin
gimmick
giggling
geological
genie
generators
general)
gauntlet
gasses
gap,
gall
gadgets
fused
fructose
frontal
friend"
fri
fragments
formerly
following:
following,
flung
fluffy
float,
flesh,
flavored
filmmaker,
ferrocore
fateful
facet
exiting
excludes
euphoric
euphoria
errors,
erotic
ere
enlisted
emergence
else)
element,
egg,
eerily
ecstasy
earth's
dynasty
dresser
divides
divert
displaced
disdain
discriminatory
disclaimer
disciplinary
disabled,
diner
diligence
diary
dew
devils
detach
desires,
delighted
defective
dealbreaker
dang
côté
crossover
crippled
creditor
crazies
cozy
coworkers,
correlation,
corporation,
cornered
coordinator
coordinating
converse
contractor,
confiscated
conceivable
compass
comparatively
communicate,
commerce
cog
coerced
coast,
closely,
clear:
clawing
citizenship,
choix
chocolate,
chinos
castle,
cashed
cartridges
capitalists,
candy,
camps,
burial
bugging
broaden
bridge,
branded
bone,
bloc
bipartisan,
biologist
best"
beads
beaches,
barn
bandwidth
band's
bad;
avalanche
auto-
astronomical
assembled
ascended
asbestos
are)
apprentice
appreciates
antivax
antigens
annoyance
almonds
ag
afloat
afford,
actors,
actionable
aching
ache
accepted,
[here's
[an
[We
[Read
[D]
[And
Yu
Yesterday,
YES,
Westeros
Wade
Vienna
Vaccines
VX2
Understanding
Throwaway
Switch
Swastika
Sun,
Stalin,
Spent
Speak
Spanish,
Solidarity
Sinclair
Sin
Sim
Shortly
Sherlock
Seattle,
Scotland,
Sara
Replace
Rem
Psychedelic
Ps
Po
Pennsylvania,
Papa
Panic
Palm
PG
PA,
Opening
Norse
Noam
No..
Newton
Newsom
NH
Monster
Mom's
Massive
Martin's
Manuscript
Machines
MO
Liberty
Kugelsack
KY
Joe,
Italians
Important
IX
Hipsters
Hillary's
Hands
HERE
Giant
Gave
GW
GOING
Force,
Fish
Fidel
Fiction
FACT
Evers
Ethereum
Ethan
Essential
Employees
Emotional
Elections
EVEN
ESA
Dolphins
Divorce
Daten
Damon
Dad,
Crisis
Crew
Creation
Correlation
Contract
Close
Civilization
Chemical
Cheers
Chavez
Bus
Brits
Bitcoins
Birx
Benghazi
BTW,
BOTH
BIG
Avoid
Allowing
Allow
Ali
Alberta
Africans
Adults
Addiction
Ad
Above
ALP
ACA,
?”
:/
96
91
88
86
7.5
5-7
45%
30th
30s,
300k
2400
2002
2000s,
1993
12-
...
*also*
**to
**in
**S
(https://www.youtube.com/watch?v
(bo
(basically
(again,
(To
(It's
&gt;Just
&gt;&gt;&gt;
#3
"white"
"they"
"state
"soul"
"singularity"
"holy
"de
"Will
"Sorry
"Never
"N
"God"
"Al
"A"
"1
##](https://s
##](https://en.wikipedia.org/wiki/S
##](http://i.imgur.com/
##\uof\uthe\u
##War
##Un
##T-
##RY
##RD
##LI
##F]
##FT
##De
##Da
##Bo
##BLE
##As
##Al
##96
##4.
##/pro
##/o
##/e
##/?
##.6
##.0
##-time
##-the-
##-the
##-pro
##-by-
##(https://
##‘
##you\u
##xx
##x)
##wu
##will
##when
##w-
##w)
##uter
##uses
##up,
##t’s
##th,
##ssa
##sor
##sex
##see
##search
##school
##ronic
##real
##rds
##rc
##ray
##pie
##phone
##ower
##oss
##os,
##oot
##only
##oint
##och
##o's
##nta
##ngle
##news
##ndi
##mmer
##matic
##mar
##making
##los
##jan
##it,
##ior
##ii
##hp
##he\u
##gov/
##good
##eration
##ency
##ema
##elf
##el,
##ees
##dly
##de,
##cut
##bu
##boy
##bout
##born
##ble,
##band
##ats
##ators
##ask
##as-
##aro
##ark
##aly
##ality
##ading
##acy
“so
“s
“and
“Yeah
“S
“Ha
“Fuck
“For
’
न
économie
wrong..
wretched
wrapper
workplaces
wiser
widened
who’ve
wholesale
weakening
wasp
wallets
vouch
veulent
vengeance
veggies,
vault
uterus
urgency
unknowns
units,
uniform,
unequal
understandably
unaffected
ultimately,
traitors
trait,
tokens
tightened
ticking
throats
thriving
thinks,
thing)
there'll
that?”
territorial
tempo
teaching,
taught,
tattered
taps
tapes
tanked
swiped
surveyed
surpassed
suggested,
subsequence
subscribers
study:
staunch
stature
stateless
stability,
ss
sprinting
spree
spores
spectacular
sorts,
something)
solvent
soll
solidify
solace
socialization
snort
sneakers
smoothly
smog
smears
smeared
smacked
slime
siren
simulation"
sighted
sidebar,
sickly
shrimp
shocks
shi
shaken
shadow,
settles
settings,
sentences,
self-reported
self-proclaimed
seems,
sector,
seafood
scramble
school"
scholarly
saturation
same"
romantically,
roman
river,
riddled
revolving
revisit
revenues
returns,
retrospect,
restrictions,
resonated
reroute
replicators
replacement,
remission
reincarnated
reimburse
regime,
refunded
reform,
redistribute
recover,
recommends
ramping
raised,
rabies
ra
quota
quelques
qualification
puzzled
pundits
psychedelic,
protector
prolong
proliferation
projectile
prohibits
probability,
pro-Trump
prioritizing
presentation,
premise,
prefect
poorly,
polymer
pointers
plus,
picket
phone's
philosophers
personne
perplexed
perpetrators
periods,
perfectly,
percent,
pensions
passer
partition
parenthood
paleo
padded
overpopulation
ov
outlines
outlaw
organise
organisations
orbit,
orally
on)
omitted
oatmeal
nudge
nsfw
nowadays,
now:
novice
nouveau
noses
non-human
nominal
nigga
neutrino
neuro
neatly
navy,
naive,
mustache
morphine
monumental
monstrous
moist
misogynistic
misconceptions
miraculously
miniscule
mindset,
microplastics
marketing,
mar
mantra
man,"
majors
mages
loser,
liquid,
legally,
leeway
lash
l'époque
l'article
kidnap
justifiable
justices
jug
judgement,
jesus
jab
iteration
intrinsically
intestines
intended,
integer
instill
inhuman
ingested
inflict
independence,
increases,
implicated
immigrate
illiterate
idiocy
humiliating
hubby
homophobic,
hominem
homeowner
hobbyist
him..
heroes,
her"
headquarters
haze
hazards
happy"
haben,
guidelines,
gruesome
grouped
grotesque
gif
gewissen
genocide,
gems
gaslight
furiously
frustrated,
fro
forecast
followed,
fo
flared
finishes
finalized
fears,
fascination
fascinating,
fairness
eyebrow
extracting
exterminate
expresses
exes
executing
exchanging
eve
evade
ethics,
etched
eruption
ersten
envision
entries
entities,
enthusiasts
endocrine
enacting
eldest
drinker
dramatic,
doubted
double-
donut
domains
doit
dizzy
dissolution
disputed
discussed,
disapprove
dilute
diffuse
didn’t,
diapers
devote
destiny
despicable
desks
deputy
delight
deli
defeated,
deeds
day)
dabs
curl
cult,
cruel,
credence
counterproductive
counterparts
councils
corrections
converge
construct,
considerations
confronting
concludes
compression
compress
compiled
commuting
comma
coli
cock,
clients,
classless
chipped
childbirth
cheek,
checkout
charismatic
chaos,
ceremonial
carcinogenic
campaigns,
cameras,
calf
byproducts
buckle
btw,
brewing
brat
bowel
booty
bootloader
booted
bonded
bomb,
blurred
bloodline
blockade
biomass
bible,
beginners
beginner,
backpack,
backbone
back"
autres
augment
auction
attorney's
assholes,
aspire
arthritis
appreciative
appointments,
applications,
anti-capitalist,
ans
ankles
angle,
ammonia
aloud
alliances
alcoholism
aerosol
advisers
actual,
acknowledgement
accompanying
abdominal
[like
[2
Y’all
Younger
YEARS
Y,
Xiao
X-
Wi
Wanting
Walt
Voynich
Voters
Voted
View
Ugh,
Ugh
USE
Tonight
Todd
Today's
Throwing
Theyre
Teacher
Taylor
Talk:
Takes
TSLA
TE
Snapchat
Skype
Shop
Shia
Shepherd
Shape
Sha
September,
Sense
Search
Schools
Sansa
Sand
SBA
SAY
Roy
Rings
Recht
Raising
Rain
RT
Pulling
Prof
Prague
Paper
PH
PDF
Oz
Ork
Olympic
Nice,
Nevertheless,
NN
NIH
Mont
Missing
Miller
Looked
Life"
Lenin,
LITERALLY
Kosten
Jupiter
Jesus'
It’d
Ist
Introduction
Interestingly
Impeachment
Illinois,
Hydro
Hound
Holding
Hampshire
HARD
Gravity
Governments
Gloria
Germany's
Gar
Galactic
Fresh
Finnish
FIL
Everyday
Evan
Enterprise's
Employee
Eisenhower
Egypt,
Diamond
Design
Dakota
DL
Curious
Correct,
Conversely,
Conspiracy
Conference
Command
Cheese
CP
COMPUTER
CA,
Buying
Brief
Blasio
Bat
Band
BPA
BB
Azariel
Atheist
Apartment
Antonio
Advice
Acid
Abuse
8:
7:30
71
7000
60k
60's
5G
50-100
2d
23%
22nd
2007,
2006,
2003
1st,
1996
1970s
175
14%
12.
103
0.7
/r/The\uDonald
-B
*all
*Star
*No
**re
(per
(non-
(mainly
(can
(L
(I'd
(De
(9
(7
're
'pro
'What
&gt;be
&gt;President
&gt;Hungarian
"time
"thank
"of
"me
"left"
"in"
"ghost"
"feminism"
"come
"cognitive
"Well,"
"Time
"Pro
"OK,
"Mom,
"Le
"Hi
"B
##U)
##Re
##OW
##OC
##No
##HO
##HE
##FA
##BC
##://www.youtube.com/watch?v
##5.
##/an
##/T
##/H
##/4
##.8
##-no
##-d
##-be
##-K
##(and
##%3A
##—that
##е
##x/
##wp
##weight
##uri
##uous
##ume
##uer
##turn
##tten
##ts,
##trump-
##tors
##tax
##tat
##st-
##son,
##ros
##rise
##rain
##pu
##proof
##press
##p"
##oro
##nti
##nse
##nging
##nation
##nant
##mann
##mand
##less"
##l\u
##known
##kk
##k\u
##it-
##ism"
##ish,
##iled
##host
##hate
##has
##graphic
##got
##f1
##e”
##exual
##es\u
##eon
##en-
##eli
##eer
##ed)
##e:
##door
##city
##cious
##chi
##cb
##bert
##b)
##ays
##ams
##aging
“they
“Did
“Because
“Be
yu
workplace,
wonderfully
withdrawn
willy
wielding
who'll
whatabout
weirded
weighs
way..
warms
warfare,
wards
wardrobe
war"
waist,
visible,
vibration
updating
unpack
unintentional
ungrateful
uneven
underpaid
underestimated
unbedingt
um,
turnover
turbines
trusted,
trespass
trapping
translator
trainer,
topical
tip:
tic
threads,
thr
thickness
theatrical
testicles
terror,
temples
tarp
tampons
tally
tab,
suspiciously
survival,
surrendered
surf
supervisors
superiors
sued,
stuck,
strewn
stops,
stomped
stance,
staircase
squirrel
sq
spooky
spaced
space-time
soulmate
songwriting
society's
snail
smelt
smelly
smacking
skunk
singles
silicone
shuddered
shorten
shockingly
shipment
sequester
self-
sehen
secrecy
seals
scraped
sci
scholar
salute
salsa
safer,
rumbling
ridden
ribs
revoked
reste
resorted
reservoir
rescued
replaced,
repealed
repayment
remorse
reminiscent
reinforcing
regulators
regular,
regretting
regained
reformist
recieve
receiver
rapping
rant,
rabbits
rabbi
quell
pulmonary
publisher
pu
psychopaths
prostitute
proponents
privilege,
previously,
preparations
potency
possessive
polluted
poll,
polarizing
played,
platonic
plaque
planes,
pits
piling
petri
pertinent
pep
patriotism
parks,
pander
paints
paintings
painting,
pages,
paddle
owned,
overthrown
oversized
outliers
outlandish
organised
opposition,
oncoming
ominous
occured
occasions,
obsessive
oblivion
numbing
nudity
north,
normally,
noob
non-white
nights,
narcissist,
mysteriously
municipalities
moyen
mountains,
motivation,
moth
mop
monolithic
moan
mitigating
misused
ministers
minding
militarily
menopause
memorize
membership,
medicated
measly
meals,
me.”
maze
masse
marking
marketplace
manifests
manifesto
maneuver
mall,
lunatic
ludicrous
long-lasting
lockdowns
lobster
linked,
lenses
lawyers,
kingdom,
killings
keinen
judgmental
japan
irrational,
intimidated
intercept
interactive
instinctual
insecure,
inhibits
infringing
inflamed
industrialization
inbox
illustrates
illuminated
illnesses,
ignored,
idly
identifiable
https://
housemates
hospital's
horrid
historian,
hilarious,
hew
hemisphere
handwriting
hackers
gulags
guilt,
groundbreaking
greens
grazing
governor's
gloves,
glacial
give,
getting,
gesturing
genocidal
genetics,
gem
gaffes
functioned
fullest
full-
fuck-up
forge
foggy
financed
fibre
fertilizers
fertilized
fermented
feminist,
felon
famously
experiencing,
exited
existent
exhibiting
exclamation
excessively
exception,
evolves
everyones
ethnically
establishes
essentially,
espresso
ergo
equator
equation,
epitome
entertaining,
employs
egalitarian
eaters
durability
dripped
drinkers
doubly
doomsday
do),
dnc
distressed
dissuade
dissent
disciplined
directions,
dialectical
detract
detectors
deportation
deodorant
delusions
delivers
dehydrated
death"
dancing,
damaged,
dafür
crumbs
crews
coups
cottage
coordinates
coop
conveyed
contre
contracts,
constituent
constants
confuses
confrontational
confinement
condom,
compartment
comparative
commercials
combating
collection,
clitoral
circumcision
checkers
ceux
censored
cavity
category,
cast,
carrots
carbon-14
camp,
caliber
cabbage
burrito
built-in
buffoon
brutally
brigading
bouts
bounces
bob
bo
bloodlusted
bloodied
blaring
blankly
benzo
belittle
behaviour,
behaviors,
because..
batshit
baggy
baffling
background:
avatar
automotive
authorization
atypical
attracts
assumptions,
appliances
apologised
ape
anybody,
antisocial
anti-science
annihilate
ange
anecdotally
amplify
amidst
altruism
alters
allocation
all-time
alienating
ale
alarm,
airplanes
agencies,
affairs,
advocacy
administrators
adept
achievements
abyss
absurd,
abject
abdomen
a..
](http://www.
[se
[Ma
[F
[Do
[6
Zidane
XL
Wer
Weird,
Wasn’t
War"
WRONG
Vo
Virginia,
Victor
Ver
VXers
VX1
V,
Unions
Ukrainian
Tokyo
Thema
Thee
Th
Terrible
Tar
TOTALLY
TL;DR.
Switzerland,
Sur
Socialism,
Smoke
Skull
Sitting
Sicilian
Shes
Setting
Seal
SOMETHING
SI
Runner
Rules
Roommate
Robot
Redditor
RC
Professional
Pre
Poverty
Poland,
Plato
Pepper
Pa
POA
PAY
Onion
Odin
October,
Ni
Napoleonic
NI
Mu
Month
Mom,
Miranda
Minor
Marxist-Leninist
M]
MJ
Lu
Lot
Lives
Lie
Legally
Latin,
Koreans
Kar
Judging
Johns
Jennifer
Ireland,
Intercept
Income
Horror
Hoover
Hook
Hebrew
Healthy
Harry,
Harbor
Hans
HRT
HIIT
Guardians
GIVE
GABA
Freeze
Frankly
Fleet
Fine
FREE
FIRST
Expect
Eucharist
Engineer
Employment
Effect
Earth’s
Deutschen
Dance
DC,
D-
Counsel
Cop
Convention
Combine
Cell
Carlin
Bro,
Born
Beijing
Barny
Babies
BPD
BEST
Arts
Arnold
Armenians
Ar
Antarctica
Angel
Alabama,
Ain't
Agriculture
Adventures
Adeline
Adams
Across
Accidentally
:-
84
60,000
51%
5'
3.2
25k
240
2.7
2,500
1980s,
1970
1930s
08
*un
*so
*literally*
*just*
*de
*We
*Puns
*If
(whatever
(see:
(s
(obviously
(many
(let's
(according
(As
'til
'We
&gt;how
&gt;having
&gt;What's
&gt;Our
&gt;O
&gt;Maybe
"win"
"weird"
"vi
"trans
"pre
"person"
"or
"normal
"non-
"love
"hot
"hard
"conspiracy
"both
"Very
"Sa
"On
"No,"
"Here
"C
"But..
"But,
##\uD
##Y)
##VI
##UR
##TER
##S.
##Pa
##PP
##NY
##MO
##Lo
##KH
##How
##HR
##Fa
##FF
##EC
##:*
##0.
##/in
##/?context
##/2
##.i
##.html),
##.htm)
##..that
##-year-old
##-induced
##-ha
##-down
##-V
##--and
##'a
##zt
##zone
##yu
##yes
##ybe
##y'
##women
##well,
##w\u
##uz
##urt
##uni
##tling
##tion,
##through
##tag
##set
##s://www.youtube.com/watch?v
##s**
##ront
##reen
##reddit
##ra,
##r*
##pop
##p\u
##or"
##oll
##oad
##ntly
##nel
##mc
##mbo
##lli
##isi
##ira
##inal
##in-the-
##hu
##hic
##headed
##had
##for-
##fen
##eye
##eu
##eight
##eep
##e.
##dle
##creen
##cracy
##ce-
##by-
##blue
##ates
##asi
##ar-
##aps
##ao
##ander
##amazon.com/
##ag
##after
##afe
“don’t
“an
“Our
“One
élèves
zeta
yelling,
yeah..
wronged
worsened
whereby
well-established
weightlifting
weakly
wank
wacky,
volcanic
vivo
virgins
vid
vicinity
vessel,
vents
veganism
uptick
up-
unspoken
uninteresting
unimportant
unify
u.
tweet,
tuck
truc
trick,
treason
transient
trans-continental
toute
tour,
totem
total,
torture,
torpedo
to:
ticks
thumb,
thinker
thee,
tendrils
temperament
telescopes
teddy
technique,
tape,
tail,
sweat,
suppression,
supplying
supernova
sulfur
su
strokes
strawberries
stoop
stickers
statues
stations,
starring
starch
squid
sprung
sores
soap,
slimmer
slicing
sitcom
signalling
sidewalk,
shunned
shiver
shield,
sheltered
sharply
sera
sentimental
selfie
scripture
scoffed
sativa
sane,
sanding
sail
rugged
rubbish
rollercoaster
roles,
right-
rift
riches
rhymes
rewriting
retiring
reservations
republicans,
reproducing
reproduce,
relative,
refugees,
refit
reevaluate
recovery,
reconstruction
realisation
rattled
rational,
ratified
ranch
ramped
raison
rails
question..
quarantining
quadrant
python
pubic
pubes
psychiatrists
protons
proteins,
prospects
propagate
primates
pride,
prepping
powering
popularized
poet
ploy
plentiful
plagued
pillar
pesky
pervert
persuaded
personhood
persists
persecuted
perpetually
perceives
pepperoni
people;
penguin
payouts
paying,
payers
paternal
parroting
paradise
oxidation
overthink
overtake
overreaction
overflow
overarching
outrun
outnumber
organism,
ore
orb
opponent,
onus
one-way
on-
omega
ny
nurture
number"
now-
not*
non-s
noisy
net,
nerd,
neighbor’s
nearing
navigation
navigating
nation’s
nap,
muscles,
multinational
multi-
movie"
moves,
mornings
moonlight
mods,
moderate,
modding
misnomer
mint
metals,
melodic
melanoma
meditated
mediate
mechanics,
meanwhile,
me?”
may,
mathematician,
martyr
manly
manière
mandates
majorly
m'a
lymph
lui
love"
lounge
lore
lookout
logging
life’s
lesbian,
legislators
lapse
l'a
kiss,
jagged
invites
inventor
intra
intervention,
interim
insta
insight,
injections
inhabit
ingrown
infringement
informs
informed,
infects
indictment
indications
incubation
incorporating
improperly
impossibly
impart
idée
iconic
huddled
housemate
housed
host,
holdings
hitch
hijacked
high-quality
here,"
heights
hearted
heartbroken
healer
hashtag
growled
grips
greek
gravitate
grandma's
grammatically
grains,
google,
ginger
gi
geometry,
gentlemen
gene,
gauche
gardens
gallbladder
furrowed
full-blown
friday
fractured
forgotten,
footnote
folk,
fok
flicked
firm,
filter,
fiction,
fetuses
ferry
feast
fax
fanbase
famous,
familiarity
facets
extort
extensions
exporter
exported
exploits
expectations,
exhibited
ex-husband
established,
essential,
ensured
enlighten
engineers,
enfants
energies
endings
encrypted
emphasized
emo,
emerges
elevation
easement
e-
drummer
driveway,
drivers,
drenched
doses,
dm
divorced,
diversity,
diversion
distilled
distancing,
disproven
dispatch
dislikes
discuss,
discounting
discounted
dilemma
dieting
dickhead
dialects
detectable
desire,
deserted
dependency
dense,
democratic,
degraded
deficient
deduce
decline,
dealings
deadlifts
daring
dares
cyclist
cus
culmination
cubes
cramped
coz
cou
cooks
controllers
controller,
controlled,
control"
contention
connectivity
congress,
confines
conducive
conclusions,
conceived
compounded
complicate
commend
comical
coffin
clo
climax
clever,
clapping
clan
choses
chilled
characterization
chamber,
chairman
chained
catheter
cartels
captures
cape
cage,
cache
bu
broad,
brew
breakup,
brace
boy's
bought,
boss's
borg
boiler
blindsided
blind,
blade,
bitcoins,
billionaires,
bile
benadryl
ben
bellowed
barring
barks
ballots,
back..
baby’s
aviation
averaging
automation,
author&amp;query
attraction,
attic
atoms,
assortment
assigning
aspect,
ask:
arguing,
aquatic
antithesis
anthem
android
analyst
amd
alcoholics
aides
affidavit
admissions
abstain
[SP]
[Li
[La
[L
[Donate
[De
[1
Yorkers
World,
Wire
Walker
Wal
Von
Unknown
Um
UNDERSTAND
Tri
Tra
Tiffany
Theorem
Task
Tardigrade
Ta
Surprisingly,
Subreddit
Strom
Strategic
Stir
Spread
Sigma
Shit,
Shi
Sapiens
Sales
SOL
Row
Renly
Reinforcement
Regular
Raid
RD
Quote
Q,
Protein
Primary
Previous
Pregnancy
Population
Plague
Philosophy
Philip
Philadelphia
Pepsi
Partei
Pam
PIV
Orks
Occasionally
OTC
OSHA
Numbers
Norwegian
Noah
Nissan
Nicholas
Naturally
Nader
NV
NTA,
NE
Moses
Minutemen
Meet
Medicare,
Malta
Maine
MEAN
M8
Lebowski
Lakes
Kurds
Kudos
Klobuchar
Killer
Kendrick's
Kemp
Kaioken
K-
Joke
Increased
IWW
IT'S
ICO
He’ll
Hardly
HR,
Guam
Gross
Francisco,
Feedback
Father,
Fate
FUD
Elder
ENJOY
Duane
Douglas
Diktatur
Denver
Dante
Daniels
Daffy
DF
Cyber
Cox
Context
Clinical
Chain
Catalonia
Castle
COL
Budapest
Browns
Broken
Bresson
Bravo
Boomer
BitPay
Belt
Bc
BIOS
Awesome
Austria
Argentina
Apocalypse
Anytime
Anyhow,
Answer:
Anne
Alexa
Abraham
Aaron
AMA,
AKA
AFAIK
ACLU
A:
61
5:30
58
28th
2030
2011,
20's,
2.6
1800s
13:
13%
1100
11.
10:
1080p
100s
04
*e
*and
*actual*
(yes
(pro
(insert
(hopefully)
(high
(We
(V
(U
(Co
(21
'How
&gt;she
&gt;because
&gt;Should
#4
####
"su
"shut
"im
"hard"
"game"
"conspiracy"
"car
"Pi
"Okay
"Its
"(
##](https://www.s
##\uin\u
##UM
##TV
##T)
##SC
##S-
##Ra
##OUS
##Not
##NO
##NC
##Ma
##If
##IR
##I)
##GI
##Es
##E,
##CT
##Be
##BE
##And
##A.
##8&amp;
##600
##2s
##/B
##.c
##..we
##-on-
##-o
##-me
##-in-the-
##-class
##-20
##%3D
##….
##ə
##yy
##yal
##x-
##wl
##why
##who
##volution
##vir
##under
##umb
##uge
##uble
##twitter.com/
##town
##specific
##social
##shit
##s*,
##rst
##pay
##pad
##oth
##osis
##oronavirus-
##oriented
##oom
##oke
##non
##nit
##nin
##nda
##mor
##mond
##md
##lace
##k/
##ither
##ing)
##ines
##inc
##ification
##hill
##gn
##gers
##gender
##fs
##flu
##file
##ffer
##ept
##ela
##eit
##eda
##early
##eak
##dies
##dic
##dc
##d4
##come
##cide
##case
##c.
##bro
##bre
##bet
##ben
##beat
##ava
##ald
##ais
##a.
“oh,
“all
‘a
économique
zoning
ziemlich
yank
wrinkles
workshop
workload
work..
women)
with"
wisdom,
whatnot,
werden,
well-
wed
websites,
weaponry
watering
waived
waitwait
wa
votre
vomited
visuals,
visualization
visibility
virtues
violation,
vetting
vegetarian,
vans
upstairs,
unwillingness
uninhabitable
unicorn
unhealthy,
undone
undermines
undercut
tuning
tumblr
trimming
treatments,
transmitting
translation,
trachea
towns,
tornado
toothbrush
toaster
tipsy
tips,
thirsty
therefor
terrifying,
tainted
syndrome,
sweetened
swaying
swaths
sustaining
sustainability
surroundings,
surreal
succeed,
subtle,
subreddit's
subjectively
stud
structures,
stemming
starts,
staggered
staffed
springs
spout
sporting
splits
spiraling
sourcing
someday,
sold,
socks,
sob
snowball
snitch
snapchat
slate
skies
single-
signs,
siege
side-
shortcomings
sharks
sequence,
septic
sentiments
sender
self-employed
seldom
segregated
seeing,
secure,
seawater
scout
school)
scheme,
scammers
scalable
saint
royally
ropes
rocked
riled
ridiculed
retroactively
restored
repress
reported,
relieving
relaxed,
regulars
registration,
regiment
refuge
reactions,
re-evaluate
ratio,
rains
quo,
queen,
qualms
pus
purged
punishable
pulsing
pudding
ptsd
psychiatry
protagonist,
prolific
prohibiting
professionals,
prof
presses
presently
[...]
