[PAD]
[EOS]
[UNK]
[CLS]
[SEP]
[MASK]
the
to
a
and
I
of
that
in
is
you
for
it
was
have
be
not
with
are
my
on
but
as
this
they
or
just
at
The
if
like
your
about
would
from
he
people
can
we
so
an
what
all
more
do
get
me
out
their
by
had
will
his
up
because
has
when
who
one
think
I'm
don't
how
no
her
were
than
it's
been
some
know
there
them
only
she
It
If
even
could
You
other
being
any
going
then
into
time
##,
really
make
This
which
want
much
also
still
see
our
should
But
go
And
need
very
him
He
way
It's
over
good
They
where
back
most
never
something
say
So
same
take
did
We
got
those
said
work
My
after
lot
why
right
now
am
-
these
things
many
you're
before
actually
first
I’m
someone
off
A
sure
i
years
didn't
feel
down
don’t
use
thing
can't
through
doesn't
while
every
&gt;
made
I've
Trump
few
around
too
In
it’s
its
does
find
new
better
trying
that's
What
us
There
always
getting
That
own
without
may
long
doing
anything
She
two
might
pretty
used
point
since
look
probably
saying
little
it,
help
person
isn't
day
enough
give
different
able
put
last
bad
money
having
thought
come
less
keep
tell
told
already
well
life
pay
As
until
mean
both
best
believe
here
against
Not
another
went
ever
makes
try
part
That's
such
nothing
##"
making
##s
everyone
When
between
world
let
least
live
read
understand
next
##)
It’s
likely
year
kind
care
done
found
hard
far
old
left
big
state
end
talking
US
start
whole
started
change
away
under
reason
high
anyone
I'd
How
great
fact
seems
bit
they're
call
Just
real
small
idea
government
took
No
2
everything
looking
stop
using
working
means
almost
problem
Biden
man
each
study
home
job
For
didn’t
called
during
love
came
human
seen
vote
once
guy
shit
place
health
he's
taking
due
system
me,
there's
wanted
maybe
fucking
school
wasn't
Is
though
family
show
country
literally
case
social
days
times
support
says
ask
wouldn't
power
rather
else
gets
talk
aren't
##”
car
3
asked
full
hope
looked
food
instead
that,
tried
number
matter
friend
Why
can’t
happened
won't
Then
amount
wrong
based
myself
public
free
doesn’t
knew
needs
must
I’ve
saw
seem
completely
either
friends
All
single
kids
I'll
comes
definitely
water
post
you’re
parents
Bernie
company
felt
cause
thinking
remember
heard
entire
side
medical
Do
People
house
body
agree
you,
guess
At
months
fuck
story
Now
question
given
quite
hours
living
Even
women
Or
Your
stuff
often
large
run
important
To
that’s
One
Maybe
couple
become
open
move
head
legal
half
eat
exactly
hear
possible
past
simply
party
control
issue
article
actual
information
name
order
time,
mind
leave
##:
stay
face
insurance
coming
usually
again
room
research
set
second
paid
Because
You're
similar
current
political
week
close
sense
states
lost
10
goes
certain
hand
*
buy
basically
black
class
rest
sex
evidence
we're
this,
American
course
said,
isn’t
5
"I
behind
gave
others
situation
absolutely
whether
within
turn
especially
wants
yet
gonna
is,
happen
turned
ago
higher
police
1
group
worth
common
per
After
huge
front
brain
cannot
outside
virus
top
experience
ones
needed
weeks
them,
##'s
couldn't
dont
decided
sounds
whatever
4
taken
phone
child
cost
media
eyes
.
feeling
There's
white
Also
risk
telling
true
sort
deal
men
hit
poor
towards
die
Also,
longer
check
three
across
data
low
yourself
mom
Some
wife
now,
asking
later
His
chance
kill
##;
energy
play
worse
hate
themselves
business
issues
law
giving
TIFU
takes
night
general
death
worked
door
Most
light
reading
tax
easy
difference
up,
level
type
word
answer
unless
comment
clear
Thank
realize
specific
personal
running
normal
nice
claim
woman
happy
children
known
[WP]
paying
seeing
several
However,
sound
lose
cut
line
Well
news
young
That’s
month
works
form
humans
supposed
early
local
mental
Like
majority
allowed
sent
studies
##..
pain
haven't
million
companies
looks
people,
test
learn
response
drug
girl
hold
middle
explain
super
lives
sleep
guys
finally
out,
bring
voting
age
(and
along
figure
population
Can
countries
Are
lack
knows
process
term
imagine
dad
science
blood
##'
China
These
minutes
Americans
provide
private
rate
him,
##ing
stupid
words
break
watch
happens
plan
healthcare
history
eating
short
20
He's
wasn’t
Yes,
So,
lead
wish
court
currently
save
continue
together
mother
effect
extremely
gun
video
##*
I’d
major
fight
he’s
On
certainly
&amp;
lower
Yeah,
relationship
hands
With
doctor
kid
average
6
Oh
considered
multiple
know,
clearly
spend
wait
cases
contact
sorry
argument
office
willing
kept
today
calling
Well,
No,
red
send
New
game
meant
interesting
consider
Don't
fine
problems
sick
you've
America
Thanks
Of
future
market
paper
further
30
increase
effects
example
access
walk
they’re
Which
ability
worst
force
Yeah
assume
she's
wonder
dog
While
president
again,
self
including
account
hospital
sometimes
report
climate
near
society
hour
war
expect
college
mean,
above
mostly
Sanders
create
moved
100%
heart
soon
day,
Its
shouldn't
numbers
totally
though,
workers
allow
Republicans
you'll
##’s
result
act
area
hell
weird
bunch
understanding
simple
trump
inside
main
economy
win
gone
stopped
alone
generally
easily
spent
seemed
Democrats
difficult
massive
notice
moment
results
ended
speak
sexual
obviously
shows
here,
fucked
economic
strong
bill
playing
watching
directly
itself
voice
air
drive
aware
spread
blame
wouldn’t
late
mention
dead
caused
there’s
quickly
city
putting
won’t
avoid
there,
way,
afford
nearly
trust
pick
interested
Good
immediately
all,
step
positive
source
fall
serious
moving
easier
brought
ways
sign
federal
fire
Our
recently
himself
original
aren’t
what's
fun
safe
Did
From
years,
terms
follow
sitting
physical
##ed
election
held
work,
healthy
OP
value
advice
thousands
stand
extra
position
hurt
write
rich
potential
ass
(or
straight
changed
compared
negative
passed
##),
starting
fear
##d
choose
add
share
laws
waiting
By
father
treatment
feels
please
questions
mass
book
reality
##e
doubt
places
learned
pandemic
military
began
pass
gives
(which
among
rent
voters
despite
decide
tend
upon
related
beyond
(I
truly
I’ll
well,
changes
drugs
income
They're
responsible
except
natural
killed
became
rights
individual
total
store
socialist
prove
property
,
doctors
title
older
walked
millions
honestly
life,
Those
deep
required
writing
her,
knowing
fix
attention
impact
cancer
space
policy
exact
bed
piece
weight
choice
cover
do,
clean
global
realized
building
Who
basic
somehow
shut
example,
United
Every
bought
15
scientific
forward
fully
kinda
jobs
eventually
forced
significant
prevent
protect
“I
written
sell
met
##y
onto
you'd
ready
gotten
pulled
damn
obvious
possibly
meet
died
fair
100
student
complete
interest
showing
build
primary
file
lawyer
sit
ran
glad
focus
link
available
Any
brother
dark
say,
drink
God
worry
plenty
terrible
charge
benefit
damage
voted
in,
taxes
perfect
lived
accept
driving
knowledge
push
action
Does
costs
correct
noticed
entirely
specifically
disease
walking
claims
opinion
Republican
lease
enjoy
not,
species
8
Her
supporters
yes,
leaving
testing
Obama
patients
created
online
thinks
hot
Please
lots
fast
require
illegal
argue
pull
reasons
candidate
effective
Have
morning
ago,
service
biggest
random
option
losing
suggest
couldn’t
listen
comments
date
finding
modern
deaths
credit
highly
levels
view
worried
hair
grow
handle
involved
land
following
drop
nobody
happening
crazy
benefits
particular
caught
third
suddenly
reach
husband
point,
helps
size
team
previous
sub
showed
forget
cold
music
return
price
throw
travel
starts
son
blue
helped
areas
on,
holding
barely
community
afraid
one,
—
baby
thing,
campaign
mentioned
surprised
Since
Once
keeping
stuck
national
cool
learning
oil
weren't
nor
four
An
received
Democratic
sister
landlord
regular
socialism
carbon
Would
theory
vs
seriously
students
period
produce
coronavirus
causes
right,
Yes
field
education
50
GOP
stock
buying
popular
Only
internet
so,
President
incredibly
direct
killing
quality
picture
thank
/
slowly
list
anxiety
dangerous
increased
born
waste
funny
language
apartment
Everyone
ground
offer
--
fat
expensive
shot
treat
sat
stories
exist
course,
progressive
necessarily
wake
parts
Chinese
employees
fighting
points
Where
none
nature
begin
security
diet
groups
movie
personally
conversation
we’re
industry
Many
too,
remove
closed
address
considering
computer
animals
affect
growing
financial
wondering
watched
rules
base
otherwise
dumb
helping
resources
message
attempt
reduce
girlfriend
broke
fell
apply
covered
7
attack
quick
"You
policies
decision
fit
ignore
smoke
recent
Their
truth
case,
impossible
employer
daily
reasonable
statement
capitalism
fairly
becomes
necessary
somewhere
larger
Joe
however
turns
planet
zero
##ly
record
animal
gas
causing
opened
standing
proof
constantly
to,
contract
corporate
tells
present
meaning
symptoms
press
bigger
drinking
god
missing
bank
crisis
Trump's
talked
meat
dying
You’re
effort
eye
via
failed
##’
dollars
regardless
cant
We're
complex
skin
stood
mine
universe
broken
various
minimum
members
scared
More
appreciate
posted
"The
boss
standard
dropped
text
NOT
cat
essentially
recommend
beat
trouble
cells
world,
debt
rates
built
harder
politics
actions
didnt
bet
according
thoughts
teacher
letting
sad
im
production
they'll
loved
false
key
safety
okay
billion
fact,
legally
depression
yes
we've
ideas
smoking
conservative
requires
developed
apparently
town
hasn't
hoping
12
fault
First
down,
feet
proper
shown
no,
include
birth
loss
things,
opposite
slow
lying
States
limited
back,
hundreds
associated
unemployment
pressure
heat
assuming
special
mouth
wrote
daughter
anything,
race
man,
expected
wrong,
nuclear
There’s
solution
behavior
amazing
greater
wearing
grew
Reddit
joke
off,
perhaps
closer
although
male
slightly
managed
like,
context
figured
weed
stress
reported
then,
wear
green
earth
##s,
administration
five
wanting
curious
&gt;The
lie
cars
letter
technology
email
receive
non
particularly
religious
Now,
wage
reddit
capitalist
uses
pushing
THE
conditions
scientists
yeah,
Im
tested
types
##t
smart
movement
fake
keeps
therefore
home,
concerned
signed
reached
attorney
filled
they've
smaller
thanks
linked
plant
immune
potentially
money,
changing
(the
haven’t
40
model
tests
led
definition
raised
profit
useful
card
hearing
mail
spending
removed
depends
powerful
sugar
extreme
emergency
flu
becoming
catch
adult
treated
?
year,
Sorry
regarding
floor
shitty
sources
touch
however,
respect
tiny
individuals
ahead
Was
speaking
heavy
solar
girls
tired
alcohol
U.S.
He’s
raise
rid
picked
overall
crime
patient
female
"I'm
degree
labor
environment
votes
systems
Get
final
calls
unable
thus
judge
separate
honest
bathroom
speed
trip
subject
admit
won
wealth
horrible
democratic
perfectly
anywhere
luck
Nothing
decent
goal
us,
sold
businesses
wall
road
disagree
let's
partner
guns
boyfriend
younger
acting
confused
leading
info
options
##.
genetic
manager
games
turning
event
followed
folks
person,
owner
cell
are,
role
plants
she’s
they'd
liked
##-
Look
note
plastic
search
hospitals
concept
liberal
dealing
true,
smell
racist
strange
decades
factors
played
gay
practice
relatively
dude
South
missed
rule
thread
emotional
forgot
added
absolute
opportunity
demand
(
civil
ton
toward
capable
lines
ok
dogs
deserve
employee
food,
##.”
release
gain
vaccine
breaking
culture
sue
whose
etc
carry
former
leads
Being
favorite
Let
prefer
ship
##n
dick
woke
material
cheap
exercise
throughout
significantly
Both
dream
job,
hand,
arguing
purpose
double
faster
responsibility
facts
Don’t
twice
&gt;I
criminal
Same
ex
was,
product
refuse
active
married
scale
provided
continued
people's
yeah
evil
table
approach
ice
corporations
stick
harm
threat
machine
count
critical
##**
program
training
bottom
Earth
Unless
Especially
beginning
additional
Here
18
sending
Another
version
gender
##r
upset
politicians
parties
boy
actively
reaction
laugh
prior
good,
Sometimes
thats
angry
member
convince
##a
services
pushed
taught
shift
earlier
comfortable
fired
agreed
fan
What's
relevant
plus
coffee
e
–
who's
vast
hole
House
below
(not
cash
lies
severe
respond
articles
and/or
wing
Someone
supporting
stated
White
factor
depending
feelings
drunk
percent
violence
copy
cops
designed
staff
foreign
typically
supply
"
claiming
Go
influence
But,
later,
improve
survive
we'll
minute
AND
explained
staying
develop
allows
before,
selling
Sounds
discussion
excuse
teach
Fuck
Could
bag
feed
steps
window
abuse
Fox
citizens
March
memory
English
accidentally
creating
doesnt
neither
posts
amounts
oh
mad
mistake
products
status
meeting
Trump,
system,
suicide
Should
proven
quit
"the
shouldn’t
describe
Never
empty
Let's
street
miss
leader
somewhat
bullshit
character
porn
bad,
experienced
box
bacteria
agreement
However
UK
hundred
advantage
details
sun
parent
bar
TV
researchers
planning
sample
funding
defend
destroy
normally
he'd
voter
parking
books
trade
chose
familiar
saved
Oh,
limit
Great
ends
gut
laid
falling
visit
offered
referring
rise
plans
appear
pointing
house,
elected
lucky
TL;DR
listening
track
school,
California
de
accurate
burn
more,
nation
pointed
CO2
USA
equal
properly
hadn't
events
"What
successful
method
ten
She's
Again,
bills
kinds
appears
Everything
propaganda
fuel
maintain
math
universal
today,
payment
9
something,
decisions
fill
problem,
pretend
Take
replace
metal
topic
discovered
posting
infected
cities
wide
Either
you’ve
solve
wanna
moral
gotta
spot
room,
checked
spoke
essential
determine
board
grab
arms
Probably
path
six
beautiful
loan
2016
away,
page
throwing
measure
democrats
train
rural
fish
violent
taste
solid
controlled
Before
recognize
burning
ensure
heavily
panic
development
did,
pictures
Something
schools
opposed
content
Perhaps
glass
charged
locked
pure
remain
constant
management
portion
allowing
loud
function
thousand
foot
professional
lady
initial
hide
toilet
country,
Will
ban
Right
consequences
Imagine
reporting
physically
what’s
manage
ignoring
Donald
Nobody
concern
debate
center
assumed
US,
isnt
valid
image
jump
arm
(in
COVID-19
likes
adults
Except
therapy
Canada
mess
sure,
somebody
background
DNC
seconds
candidates
spreading
medicine
percentage
bringing
prepared
range
better,
myself,
faith
much,
fail
vehicle
miles
Senate
whenever
state,
place,
compare
song
failure
shared
Seems
growth
shall
enough,
intelligence
Anyone
minor
Instead
lay
leaves
believed
informed
(as
finished
milk
technically
sides
giant
activity
environmental
differences
Still
infection
North
worker
site
cheaper
exposed
ridiculous
republicans
increasing
magic
500
highest
Hillary
days,
focused
Very
bother
Keep
struggle
it'll
ate
understood
grown
suppose
night,
grabbed
confirmed
alternative
threw
convinced
till
suspect
quote
officer
be,
Dr.
generation
(like
York
Edit:
supplies
seek
finish
owned
calories
reduced
wind
idiot
website
bottle
favor
cure
largely
laughing
split
rare
forms
families
claimed
published
experiences
discuss
Sure,
existing
week,
tons
times,
condition
unlikely
independent
shower
providing
Google
Having
60
YOU
prices
sleeping
question,
first,
switch
Obviously
refused
distance
speech
possibility
simulation
driver
cutting
basis
genuinely
you’ll
affected
DNA
largest
##er
stayed
bodies
wealthy
videos
placed
chemical
yet,
license
serve
rape
words,
grocery
State
u
humanity
and,
##",
conclusion
awful
Two
winning
alive
sentence
career
ticket
logic
suggests
matters
supported
setting
puts
Party
accepted
Europe
conspiracy
increases
bias
Last
screen
effectively
car,
analysis
join
hang
freedom
0
with,
hopefully
tough
includes
described
Without
weak
Although
exposure
draw
i'm
friends,
medication
dollar
Here's
cannabis
toxic
herself
anymore
Pretty
Other
suffer
dry
direction
John
stating
perspective
exists
situation,
dating
flat
included
classes
trees
saving
Dems
usual
25
smile
asshole
busy
foods
surgery
suggesting
block
surface
passing
coverage
lock
official
temperature
IS
experts
pulling
leaders
AI
expecting
bus
apart
accident
Had
Congress
defense
department
Be
enter
asks
suffering
released
study,
naturally
shop
Medicare
everybody
cares
wont
fund
examples
tech
stomach
14
odd
fine,
marijuana
careful
around,
story,
project
existence
finger
aid
Florida
republican
over,
interests
request
ignored
color
Stop
laughed
“You
opening
breath
protein
measures
traffic
film
blind
named
biological
previously
Clinton
religion
democracy
water,
diagnosed
appropriate
net
sharing
checks
views
banned
efficient
warm
ultimately
tree
surprise
mind,
wild
counter
code
helpful
greatest
google
2020
hire
chances
200
16
leadership
cleaning
clothes
excited
belief
family,
subreddit
situations
reports
Hey
reply
secret
deny
explanation
bright
screaming
explaining
January
relief
developing
fingers
runs
stronger
fresh
scenario
wash
rarely
done,
charges
identify
assault
international
we'd
fellow
shit,
sees
News
owners
kick
names
Think
Warren
ignorant
ourselves
programs
corrupt
corner
target
Am
ride
location
filed
stimulus
produced
aside
50%
seat
balance
Unfortunately
elections
ball
##o
mentally
crying
Russia
masks
typical
"We
Russian
lab
success
pregnant
skills
for,
dose
grade
They’re
trained
##?”
roommate
kitchen
##es
Sure
other,
papers
sweet
pissed
Democrat
staring
quantum
applied
university
loans
equipment
about,
cats
progress
trash
section
replied
Though
TO
teachers
chain
desire
breaks
justify
24
homeless
teeth
methods
owe
revolution
lazy
kicked
forces
adding
calm
weren’t
payments
complicated
advanced
unique
Make
relative
besides
authority
Mr.
moment,
shame
signs
lights
fewer
Try
platform
funds
arguments
tries
structure
powers
items
ending
summer
##l
roughly
strength
1)
scene
responded
About
finds
proud
pays
Until
struggling
sucks
moderate
church
Basically
guilty
western
orders
insane
equivalent
correlation
victim
chronic
blow
opinions
sudden
clinical
anti
housing
cycle
answers
Got
else,
committed
awkward
shape
core
None
lets
entitled
enjoyed
shoot
mortality
relationships
stage
CDC
immediate
We've
rely
lied
murder
county
round
Big
hanging
guarantee
employment
head,
truck
Coronavirus
##!”
indeed
suit
fixed
“The
wave
months,
change,
Yet
reference
capacity
regularly
capital
pieces
decade
replaced
rock
reason,
edge
cup
Jesus
1000
pocket
quiet
Unfortunately,
asleep
ordered
anybody
thrown
noise
2)
nose
legs
experience,
believes
suggested
approval
Today
friend,
models
eyes,
stopping
series
jail
remaining
forcing
picking
Honestly
poverty
governments
fly
match
lunch
guy,
others,
destroyed
tool
achieve
11
unit
intelligent
hardly
X
intended
checking
review
prison
stepped
conservatives
affects
cultural
National
power,
depressed
consumption
TL;DR:
treating
European
vaccines
trans
marriage
of,
tied
pop
Black
receiving
he'll
Anyway,
cognitive
door,
sorry,
Tell
you’d
weapons
legitimate
nowhere
dinner
see,
billions
Hopefully
network
muscle
union
handling
equally
See
purchase
consent
warning
outcome
wages
beliefs
park
threatening
statements
crap
unfortunately
represent
fed
whom
yesterday
diseases
anyway
have,
(if
fought
Facebook
believing
ill
Best
Biden's
narrative
brand
logical
suck
together,
stuff,
everywhere
exchange
:
roll
soul
Federation
strongly
escape
long,
hitting
genes
pair
station
Too
failing
stared
boys
merely
chicken
loves
encourage
##]
attacks
accused
tools
sea
welfare
possible,
Plus
minority
listed
wet
Germany
talks
illness
cross
commit
presidential
heads
established
end,
emotions
really,
(a
German
go,
waited
hated
expert
choices
returned
strategy
Washington
Time
cop
traditional
style
blaming
Fauci
meal
trial
SO
restaurant
B
issue,
design
want,
shooting
connected
provides
abortion
crimes
War
May
emissions
contain
IT
Like,
ownership
addition
approved
You've
studying
fossil
battle
findings
recall
hasn’t
flying
remains
pants
danger
studied
combination
brings
University
mixed
consistent
everyday
desk
During
face,
efforts
care,
electric
quarantine
connection
##m
communication
##I
ancient
handed
10%
teaching
accounts
stores
mix
British
3rd
would've
upper
liberals
HR
##S
confirm
name,
app
Court
doors
weather
uncomfortable
sense,
battery
Apparently
personality
academic
hits
happened,
Texas
April
90%
dirty
soft
experiment
Social
automatically
Supreme
kills
gym
class,
Me
gene
side,
task
positions
drove
nurse
facing
aggressive
discussing
You'll
continues
confidence
presence
Health
customer
useless
Hope
stands
interview
Biden,
collect
garbage
yourself,
identity
saying,
2019
hiding
brown
13
awesome
Honestly,
polls
##al
headline
flight
dependent
camera
perform
closing
falls
stops
organization
photos
ocean
reducing
planned
protection
device
brains
appeared
peace
"It's
arrested
Then,
defending
supports
pro
help,
concerns
Things
##ng
historical
comparison
values
executive
estate
schedule
scary
educated
kids,
2nd
inherently
assumption
pack
removing
Remember
records
anger
standards
raising
tears
photo
variety
transfer
leg
defined
acknowledge
racism
think,
issues,
deposit
user
promise
300
cry
originally
literal
We’re
body,
protected
memories
sky
extent
Next
ALL
funded
harmful
delivery
old,
Trump’s
communist
seeking
author
comparing
shook
governor
Turns
guessing
attempting
mask
hotel
circumstances
happen,
M4A
shocked
determined
applies
nations
tenant
users
officials
17
sales
refusing
neighbor
sounded
autism
thin
remembered
psychological
communicate
2018
sorts
Over
silly
native
we’ve
moments
advance
qualify
die,
babies
cuts
gift
conflict
Whether
worse,
dropping
Soviet
storage
confident
nervous
**
innocent
great,
can,
(for
##g
holds
steal
freaking
World
chair
movies
article,
ventilators
x
government,
meaningful
reduction
Socialism
domestic
sake
enemy
divorce
define
salt
poorly
neighbors
general,
French
prepare
crowd
carrying
Humans
greatly
whereas
mechanism
tip
ya
gold
warming
react
Thats
November
tomorrow
aspect
Really
According
polling
mainly
flow
reaching
odds
desperate
while,
chest
surely
evolution
plays
frequently
characters
gf
contribute
served
agree,
alien
says,
star
creates
bear
internal
unknown
thought,
drinks
childhood
someone's
attempts
needing
refer
consume
bed,
rough
law,
driven
custody
admitted
sensitive
meds
performance
socialists
bedroom
regards
hours,
February
pretending
bc
offering
host
Amazon
stable
burned
Bill
1%
pet
hired
presented
progressives
vacation
left,
OF
weekend
vote,
mood
Almost
intentionally
extended
load
let’s
unlike
generations
challenge
hidden
beer
answered
Christian
realizing
industrial
conscious
ring
complain
electoral
acts
investigation
attacking
cast
package
age,
minds
least,
handled
Given
chosen
materials
pool
entered
either,
breathing
trillion
messages
phrase
laying
hero
C
women,
sexually
covering
D
permanent
naked
Ok
viable
Bernie's
strike
children,
vaping
fraud
balls
whoever
NY
scientist
jumped
##k
coal
anyway,
I,
statistics
idea,
episode
duty
repeat
legislation
profits
liquid
lesson
clue
chemicals
victims
risks
mid
Can't
criticism
century
agency
forever
denied
dreams
Actually
atmosphere
Hell,
ideology
child,
Federal
information,
idiots
courts
virus,
shock
houses
Bush
China,
attractive
art
rolled
crew
producing
earn
company,
yours
own,
broad
acid
underlying
walks
outbreak
organic
participants
impression
badly
King
wonderful
attitude
forth
ear
uncle
pollution
substance
responding
decides
neck
Literally
decrease
links
explains
destroying
practical
orange
valuable
19
swing
combined
opinion,
carried
vision
fundamental
WHO
bike
embarrassed
army
backed
plain
cases,
Lots
Life
weeks,
party,
differently
budget
Doesn't
friendly
central
et
ID
matter,
future,
versus
practically
object
mild
nicotine
##on
dozen
filing
consciousness
choosing
prescription
hurting
wasnt
threatened
explicitly
observed
stone
purely
communities
ruin
hadn’t
Each
Lol
knife
detail
weapon
authors
engage
bothered
##%
they’ve
everything,
numerous
fee
consistently
arrived
Christmas
publicly
but,
recommended
realise
they’ll
forest
evolved
closest
tea
loose
justice
populations
one's
fair,
root
pain,
month,
strict
prescribed
beneficial
predict
oxygen
"This
salary
states,
ships
disgusting
seemingly
damages
band
Death
)
walls
surrounding
primarily
establishment
elderly
And,
occur
attempted
cook
instantly
homes
ideal
attracted
therapist
silence
complaining
Read
flip
burden
“What
touched
tends
shoulder
raw
express
phone,
Man
disorder
paycheck
paperwork
mortgage
solely
markets
insurance,
incident
society,
infrastructure
combat
Part
bite
##and
same,
themselves,
biased
accepting
THC
investment
ballot
alone,
ad
software
mirror
wins
border
20%
vs.
pursue
pregnancy
Italy
Give
responses
season
welcome
south
sex,
n
morning,
injury
hurts
remotely
“I’m
mistakes
document
\\
diagnosis
youth
professor
history,
appeal
leftist
does,
concrete
shirt
far,
blocked
apologize
continuing
Science
messed
(at
registered
he’d
experiencing
frame
painful
ER
pot
person's
degrees
focusing
stars
Red
survival
part,
Come
she'd
pattern
America,
45
touching
paint
interact
error
short,
rental
temporary
forgotten
coworker
owns
intense
Long
screwed
processed
volume
addiction
Isn't
demon
beating
mice
itself,
asked,
sacrifice
contacted
FDA
regulations
intent
deeply
deeper
clock
button
Spanish
stolen
limits
refuses
physics
death,
refund
once,
goods
bags
attached
##h
moon
imply
corruption
attacked
Western
collapse
politician
disaster
what,
throat
protecting
moves
fees
##…
widely
occurred
resistance
spoken
shoes
opposition
"But
##i
pizza
coworkers
anymore,
ADHD
office,
everyone,
Despite
indicate
expand
restrictions
electricity
##*,
post,
stocks
controlling
repair
"If
rational
##s"
hypothesis
fruit
soldiers
recover
radio
Usually
tone
officers
outright
rising
Check
deleted
cousin
resulting
swear
banks
outcomes
length
drivers
butt
stealing
holes
theories
expression
complaint
flag
circle
viruses
thick
sites
horror
Super
vulnerable
pills
countless
smiled
annoying
80%
Source:
ruined
la
creature
urban
regret
fascist
cared
area,
dragon
hung
wondered
trials
drank
describing
HIV
waking
handful
employers
acceptable
it'd
farm
empathy
cancel
crash
80
reminds
vitamin
remind
repeatedly
“We
reverse
representative
preventing
headed
commercial
sets
birthday
lift
couch
Has
covers
citizen
EU
piss
mainstream
nearby
documents
depend
selfish
nasty
Capitalism
##0
rush
machines
application
war,
guard
She’s
##in
science,
aspects
slight
qualified
Let’s
misleading
lot,
customers
concentration
90
parents,
construction
beings
involve
smoked
reliable
treatments
cult
wipe
sports
sharp
knock
ignorance
distribution
bone
deserves
decline
bound
Back
collection
theres
sink
peoples
fields
armed
India
1st
"And
novel
kid,
farmers
chat
productive
nothing,
lifestyle
instance,
abusive
faces
listened
dress
grand
crush
fundamentally
alarm
deadly
(who
Getting
tank
perception
people’s
gap
Anything
incredible
tall
research,
use,
household
eligible
objective
gross
winter
deliver
(even
yelling
99%
Using
maintenance
switched
king
humans,
amongst
trigger
label
excellent
transition
YouTube
Okay,
Sorry,
silent
searching
identified
Korea
secure
Hell
Canadian
snow
conclusions
prompt
depression,
trend
What’s
MY
invest
spectrum
promote
discussed
caring
You'd
Hi
figures
"It
reasoning
USSR
generate
cute
violation
traits
streets
distancing
Neither
manufacturing
Australia
lung
here's
Call
problems,
breakfast
particles
solutions
long-term
dealt
acted
wasting
probability
eggs
collective
click
mobile
firm
existed
confusing
breast
bread
Definitely
"Well,
proposed
assets
artificial
surrounded
revolutionary
operate
Pelosi
requirements
trick
tear
pill
antibiotics
formed
stressed
spin
savings
rain
initially
fallen
paragraph
"How
screw
nurses
who’s
financially
\\-
socially
Looking
trauma
immigrants
lowest
improved
Asian
they’d
terrified
scare
latest
honest,
sight
plate
disease,
healthcare,
crops
game,
COVID
vague
senior
feedback
keys
enjoying
ain't
Guess
perceived
penis
Instead,
sale
notes
crack
avoiding
reality,
wood
assistance
racial
IN
corona
frozen
education,
peak
level,
Human
estimate
commonly
famous
bit,
Idk
tens
shelter
comment,
THAT
successfully
grandma
drives
begins
Ah
sufficient
dust
delete
leaning
dressed
processes
woman,
engineering
cards
Didn't
issued
hydrogen
habit
denying
Better
rolling
description
control,
##/)
patterns
immigration
African
images
politically
plane
laptop
hard,
slept
sleep,
peer
men,
consumer
anxious
supposedly
real,
Women
shake
safer
bare
..
periods
jokes
enforcement
feeding
lawyers
journal
(but
pile
monthly
governors
drops
agent
IQ
eliminate
agenda
400
(I'm
reminded
hates
birds
##,"
square
operating
nonsense
inform
implies
Might
Ok,
God,
comfort
works,
trading
creatures
scream
drawn
Friday
poll
Holy
tv
recorded
processing
soil
latter
dig
different,
competition
anecdotal
wiped
countries,
"Oh
gravity
ruling
lesser
enforce
association
wasted
stays
reflect
joint
hoax
NYC
washing
o
region
phase
charging
promised
openly
hands,
golden
Dude
misinformation
irrelevant
emotionally
advocate
70
THIS
##2
unhealthy
measured
statistical
beside
sooner
arrest
Whatever
sole
allergic
seven
efficiency
am,
unnecessary
strain
properties
Fast
radiation
ears
closely
2-3
will,
past,
master
boring
Eventually
Cuomo
demanding
arent
mark
business,
process,
notion
jumping
dozens
Such
update
goals
Japanese
junk
windows
tobacco
friend's
21
senate
referred
realistic
procedure
lifetime
superior
applying
They've
sword
desperately
skill
shopping
practices
eaten
hungry
functioning
entering
permission
incorrect
carefully
recognized
occasionally
intention
discover
vape
gained
West
Luckily
"you
utterly
supporter
interaction
fraction
relate
college,
roof
clear,
authoritarian
burst
CBD
involves
replacement
Japan
holy
estimated
healthier
item
from,
establish
earned
routine
proceeded
introduced
excess
joined
hes
health,
mum
embarrassing
maximum
yellow
correctly
guide
faced
damaged
40%
(with
cheating
Ask
yelled
professionals
tight
doing,
relationship,
Makes
repeated
drugs,
abstract
world's
stole
route
randomly
conversations
&gt;If
wars
stranger
filling
farming
communism
rapidly
insulin
dedicated
shaking
plot
legit
First,
viral
lungs
dirt
branch
score
600
smarter
increasingly
##c
infections
incentive
ages
DO
purchased
proving
we’ll
radical
evolutionary
ethical
cream
compromise
suicidal
economy,
Journal
surprising
controls
city,
France
investigate
evening
cooking
activities
Act
capture
E
settle
president,
manner
ACA
small,
High
magical
lives,
guaranteed
implement
##ness
hopes
grey
dare
infinite
declared
!
remained
group,
Government
technical
statistically
protest
advocating
abandoned
severely
recovery
usage
elements
pandemic,
sick,
realised
importance
horse
everyone's
dislike
visible
loving
beneath
mandatory
instance
serving
opens
loses
exit
traveling
ego
TLDR:
Department
payer
"You're
impacts
absurd
Finally,
silver
December
liability
(that
##ic
wouldnt
songs
fits
command
Venezuela
resulted
insider
casual
boat
Glad
Covid-19
iron
understand,
genuine
competent
wore
overwhelming
density
best,
Much
General
2000
pressed
cleaned
appointment
punishment
paper,
interpretation
dismiss
trusted
delay
Wow,
client
##5
happiness
"So
egg
defeat
hence
Trumps
texts
requiring
Wait
*not*
t
partially
light,
media,
Hey,
ARE
tenants
Always
hunting
Medicaid
lean
drawing
fucks
virtually
skip
response,
wedding
trapped
Okay
primaries
organizations
lol
tissue
american
maintaining
survey
okay,
news,
mile
cuz
hook
destruction
data,
also,
meals
delivered
brief
Otherwise
NO
election,
chocolate
Under
CNN
fixing
assumptions
Basically,
gods
monster
aunt
stance
approached
Stay
spell
economics
participate
factory
someone,
rude
awake
10,000
nights
cleared
150
suffered
juice
##1
protective
mothers
liable
etc,
compete
##but
leave,
girl,
addicted
grandmother
default
Union
Considering
exception
emails
contains
amendment
Out
Michael
"Why
selection
rose
intake
computers
blew
"Oh,
minutes,
“
stretch
overcome
chill
bored
##en
two,
line,
dies
cheese
David
Dad
recording
profile
likelihood
knocked
grasp
answer,
Still,
produces
preferred
ground,
USPS
30%
whilst
psychology
slip
employed
ballots
"A
wrapped
proves
pee
overly
bloody
wise
west
population,
isolated
heading
impeachment
dead,
players
landed
counting
workers,
unfair
signing
signal
creative
corn
offers
Mom
theory,
expense
deciding
could've
subjects
open,
hiring
live,
letters
blanket
revealed
industries
Monday
neutral
connect
conference
*The
"we
##/
presidency
announced
turnout
spring
addressed
Going
struck
grounds
privacy
##”,
donate
buddy
batteries
Wisconsin
floating
Plus,
consensus
Michigan
rushed
cigarettes
blown
CEO
3)
speaks
grant
democrat
another,
[
workplace
variables
liver
jobs,
Use
phones
external
air,
1200
monitor
stairs
congress
attend
widespread
very,
waves
narrow
glasses
bailout
performed
flew
endless
auto
incompetent
brothers
sweat
owning
(it
##able
stupid,
requirement
filter
unfortunate
register
neighborhood
engine
cruise
bird
East
stare
screamed
awareness
San
reasonably
man's
hilarious
entry
else's
ripped
partners
grass
credible
bowl
annual
tongue
inner
doctor,
conducted
abused
Saying
(including
mere
dems
confusion
happens,
exist,
doses
predicted
Put
why,
represents
obligation
floor,
Fucking
medications
motivation
high,
warned
cancer,
Old
visual
read,
males
expenses
bits
Ive
involving
bullet
drag
nominee
gather
behaviour
audience
Based
(though
texted
movements
lips
himself,
forgive
"a
belong
proved
lit
Yea
Africa
“the
taxes,
revenue
eviction
disability
curve
##us
vet
persons
obesity
##or
player
marketing
contributing
Ah,
wine
regulation
implying
granted
Nice
skeptical
reads
lifted
functional
alot
"what
still,
obtain
Marx
spare
eight
distant
mouse
morally
happily
adjust
vegan
threats
classic
scheduled
retirement
mindset
preparing
Putin
shifts
reveal
proceed
print
firing
choice,
voices
adopted
unsure
reactions
enormous
consuming
bones
Sex
transmission
incapable
accountable
societal
reduces
assigned
"No,
stem
disappointed
ads
Green
95%
twenty
ratio
layer
crossed
George
neural
invested
disorders
##an
rooms
organized
steel
projects
deemed
correct,
catching
anyone,
motion
inability
crisis,
shots
regard
questions,
mountain
Public
OP,
Men
rights,
returning
assholes
Twitter
en
district
context,
stream
features
repeating
aliens
north
[The
100,000
wound
unrelated
backwards
Nazi
objectively
kiss
chunk
They'll
would’ve
nodded
firearm
digital
note,
facility
aged
James
35
minimal
it’ll
club
means,
implications
wife,
sticking
ongoing
apparent
targeted
secondary
pump
buildings
arrive
replacing
lawsuit
extend
divide
demonstrate
stored
settled
panels
methane
OK
vehicles
seriously,
anytime
Actually,
rice
Middle
input
blowing
cum
capitalists
book,
CA
Assuming
southern
Stalin
Jan
1,
yard
transport
sued
spouse
resource
fantastic
creepy
suspended
poster
forgetting
cried
"No
were,
goddamn
completed
answering
Bible
(because
interpret
immunity
Wow
detailed
youre
politics,
judgement
fantasy
directed
shutting
paste
gone,
&gt;You
s
invited
fence
##x
storm
grain
tips
parked
freak
devices
brain,
Feb
comparable
this:
interactions
display
Civil
opportunities
meme
hey,
etc)
anxiety,
Paul
prime
motivated
improvement
toll
Additionally,
submit
pulls
noted
leaned
McConnell
Nah,
sum
slave
remote
nicht
mods
hat
bubble
Were
soda
sits
owed
naive
##st
lawyer,
formal
capitalism,
annoyed
),
allegations
Bernie,
(my
safe,
i’m
worrying
camp
safely
petty
oversight
dude,
spray
shadow
mechanisms
5%
residents
relation
forward,
expressed
elect
discovery
ashamed
space,
sheer
calorie
Socialist
thinking,
cigarette
bourgeois
account,
civilization
",
grandparents
era
educate
conduct
biology
Dark
“It’s
struggled
perspective,
visiting
spirit
reasons,
covid
bridge
she'll
pharmaceutical
map
deal,
convincing
boost
OP's
roads
regions
is:
flawed
diets
adapt
unemployed
guidelines
fool
dump
distinction
verify
tolerance
magically
proteins
dates
god,
##D
mode
mentions
important,
idk
mission
sand
objects
hey
explore
Second
Research
passes
nursing
advice,
consumed
Trying
un
poop
Wouldn't
2016,
hardest
dispute
Tuesday
utter
que
muscles
buried
witness
reject
rating
collected
adds
(especially
evidence,
vary
structures
environment,
autistic
raped
many,
Or,
##ion
ruled
refers
questioning
pleasure
expansion
carbs
frustrated
Lord
Damn
unions
difficulty
consult
meditation
shares
pointless
ones,
LSD
guys,
creation
could,
%
harsh
guilt
fails
detect
"That's
##ve
reporter
experiments
ease
vastly
promising
frustrating
Depends
##3
viewed
truth,
temperatures
survived
substantial
nerve
joke,
fancy
channel
##ers
planet,
labour
Day
sustainable
drastically
advise
term,
language,
identical
diet,
darkness
cultures
absence
improving
demands
backing
Scientists
seats
genetically
contained
deliberately
affecting
FOR
free,
tie
socialism,
music,
expectations
engaged
energy,
deals
damaging
clarify
Me:
precisely
happy,
golf
adopt
win,
habits
Yep,
Three
##A
popped
located
billionaires
agencies
market,
Meanwhile,
Meanwhile
units
trips
supervisor
negotiate
masses
cough
22
universe,
gathered
shorter
argued
reward
quarter
oral
institutions
implemented
beach
Making
unusual
ultimate
strains
occurs
edit
behaviors
##4
nuts
nail
insight
inflammation
compensation
VP
vice
teens
distinct
disabled
Marxist
Borg
sexy
prevents
bail
Little
Second,
rate,
prone
Up
Dr
gains
brush
Kids
album
addressing
Sunday
shifted
riding
Looks
serves
requested
drew
cameras
knee
resistant
numbers,
avoided
representation
grateful
approximately
T
Say
Dem
slipped
partisan
miracle
hostile
firearms
cloud
race,
grandfather
(this
imperialist
emotion
bleeding
VERY
(to
respiratory
rejected
blocking
tickets
urge
officially
graduate
accurately
1.5
word,
harassment
counts
biden
verbal
plan,
mutual
instant
damned
bees
Finally
retail
chemistry
We'll
Pence
literature
worlds
oppose
indicates
dance
Star
Again
understands
obligated
inherent
greenhouse
entity
crop
breathe
resolve
fault,
excuses
Funny
Ever
teen
subjective
butter
pounds
Seriously,
HAVE
packed
massively
judges
criticize
##f
samples
mine,
magnitude
competitive
YOUR
Indian
insult
influenced
criminals
BS
inappropriate
blocks
affordable
School
test,
property,
opioid
loop
it)
accomplish
(they
victory
plug
philosophy
nightmare
followers
appearance
tendency
solved
mother,
introduce
number,
follows
diabetes
Security
through,
stressful
rapid
journey
hair,
severity
regulated
flash
sucked
inevitable
gently
garage
captain
bankruptcy
Nazis
sector
priority
prevented
halfway
had,
exclusively
encouraging
IRS
young,
punish
warrant
tracking
threaten
human,
Find
2008
possession
occasional
historically
"this
"not
"My
observe
obese
mentioning
beef
Surely
Police
Medical
Captain
weight,
normal,
bomb
Mexico
pockets
fuels
court,
web
Talk
visited
poor,
policy,
pages
selected
strictly
blamed
constitution
Hong
70%
lockdown
hospital,
field,
committing
Absolutely
intervention
guess,
date,
PTSD
le
"no
shortly
protests
ceiling
argument,
support,
recourse
max
heal
Furthermore,
(no
##p
managers
landlords
basement
simultaneously
fun,
fans
already,
frequency
unaware
renewable
police,
poison
kicking
effect,
because,
We’ve
jerk
eats
dense
Dont
Corona
City
dragged
constitutional
wrap
boxes
Cuba
intellectual
demonstrated
senators
quietly
planets
nice,
experimental
twisted
slavery
principle
engaging
banning
washed
murdered
inequality
Right,
vegetables
right-wing
"Do
select
rally
estimates
cable
Went
##',
purple
oldest
Post
Latin
“It
speaking,
frankly
expanding
mouth,
limitations
connections
concepts
##re
wife's
store,
applications
Personally
Iraq
4th
tastes
sends
praise
ghost
dismissed
wildly
ever,
Mitch
IF
&gt;In
rhetoric
formula
easiest
Depending
23
injured
##E
torture
Here’s
##le
village
mother's
lie,
football
consumers
facilities
Walmart
rent,
fires
epidemic
pay,
injuries
we’d
ways,
##ation
ugly
metric
functions
behalf
ok,
negatively
ive
invented
divided
cited
Mike
smells
sized
opposing
managing
it..
doc
"oh
strangers
reform
admitting
Anyways,
60%
(we
symptom
roommates
F
moron
misunderstanding
discrimination
contacting
Climate
tape
mushrooms
director
cheat
ordinary
R
table,
recession
outlets
panel
correlated
Wait,
transportation
restaurants
procedures
miserable
happier
father,
colleagues
timeline
encouraged
dog,
clients
Biden’s
educational
electrical
declare
##,”
societies
made,
lease,
agriculture
Hello
reviewed
promoting
manipulate
documented
criteria
chaos
trait
server
dumbass
coin
blade
wishes
molecules
happening,
flesh
AM
worry,
ppl
stats
hell,
headlines
died,
LOT
weekly
toy
shouted
result,
rage
fourth
accusations
phenomenon
hoped
couples
convenient
clothing
Due
supreme
pathetic
inch
grows
genetics
approaching
reaches
farms
elsewhere
drain
candy
“This
moderates
mitigate
borders
bill,
siblings
separated
perfect,
min
income,
ideological
galaxy
approve
Love
species,
frequent
diverse
PPE
yell
races
engineer
Blue
provider
lasting
supportive
river
laws,
freaked
demographic
Personally,
*is*
women's
suspicious
rapist
premise
cap
alter
&gt;This
treatment,
snake
position,
lane
whats
luxury
##is
topics
tooth
punch
nearest
medium
earning
lacking
aim
Fair
slammed
pipe
period,
offended
joy
generic
centuries
Been
psychedelics
order,
locations
holiday
dear
cold,
Poor
raises
##s)
studies,
pas
limiting
caffeine
apple
ur
2017
speaker
pride
performing
mentality
library
eat,
Regardless
new,
dietary
Bad
worthy
teenage
robot
hypothetical
humor
fluid
delayed
achieved
teenager
Interesting
such,
second,
Kind
Dude,
slower
hall
Navy
"Yes,
scope
hunt
feature
describes
classified
2,
tasks
infectious
bitch
wallet
removal
funny,
confirmation
screams
ruining
reflection
lasted
island
downvoted
genius
bf
Christians
wings
wait,
switching
perceive
legitimately
interesting,
elite
diversity
counted
##\u
##the
should've
inevitably
digging
torn
knowledge,
clinic
worldwide
wherever
log
compounds
component
Santa
regime
overweight
minorities
Hitler
leverage
depth
25%
*I
twist
tho
steady
replying
lifting
intend
he’ll
gaining
trail
symptoms,
irresponsible
figuring
texting
rip
permanently
outside,
height
dementia
GMO
theft
stepping
joking
States,
(although
renting
infect
healing
garden
bottles
vital
variable
returns
organs
bulk
Problem
FBI
shoulders
hatred
##8
ups
movie,
grabbing
games,
foundation
consideration
June
\\&gt;
IT'S
Doctor
##w
searched
reputation
output
loaded
bars
"Well
"Don't
marked
forming
convert
Real
Earth,
suspected
move,
china
Haha
"it's
particle
contracts
cite
behave
accessible
moms
mate
bat
NEVER
##6
soon,
shifting
mature
graduated
dated
cracked
begging
Small
category
allergy
:)
seeds
generated
ask,
Taking
snap
documentation
barrier
Free
labeled
exciting
bucks
brilliant
Show
y
wooden
teams
mom,
implied
blah
speeding
public,
lovely
industry,
exam
afternoon
##th
stations
measuring
glanced
agreeing
town,
electronic
commenting
cake
billionaire
Way
Constitution
romantic
ratings
delegates
corporation
Food
Communist
Canada,
run,
cruel
beast
adverse
signals
knees
urgent
roles
parental
leftists
late,
containing
bump
animals,
Governor
##rs
weird,
purposes
arbitrary
UBI
sounding
shady
losses
isolation
flipped
causal
wished
subs
souls
pic
thru
honestly,
cleaner
Thanks,
thoroughly
sentences
competing
Can’t
show,
1,000
##9
##te
##it
vacuum
systemic
releasing
##like
spit
publish
decreased
admin
OR
less,
disappear
aimed
##ll
shes
retain
reporters
reminder
regulate
internet,
coat
audio
typing
technique
string
instances
burns
Feel
terribly
stroke
solving
pray
meaningless
gathering
by,
unpaid
lonely
journalists
flood
fire,
organize
fruits
concerning
Trust
Half
tap
freeze
It'll
meat,
extinction
collecting
cheated
9/11
##7
modified
Clearly
knocking
##nt
fate
fascism
encounter
agrees
Study
sadly
restraining
extensive
aside,
Saturday
Obligatory
substances
proportion
pour
ordering
capita
timing
mom's
marry
effects,
Less
unreasonable
rules,
don't,
action,
accusing
jaw
cancelled
bent
artist
angle
simulated
nutrition
guidance
associate
strikes
origin
instructions
coast
Start
3-4
##y,
which,
practicing
dad,
Tom
Left
20th
##T
volunteer
economically
cooling
being,
slap
it"
breed
26
spots
shipping
peaceful
easy,
GF
susceptible
sauce
margin
judging
ethics
clicked
blows
Took
##C
transferred
imperialism
extract
camps
bernie
Whenever
Mars
rocks
often,
expose
expanded
Doctors
voice,
techniques
sheet
resident
quo
hormones
scam
satisfied
pound
pink
pale
operation
element
dental
adjusted
wall,
slide
greed
&gt;And
technological
online,
companies,
[this
Ford
ANY
inclined
healthy,
conventional
Ohio
California,
sober
racist,
magnetic
Senator
terrifying
privilege
indication
dad's
conclude
areas,
Pete
ought
campus
Therefore,
5th
##ment
updated
toys
registration
partly
UK,
spends
snapped
remembering
olds
observation
love,
inches
cool,
dramatic
challenges
WILL
•
twitter
conditions,
Americans,
protections
nature,
identifying
production,
insist
fuckin
dramatically
blatant
Thankfully
working,
treats
laundry
cars,
ambulance
##e,
shortage
record,
gloves
attention,
allies
BUT
til
installed
fever
east
Uber
zone
white,
trumps
rolls
pen
PhD
“And
worn
opioids
land,
beauty
above,
Exactly
vaccinated
placebo
option,
newly
look,
expensive,
climb
alongside
Several
tune
profitable
insanely
hood
Today,
Maduro
Jack
Israel
Covid
setup
scores
killer
gaming
footage
consequence
surprisingly
suppress
someone’s
resort
community,
at,
Law
HPV
strip
child's
breeding
analogy
readily
punished
glance
extension
elementary
disappeared
bathroom,
adequate
utility
theoretical
suppression
presumably
languages
females
evict
blank
beds
Others
Man,
"Are
wisdom
id
heroin
greedy
glucose
classical
AOC
pressing
need,
dudes
distributed
controversial
clause
absorb
tail
subsequent
scan
grip
dairy
nutrients
assaulted
HOME
(he
##\\*
impacted
enemies
Mark
Iran
Insurance
wheel
smooth
scratch
offense
ignores
debt,
cave
alternate
threshold
spite
skin,
indicated
genocide
der
demons
briefings
(from
shouting
relations
REALLY
quotes
fiber
fat,
bend
bankrupt
MDMA
ties
sisters
guards
ethnic
Add
"if
pics
minimize
intentions
ingredients
belt
Plenty
&gt;But
view,
summary
pets
op
Years
Otherwise,
title,
sub,
shaped
represented
networks
libertarian
defensive
blatantly
PTO
N
2.5
(so
yield
tube
troops
hid
earth,
overwhelmed
neoliberal
afterwards
Roman
warn
shitting
relax
correctly,
stop,
lessons
PM
tactics
pesticides
painting
nomination
lowered
denial
burnt
Nah
tonight
motor
mistake,
messing
October
tossed
rats
prescribe
pharma
herd
handing
Generally
violating
discussions
agents
Money
&gt;I'm
tag
quickly,
paranoid
heroes
100k
policies,
keto
install
heating
fridge
void
mins
excessive
blood,
PC
ONE
upstairs
thankful
division
bonus
translate
parenting
med
flights
flaws
comprehend
addictive
Researchers
temporarily
span
propose
hating
finishing
Reade
plastics
Cause
restricted
fascinating
collar
FU
&gt;It
trap
stumbled
strongest
similarly
guns,
gaze
exploit
alive,
abilities
July
visits
session
hint
centrist
carrier
behavior,
apologized
advised
FUCKING
rubbing
relying
places,
exclusive
cells,
soap
service,
chief
Seeing
Kushner
risk,
podcast
decades,
troll
gate
documentary
"Yeah,
##ne
unexpected
bacterial
authorities
Jews
straw
remember,
precious
derived
crushed
couldnt
Totally
Jim
"They
"Hey,
principles
pace
i've
dem
backs
Nature
Gotta
##ce
son,
scheme
horny
fights
begun
"That
towel
suggestion
reactionary
picks
doctor's
credibility
Besides,
2%
smelled
row
physician
ancestors
GM
vaccination
presidents
gear
copies
behavioral
assure
Nope,
subtle
complaints
weigh
cope
accusation
jacket
downplaying
donors
dentist
antibiotic
Link:
writer
woods
sore
dealer
Times
Jewish
Hence
HOA
shy
imagined
evolve
abortions
Work
Wall
75
terror
she’d
dominant
advertising
senator
alcohol,
struggles
currency
belongs
bang
DC
organisms
honor
250
"I'll
seed
providers
noting
examine
brother,
HA
singing
principal
please,
fears
awhile
Lenin
Apple
2019,
triggered
loads
groups,
fox
contrast
challenging
bond
Currently
stupidity
Wuhan
Suddenly
##ting
smiling
inspired
clouds
thoughts,
slaves
sensation
distracted
Seriously
Robert
traumatic
monsters
little,
karma
assess
Need
tweet
sunlight
landing
inside,
gang
##](https://www.youtube.com/watch?v
teenagers
starving
rich,
joining
endorse
Hard
variation
underneath
favourite
equality
Within
offset
ideas,
culture,
spike
realm
coup
automatic
ONLY
workout
sucking
facial
Regardless,
August
terrorist
recovered
nut
low,
ist
curiosity
crucial
campaigns
You’ve
Richard
England
illegally
crime,
assumes
Alex
Bloomberg
whatever,
results,
oil,
expectation
crossing
contest
beans
airport
accidents
Doesn’t
D.
"just
“But
window,
placing
organ
benefits,
Step
NIGGER
History
today's
proposal
penalty
hour,
Europe,
sequence
replies
poorer
Kinda
Happy
sought
rub
luckily
could’ve
boy,
Between
voters,
varying
simple,
quoted
hug
duration
colors
Note
Mine
Internet
sentiment
road,
mutation
maybe,
illegal,
groceries
freely
Anyway
meetings
hooked
govt
briefing
books,
bizarre
Said
Mr
uncommon
structural
recipe
psych
destructive
bugs
2:
wording
relies
offices
father's
claim,
assessment
WE
Catholic
Adam
preference
isolate
flavor
Y
pitch
going,
cooked
collapsed
stockpile
recently,
partial
manufacturers
flu,
fishing
size,
importantly,
Reading
submission
insisted
condom
Theres
Georgia
toss
selective
aka
Healthcare
##ies
invasion
files
testosterone
suggestions
shootings
invite
investigated
interpreted
here:
convicted
closet
True
suing
purchasing
apartment,
College
28
##ly,
targets
polite
infant
gluten
cows
courses
arguably
Care
beaten
27
tow
theme
sustain
peers
obsessed
contributed
bug
Wikipedia
substantially
neurons
leak
justified
instead,
breakdown
bodily
You’ll
Shit
ME
Army
tomatoes
serial
entertainment
em
GDP
universities
finance
Native
&gt;A
topic,
scenarios
disregard
bully
appointed
"Not
“If
value,
submitted
sane
recognition
dark,
"Is
##ty
villain
noticing
exhausted
Muslim
testing,
pit
needle
mutations
gentle
firmly
PA
(you
##ity
risky
"He
yesterday,
kidney
counties
calculate
airline
myth
investing
fathers
breath,
Obama's
Empire
##M
united
liking
assistant
abusing
traveled
northern
locking
deficit
crazy,
coughing
vocal
plausible
permit
critique
alternatives
allergies
China's
##a,
thumb
hill
covid-19
boot
Later
pushes
form,
anyways
"Hey
wider
underwear
suits
rocket
operations
loudly
leather
large,
effectiveness
risking
pharmacy
microbiome
imagining
havent
grades
everywhere,
brutal
unethical
shield
researching
participation
Vote
worthless
targeting
shed
religion,
rear
entirety
terminate
ok.
mining
lowering
early,
criticizing
council
Look,
costs,
accounting
unwilling
towns
recreational
justification
judgment
crappy
chasing
Sadly
P
Harry
Everybody
Doing
2020,
1/2
##ish
spaces
smokers
mechanical
interviews
exercise,
embrace
coalition
Water
ICU
##ism
hallway
dumped
drug,
downstairs
Upon
ON
Colorado
surgical
stages
invisible
fashion
entrance
after,
temp
spiritual
dried
agricultural
absentee
Andrew
65
violence,
spinning
satisfaction
problematic
ironic
impressive
ass,
actors
#
##ry
grad
cherry
baseline
assist
Jared
vagina
recommendations
mod
gun,
taxpayer
pre
notice,
meth
factual
components
chip
Kong
sneak
powered
medicine,
fiction
certified
cabinet
800
youtube
used,
personally,
donations
determining
cow
captured
bench
##se
television
sperm
sells
printed
lately
dragging
detrimental
absorbed
Landlord
LA
Fun
thirty
services,
irony
copyright
bath
Watch
Bob
violate
resources,
powder
patients,
occurring
errors
comprehensive
compound
Secretary
withdrawal
virtual
revealing
preserve
messaging
dictatorship
curse
casually
anonymous
steam
restrict
incompetence
cease
antibodies
U
Global
&gt;What
pin
offensive
norm
insects
complained
apples
source,
outlet
friendship
doctors,
deserved
Steve
worship
passive
needed,
invasive
hip
bourgeoisie
True,
PR
à
vegetarian
varies
robots
poured
hop
feet,
failures
evaluate
Nuclear
Children
Chicago
witnessed
sometimes,
ridiculously
newer
lasts
gray
definitions
certificate
acute
Yup,
VX
He'd
warnings
taxed
representatives
questionable
organizing
licensed
elaborate
broader
blindly
akin
accuse
##b
scientifically
explicit
civilian
subsidies
researcher
payroll
otherwise,
les
comments,
bot
big,
Queen
ventilator
sticks
shell
most,
laughter
fear,
faint
bitter
September
Besides
roots
question:
demanded
card,
Didn’t
upcoming
tripping
sandwich
marks
genome
whispered
succeed
optimistic
divorced
autoimmune
abandon
Air
#1
##u
video,
slid
retired
plague
fast,
fart
drama
Welcome
programming
precise
passenger
hunger
films
fascists
characteristics
alert
##Y
secretly
relatives
pause
orgasm
orbit
inflation
hourly
horribly
guest
balanced
angel
Ya
spider
sighed
shits
questioned
grandpa
Reminds
statute
resist
practice,
painted
movement,
funeral
cholesterol
candidate,
UN
Netflix
Full
CIA
10k
proletariat
predictions
homework
crashed
computer,
accident,
Voting
theoretically
points,
fist
churches
Central
yearly
trace
theirs
memes
desert
centers
S
Easter
weaker
technologies
shops
median
exposing
etc.,
courage
atoms
addition,
Working
Spain
##...
throws
tearing
soldier
sexist
promises
folk
discount
synthetic
socioeconomic
seller
minded
illnesses
feasible
boomers
blast
C.
worries
v
tremendous
stigma
r
fetus
exploitation
clever
carpet
bell
Mother
syndrome
symbol
semester
realization
premiums
p
maintained
insulting
impressed
fleet
fitness
disingenuous
das
Speaking
Knowing
woman's
visa
saves
pursuing
peanut
glowing
facebook
cured
cousins
complications
charity
armor
[EU]
Calling
CPS
leap
brave
belly
believe,
Vietnam
Street
Peter
Illinois
3%
(such
shove
resting
makeup
cardiovascular
bills,
Young
sources,
rabbit
pouring
idiotic
availability
Thomas
street,
specialized
socialist,
skilled
overtime
WITH
Change
Asia
##ING
who,
rat
overwhelmingly
facts,
“Oh
w
locks
commute
Company
waved
rifle
flowing
bullying
average,
America's
##id
##ble
tolerate
suited
mutually
lobby
contrary
Around
##he
would,
therapeutic
mold
call,
Office
whites
shrooms
obtained
luck,
contractor
asses
termination
ours
flowers
evil,
encountered
binding
##nd
##as
upvote
c
attributed
Isn’t
(she
technology,
pumping
mathematical
m
deductible
cost,
coke
chips
buddies
Recently
sympathy
swimming
layers
bearing
assured
*really*
##ally
starve
quicker
productivity
molecule
drastic
commented
briefly
alleged
actions,
Reddit,
##z
versions
stretched
shelf
institution
gradually
Thursday
CAN
"Your
willingly
unhappy
threads
suitable
robust
qui
popping
jury
hormone
fatal
coping
been,
Unlike
premium
medically
liar
flags
Australian
thermal
start,
is..
involved,
cattle
script
regulatory
presents
mortal
lost,
english
dire
available,
Bernie’s
owes
dancing
convention
Eventually,
trends
rescue
jealous
irrational
heaven
dream,
difference,
Please,
Mostly
##L
van
panicked
monetary
americans
“How
notified
lined
inherited
dish
artificially
Lets
##you
shoved
reset
pleasant
jack
farther
ants
"In
##R
supplement
mixing
fifth
converted
clothes,
bucket
applicable
advances
VA
Often
Nancy
swallow
spicy
reviews
psychedelic
lake
generous
confused,
bold
a)
Sanders,
territory
screening
presenting
passed,
nine
airlines
Needless
1-2
strong,
representing
oppressed
exercising
building,
Suddenly,
President,
##less
tuition
significance
requests
older,
heart,
gladly
flower
elevator
Somehow
MAGA
whole,
thread,
smallest
relaxed
regional
lining
differ
des
crashing
coronavirus,
cart
branches
weed,
sugar,
longer,
examined
carries
calculated
bullied
[the
&gt;We
tests,
surplus
settlement
nutritional
mysterious
molecular
horrific
echo
conversation,
Through
"how
wage,
sometime
palm
mentioned,
loss,
lethal
draft
cursed
attitudes
Instagram
wtf
event,
efficacy
boots
lands
enact
embarrassment
contribution
commission
buys
Carolina
##P
##ts
y'all
reader
projected
military,
exceptions
sensitivity
opponent
improvements
ideals
circles
accomplished
London
International
Christ
32
devil
defining
declined
debates
atmospheric
Soon
Depression
supplements
references
punched
morality
mindfulness
methodology
ladies
frustration
foster
Mexican
Different
tension
monitoring
mail-in
hammer
fasting
edited
cups
b)
revenge
married,
dying,
country's
bosses
They'd
Made
"There
psychiatric
prevention
patent
lord
BE
##at
youngest
unprecedented
heck
deaths,
beg
Service
90s
&gt;So
writing,
wolf
sizes
shout
semi
quantity
kissing
has,
harmless
company's
black,
aging
acknowledging
(just
prevalent
password
parallel
manipulated
distract
Virginia
Center
18,
writers
started,
stake
sing
overnight
measurement
inflammatory
grid
circumstances,
scales
comrades
check,
changes,
bro
attending
WAS
Therefore
Force
15%
you"
unlimited
march
grin
get,
formation
beats
##s”
tell,
statement,
some,
longest
intentional
indicator
eye,
approaches
albeit
(by
&gt;It's
so-called
rallies
membership
founded
fight,
condoms
accuracy
Greek
toddler
privileged
prey
indicating
flames
expressing
dangers
Space
Sam
L
AT
##-like
metabolic
equipped
emailed
dosage
contract,
Southern
See,
Labor
"it
sister,
reproductive
patch
influenza
factors,
enable
economies
dishonest
contracted
abuse,
Rather
Quite
Family
Eastern
surviving
prominent
narcissistic
misunderstood
matches
concentrated
actually,
Paris
48
witch
thankfully
systems,
sealed
repairs
medicare
lap
cycles
clearing
75%
-&gt;
uneducated
shocking
morons
meets
logic,
lecture
launch
highway
hardware
attract
So..
1/3
signature
sad,
reproduce
insecure
empire
criticized
corrected
Thus,
Nor
stress,
strategies
expertise
ensuring
eager
alright
time)
stability
separation
rubbed
reddit,
physicians
instinct
index
fragile
dug
debating
crystal
crowded
communicating
Studies
wrist
routinely
positively
observations
existential
drunk,
chains
Similar
End
##ist
smart,
shower,
respected
necessary,
mountains
headphones
donated
Oregon
Church
2015
witnesses
wiping
warmer
slowing
launched
guests
breach
Dominion
County
Burr
stack
manual
lithium
induced
altered
Thought
Thinking
Private
(see
tore
tactic
stall
shutdown
revolution,
quitting
mandated
drink,
democracy,
addresses
Society
Meaning
Italian
Irish
3,
*and*
slightest
rep
freezing
eliminating
brainwashed
Wish
RNA
"I've
scenario,
rounds
intensity
degree,
close,
WAY
twin
sheets
promptly
plates
investigating
guy's
felony
endorsed
dogs,
distinguish
amazed
administrative
Scott
talk,
report,
mechanics
lip
goes,
engineers
disclose
climbing
anyone's
Hi,
(unless
"good
"Just
uniform
trillions
slice
precedent
lump
dangerous,
damage,
concentrations
comply
Bitcoin
poisoning
oven
inspection
expectancy
desired
bee
Point
Mind
DOI:
sigh
rings
privately
prep
editing
ecosystem
baby,
(1)
##n,
waving
unsafe
hydroxychloroquine
girlfriend,
asymptomatic
"well
shot,
sentient
louder
depressing
delivering
complexity
Tara
Ben
10,
validity
surgeon
nap
interacting
contagious
align
Yet,
O
ICE
##**,
wow
worded
team,
shadows
plants,
monopoly
masters
legislative
force,
flies
eastern
confronted
stories,
melting
legal,
EDIT:
Contact
(I’m
“Well,
“A
seen,
relieved
rampant
psychiatrist
paragraphs
manufacture
both,
Korean
pops
organism
offspring
hers
etc..
chooses
catastrophic
attorneys
Revolution
2018,
therapy,
terms,
other's
meters
factories
convey
committee
cock
celebrate
biases
20s
##not
veto
tomorrow,
state's
recommendation
melt
lighter
dictate
bothers
acceptance
TL:DR
LGBT
richest
receipt
oils
fortunate
exists,
chase
21st
##tion
spreads
rates,
personnel
likely,
employees,
SCOTUS
Power
protects
or,
levels,
headache
d
citing
aggression
Germany,
students,
neat
lightning
dioxide
dialogue
accounted
Senators
Media
Age
paused
oppression
heated
dealership
cause,
america
alcoholic
##man
whatsoever
vaguely
popularity
midst
laser
Question
Certainly
ultra
purposely
mixture
interrupted
forests
foolish
exploring
"What's
sections
program,
pose
everyone’s
communists
algorithm
Yesterday
Arizona
violated
trip,
sucks,
shining
resolution
realistically
probation
journalist
involvement
grants
Yea,
sanders
philosophical
make,
lists
collectively
clip
carb
arms,
Must
Here,
He'll
American,
seasonal
replied,
g
daughters
senses
rubber
kind,
episodes
Russians
Justice
Florida,
participating
observing
grammar
environments
deed
container
artists
analyze
acquired
Reagan
Cold
trucks
squeeze
resolved
releases
recognizing
promoted
plugged
planes
distance,
Earth's
wire
websites
skull
opt
importantly
grave
discipline
detected
chapter
bailouts
anal
replicate
intimate
illusion
devastating
depressive
boundaries
bothering
splitting
passionate
lyrics
imaginary
download
compensate
colour
certainty
cents
c'est
ain’t
STILL
Los
Lol,
DID
unwanted
swallowed
highlight
glow
exploited
Living
FUCK
##um
slowed
flooded
channels
bitcoin
bible
Tax
verbally
training,
labs
harassing
compelling
coherent
appreciated
##\\]
“You’re
sport
spelling
shave
proposing
judged
interfere
fitting
Rule
NASA
##,000
sons
rushing
receptors
products,
adult,
WHAT
THEY
Normally
Mary
Help
Believe
…
unclear
surprise,
resume
reputable
proceeds
measles
children's
1:
##ch
specialist
slapped
screwing
pepper
par
me)
manufactured
investments
highschool
Leave
(e.g.,
(The
soup
hobby
borrow
(2)
watches
unpopular
transgender
soy
seconds,
scenes
passion
pan
negligence
jeans
implication
Worst
Thus
M
##ED
##ian
“you
tumor
socialized
recycling
puberty
partner,
newspaper
lacks
continually
underground
streaming
pissing
oceans
mandate
distribute
dictator
compromised
chamber
120
(it's
##***
travelling
slowly,
postal
populated
play,
linking
knight
f
earlier,
direction,
correlate
borderline
700
##ive
terminated
subject,
sensible
nazi
messaged
manipulation
indigenous
confront
backup
[This
Russia,
##B
pillow
hesitant
hardcore
grams
escaped
bipolar
appealing
MORE
Fed
24/7
toe
mistaken
contents
bow
activity,
Secondly,
Alabama
weekends
shipped
packages
manages
grabs
dumping
desk,
classroom
Want
Lmao
Amendment
should’ve
professors
inaccurate
dads
continuous
construct
blacks
banking
Found
##ck
solution,
repercussions
changed,
cancers
attack,
Suka
IMO
optimal
mystery
immense
drone
disturbing
defeated
CCP
(maybe
tasted
reflected
fatty
bin
Northern
IP
EPA
Blood
'I
willingness
tradition
matched
Tifu
Humanity
&gt;There
trump,
schools,
red,
mayor
lies,
introduction
flipping
extinct
ecological
delicious
con
chloroquine
AS
sound,
shoe
razor
outrage
lobbying
craft
adoption
adapted
J
Defense
rented
nails
hazard
Republicans,
IV
(one
present,
dynamic
dumb,
discredit
daycare
challenged
bs
Obviously,
Home
veggies
utilities
speak,
smile,
possibilities
one’s
investors
farmer
faded
critically
copper
broadcast
Consider
Administration
##ous
sliding
sexuality
explosion
eternal
classmates
bio
##ie
trusting
transaction
microwave
employ
confuse
commenter
clown
Pay
Father
(assuming
“So
viewing
tracks
tour
shallow
scale,
requesting
portal
necessity
honey
gifts
flush
contacts
century,
boiling
b
W
"why
tale
loyal
fats
equate
doomed
bury
blog
Johnson
Ebola
##F
tribe
that'll
flame
exempt
du
cringe
Sadly,
upside
speculation
singular
residence
reading,
protocol
probable
nowadays
hospitalized
eliminated
elections,
booked
36
swung
sir,
serious,
nudes
knew,
digestive
##—
that..
reflects
purposefully
payed
intensive
integrity
https://www.youtube.com/watch?v
dishes
automated
attended
Muslims
Giving
sessions
realizes
jet
fuck,
domain
concluded
apps
worked,
teacher,
schizophrenia
downplay
banana
absent
##O
wolves
originated
illness,
elevated
chest,
attraction
apartments
Rights
Car
Asking
virtue
substitute
skipped
hurt,
harvest
cloth
attribute
##K
physiological
mg
dopamine
convenience
tweets
smoking,
kits
echoed
dominated
cans
Thing
##“
wonders
waters
specifically,
smear
ship,
restore
pumped
memory,
knowledgeable
gas,
commitment
attorney,
allegation
Mass
80s
vomit
triggers
scar
fusion
contributes
accidental
They’ve
Id
und
strings
skipping
sincerely
recovering
pilot
options,
masks,
fines
civilians
citation
911
50/50
“Why
re
primary,
living,
fabric
distress
closed,
but..
We'd
Child
##r,
sodium
researched
reacted
rated
navigate
knowingly
framework
es
dumbest
departments
childish
cheapest
Saudi
Prime
November,
2012
"but
suicides
religions
provision
momentum
immoral
i'd
hormonal
bullshit,
Institute
##s'
winner
talent
sanctions
prevalence
neurological
mildly
guessed
furniture
exponential
congressional
cocaine
chance,
buyer
bred
Tesla
Simply
1500
(also
##ing"
voluntarily
unemployment,
shade
outer
malicious
malaria
kingdom
introducing
dull
Learn
Chris
3D
##based
speech,
purpose,
greeted
favour
entities
engineered
cellular
break,
box,
bastard
asshole,
Jeff
GMOs
"Who
stabbed
sensory
prompts
micro
incidents
curious,
confirming
brushed
Conservatives
subset
sheep
influences
addicts
Universal
USA,
Republic
Al
(of
undermine
puppy
plasma
noticeable
lighting
immigrant
forum
feelings,
events,
enforced
climbed
bar,
acknowledged
Four
Among
Alzheimer's
(on
“My
zombie
sweeping
solidarity
scroll
reckless
prop
potatoes
passage
milk,
exploded
emphasis
duties
disgusted
diagnose
chatting
[Here
DMV
"don't
“No
usual,
underestimate
spun
satisfy
respective
profound
inefficient
generating
continuously
conflicts
##N
transparent
reveals
reacting
kissed
idiot,
hopeful
daughter,
athletes
Wednesday
Virus
Beyond
stuffed
specifics
rant
provisions
pressure,
possess
hospitals,
crushing
common,
NHS
France,
Christianity
“That’s
simpler
scares
poverty,
encourages
Remember,
Marxism
understanding,
student,
rooted
pig
invent
efficiently
dorm
campaign,
barriers
JUST
BMI
3000
180
up"
trailer
supplies,
precautions
planted
midnight
metabolism
lying,
lbs
here’s
contradict
classes,
Cannabis
A.
well-being
voting,
uh,
this..
prescribing
location,
equation
driveway
detective
daddy
caloric
accommodate
Ted
Amy
serotonin
relating
mini
kidding
decision,
cheap,
Democrats,
socks
reserve
rank
petition
feared
bonds
bombs
bans
Disney
55
wishing
typed
trees,
tire
tables
insisting
administration,
Legal
yo
upwards
onset
edibles
details,
aggressively
Sarah
##00
##d,
sky,
passport
it;
hypocrisy
googling
disorder,
disagreeing
chinese
assertion
appointments
##ia
withhold
harming
demographics
S.
God's
Batman
&gt;He
withholding
unfortunately,
top,
surge
musical
jar
constitutes
base,
Technically
Fake
port
kitchen,
corpse
birth,
backpack
Solar
POTUS
Kill
It'd
Frank
(except
politely
labels
focuses
dreaming
J.
Eh,
woken
thorough
prescriptions
oddly
mall
interest,
info,
independently
implementing
hyper
hoarding
empirical
compassion
(where
tubes
transplant
rope
prank
morals
math,
leaked
interference
effective,
browsing
brick
barrel
bag,
aircraft
Cancer
yeast
wears
teeth,
tanks
swept
running,
downvote
chair,
cashier
asset
Low
K
Britain
*that*
responsibilities
printing
noises
movies,
doubled
cardio
wakes
uncertainty
skinny
prisoners
driver's
definition,
capability
boil
asthma
You’d
Parents
supporters,
slam
quantities
fulfill
dildo
curb
combine
angry,
Australia,
"in
##so
summoned
rang
praising
intelligence,
government's
e.
beard
Venezuelan
Obama,
H
Europeans
(probably
##ge
transit
sufficiently
publication
link,
jumps
gravitational
drive,
delusional
clean,
amazon
Live
Friend
Aside
votes,
smashed
practiced
linear
legacy
exercises
exclude
decay
debts
campaigning
Anyways
1.
##ar
rule,
occupied
doubling
cities,
bears
acquire
Communism
(i
systematic
sun,
specify
se
said:
obviously,
model,
merit
lawn
fifty
dip
development,
cat,
born,
NEED
Millions
Henry
"to
"*
violently
presentation
potato
mud
improves
forever,
dismissing
crawl
colored
cautious
TLDR;
Sun
Rick
HK
(since
warehouse
tragedy
reply,
fired,
expired
darker
CEOs
0%
staff,
pneumonia
niche
nerves
nation,
labor,
infinitely
hotels
further,
enthusiasm
cracks
billing
(n
tackle
skewed
shaving
security,
outta
graph
gov
faster,
equipment,
cracking
Companies
unite
understandable
theyre
these,
tended
similar,
publishing
forbid
explanations
dive
definitive
condition,
builds
bounce
anyways,
Gates
4)
tricks
shouldnt
pathways
horses
heavier
emerged
else’s
atleast
TIL
suspicion
subreddits
silently
satisfying
norms
ineffective
fiance
contributions
OK,
HE
Article
5000
##ing,
those,
tapped
psilocybin
predators
populace
immediately,
falsely
exploiting
directions
concentrate
coincidence
centre
boobs
arm,
address,
English,
Completely
4-5
(usually
##ted
vent
unpleasant
somewhere,
platforms
hot,
Tim
Sweden
Modern
Jones
Eating
Drug
A)
20,
##et
wheat
sway
survive,
salad
metals
hoax,
co
basics
act,
Title
TV,
Democracy
4,
striking
profit,
priorities
nationwide
messy
machine,
journalism
exceed
determines
communications
baked
Moreover,
Far
Elizabeth
Dear
relates
patience
opponents
it:
googled
creator
connecting
cage
*you*
##ns
suburban
speakers
seal
rigged
relationships,
nude
modify
like..
liberty
foods,
citizens,
cent
Short
Council
“Oh,
unfamiliar
terrible,
tattoo
me..
housing,
excitement
cotton
anime
agreement,
Satan
Dave
Damn,
5,
“No,
wreck
overthrow
manufacturer
laughs
frantically
decisions,
II
COVID-19,
utilize
unrealistic
travel,
tired,
taxpayers
smoke,
panicking
kicks
grace
fortune
comic
boss,
Presidential
Iowa
workforce
vaccine,
smartest
price,
polar
notify
negotiating
husband,
donor
conversion
considers
bases
achieving
Enjoy
E.
(when
##ine
“Don’t
virgin
survivors
reactor
praying
nod
fried
colony
Putting
Person
Barr
sexism
murdering
logically
lines,
feeling,
database
binary
Obamacare
Cut
##--
yea
triple
taxing
quarantined
harassed
breastfeeding
bites
KNOW
Italy,
Guy
B)
2.
“Do
removes
receives
parties,
incentives
gallon
effort,
dunno
disproportionately
disagrees
claims,
causation
blue,
Vice
Deep
&lt;
##.."
##t,
y’all
sustained
stripped
seat,
leaking
just..
ie
credits
administered
SARS
20,000
universally
unconscious
ringing
referencing
flashed
downplayed
advantages
Total
##ling
tricky
particular,
melted
matching
executed
deer
costing
constructive
coconut
clerk
award
appearing
addict
Jane
Fire
Cuban
Apparently,
wholly
steak
seize
honesty
feel,
disprove
decreasing
STEM
&gt;They
username
turn,
racism,
marine
grains
gates
disagree,
differentiate
cookies
coffee,
burger
Texas,
*are*
“a
trivial
specified
screenshot
people"
passengers
nicer
loans,
livestock
leader,
fish,
firms
finances
extending
deaf
cures
counselor
corners
character,
basically,
adjusting
Third
Notice
29
“we
yours,
stab
simulate
residential
radioactive
predator
mighty
hearts
essay
compatible
blonde
bid
backyard
Wasn't
Tried
(more
variations
theater
stones
salaries
renewables
prioritize
pity
electorate
donating
discussion,
come,
coins
basketball
outdoor
man’s
jurisdiction
coming,
businesses,
##.html)
##ss
wealth,
titles
teaches
spotted
outdated
opiates
multi
lightly
it’d
commander
amount,
Vitamin
Link
G
Carbon
2010
"Thank
##de
willfully
updates
sympathetic
situations,
parks
ne
microbes
journals
flaw
eine
discharge
cord
compliance
York,
Mar
31
(And
writes
site,
shiny
segment
secretary
locker
designated
decreases
conveniently
constituents
Kavanaugh
try,
surgery,
sugars
strategic
sciences
panic,
mob
message,
mega
margins
infection,
independence
eventually,
creep
coupled
composition
basing
Ukraine
Kentucky
January,
Data
Common
violations
smoker
refusal
nightmares
needs,
mercury
loud,
interests,
abundance
M.
Luckily,
GI
"All
##est
vibrator
skills,
preventative
lifelong
he/she
fog
exponentially
entertaining
districts
complex,
AC
voluntary
urine
thrive
spilled
spiders
simulations
seriousness
scattered
minus
insect
favors
electing
busted
beautiful,
Five
warp
verified
sworn
scratched
queen
occasions
notification
infants
deck
you..
valued
tightly
statistic
simulation,
profession
mailed
list,
french
fatality
colleges
boyfriend,
apology
Send
Maybe,
##ed,
vessel
thereby
stretching
ruins
priest
orientation
measurements
handles
exhibit
engagement
difficult,
accountability
slow,
preparation
potent
pork
paid,
obvious,
nuanced
mechanic
innovation
indirectly
ideologies
enforcing
chart
adults,
They’ll
SC
Anti
##er,
world’s
static
ranked
racists
preventable
impossible,
imagination
essence
enters
bleach
bats
Light
Bay
##ate
scent
saturated
retire
reforms
packing
gender,
edges
demonstrates
co-workers
bands
always,
activated
abroad
NRA
Flu
##ed"
programmed
pm
invade
dollars,
considerably
cheer
Z
Open
FMLA
summer,
shattered
outbreaks
leasing
frankly,
catches
bust
amazing,
V
ALWAYS
8th
2009
suspend
stubborn
shortages
predicting
mail,
found,
ein
downside
contradicts
Mueller
2/3
wax
wary
uni
promotes
pretended
person’s
lick
fictional
cries
Gen
Came
Business
pursuit
nuance
notices
lid
iPhone
cheeks
buck
Rand
Karen
Exactly,
Buy
"do
“Well
zu
unstable
sorta
re-election
prolonged
me"
listing
induce
hole,
hairs
froze
finite
didn't,
bullets
banging
accurate,
Mao
Germans
trades
tipping
threatens
stopped,
smelling
sadness
protesting
preferences
portions
penny
league
individuals,
enjoyable
arrogant
announce
Lost
Him
Education
Cool
yoga
warmth
spine
return,
respectful
properly,
meter
lube
loyalty
legalization
heard,
genre
forehead
favorable
doubts
defines
crawling
conviction
Hello,
2014
sugary
subreddit,
picture,
manager,
legislature
gifted
deliberate
computing
breakthrough
beliefs,
aligned
Workers
Eat
3.5
v.
touches
summon
suicide,
stereotype
plead
pension
outweigh
logistics
laugh,
l
insignificant
discovering
discourse
declaring
chick
asleep,
amino
You,
Hold
"So,
thc
spark
remainder
permitted
matters,
joe
gum
goodness
flooding
considerable
bailed
Granted,
swim
responds
overseas
overdose
nutrient
minute,
knows,
incidence
custom
accompanied
St.
Nearly
Harvard
Current
Conservative
&gt;the
"Can
##me
wages,
terminal
so..
sip
richer
relaxing
imposed
gasoline
gaps
est
dripping
cooler
qualities
pricing
motive
comedy
algae
actor
Labour
Happened
women’s
viewers
tax,
sketchy
remedy
referenced
nose,
intellectually
immortal
heat,
fade
expects
citizenship
advocates
Turkey
traded
tomato
maternal
halt
format
forgiveness
fifteen
elites
conferences
Says
MRI
Intelligence
surveillance
studio
status,
smiles
probate
impose
film,
feeds
dinner,
concerned,
colleague
canceled
basis,
Political
Ice
tower
thier
olive
marriage,
lol,
destroys
charge,
OPs
Alcohol
transmitted
reversed
reserved
punching
packs
fraud,
earnings
disinformation
calmly
bacteria,
arise
wizard
subsequently
safety,
ramp
product,
penalties
humble
hears
dressing
delaying
chess
2017,
"We're
somehow,
reopen
liquor
fallacy
faith,
fairy
evicted
discomfort
den
cheek
baseball
asteroid
Martin
Further,
Early
"fuck
##ut
vegetable
surgeries
rumors
ripping
pussy
primitive
plea
occasion
everytime
earliest
background,
agreements
Professor
##ent
transmit
supernatural
sibling
rebuild
readers
psychotic
poorest
hunter
float
epic
deceased
cosmic
boom
bipartisan
Deal
"When
“oh
take,
straight,
regarded
mates
masturbating
mammals
guitar
flexible
fiscal
experiences,
excluded
engines
dragons
dick,
corporations,
consists
categories
6th
##-based
##ke
ventilators,
uninsured
throwaway
logged
fills
docs
codes
carriers
betting
Side
##sh
tuna
tribes
refute
psychologist
if,
faulty
evident
equity
dicks
cluster
Liberals
30s
10x
##h,
“Are
short-term
restriction
prisons
inject
infecting
hurry
girls,
gay,
coastal
clinics
brushing
beginning,
apart,
“They
toxicity
textbook
rotten
racing
loser
insured
families,
crippling
bull
authorized
appoint
HUGE
twice,
tracked
tall,
restricting
refined
punishing
pre-existing
naming
legality
kindly
interviewed
declining
da
automation
Wars
EVERY
2,000
unfit
seeming
sack
princess
downtown
careers
Simple
Q
FDR
website,
warfare
translation
tendencies
monkey
manipulating
globe
diagnostic
broken,
Used
Socialists
Couldn't
19th
(This
waist
undo
rig
reminding
refugees
neglect
how,
herself,
gambling
family's
extraordinary
claws
board,
altering
aiming
Wonder
Whereas
Weird
Orange
solo
relieve
rejection
names,
massage
last,
divine
despise
bait
NSFW
Ireland
Class
200,000
(some
varied
tragic
medication,
learnt
jargon
inspector
horrified
girlfriends
executives
disposable
conflicting
condescending
beers
arts
Outside
FB
Employer
Brazil
"normal"
unlocked
rises
maximize
left-wing
kindness
indicative
hotter
desirable
confounding
bias,
William
Neil
Haven't
Chief
##(
standardized
renew
praised
next,
medicines
households
horizon
anywhere,
Ron
N95
CT
(most
“what
reps
phrases
lowers
informing
fulfilling
for-profit
footsteps
debate,
dealers
belongings
batch
aware,
Yep
Byat
(both
wounds
rigorous
pleased
hygiene
gig
fringe
drowning
donation
UV
H1N1
Dutch
unlock
tho,
sprayed
prediction
pigs
magazine
immature
homes,
herpes
half,
governing
gigantic
escalate
digest
deleting
withdraw
tense
swore
subsidized
sticky
positive,
pesticide
hack
freshman
fastest
color,
casting
cardiac
cabin
buzz
beloved
atheist
Mississippi
1,200
**The
'the
yr
trouble,
surface,
suffers
ritual
programs,
pregnant,
nicely
inspire
guts
enacted
displayed
criticisms
cohort
bacon
Master
Emergency
30,000
"that
"Come
vaccinate
sighed,
relied
ranks
projections
pole
pie
mosquitoes
metrics
martial
lifespan
diseases,
contracting
co2
co-worker
##to
weights
upvotes
sorted
should,
royal
puppet
projection
populist
mock
junior
growth,
galaxies
folded
fiancé
email,
coach
Yang
trolling
them)
swap
speeches
slush
redditors
lunch,
lens
interventions
individually
impeached
helicopter
establishing
environmentally
designs
composed
caution
calculations
boils
autonomy
Unemployment
Uncle
Pro
Along
A,
15,
translated
squad
rape,
raging
oh,
numb
mention,
limbs
grief
drill
chin
betrayed
associations
accent
Order
Dogs
Corporate
72
##s*
tripped
song,
settings
individual,
incoming
footprint
filters
ditch
clicking
clarity
Typically
(about
"good"
weakness
traditionally
throat,
snack
slim
sin
sickness
owner,
material,
indoor
drown
costly
contempt
concert
Seattle
Pacific
(ie
(after
vocabulary
husband's
hugely
historic
eternity
duck
difficulties
defense,
assert
assembly
apologies
any,
Norway
Know
Daily
"Of
unbiased
implementation
dread
disgust
Pandemic
Listen
tinder
tested,
tangible
storing
steadily
shoulder,
shoes,
quoting
pressured
photons
nephew
invaded
inflated
hostage
fur
floors
false,
drones
compensated
atom
This,
NC
Daniel
"Then
##:**
tent
shelves
reinforce
producers
planting
paths
notable
navy
lottery
jerking
hybrid
helmet
goodbye
flashing
filthy
directly,
delicate
career,
abnormal
Sir
CBT
Bank
70s
1/4
*do*
worthwhile
who've
turkey
station,
spam
shape,
sarcastic
remembers
prosecutor
promotion
innate
ingredient
constitute
bragging
auch
analyses
30,
*in
wildlife
wife’s
whisper
twins
satellite
pisses
page,
packaging
overlap
ounce
male,
keyboard
glaring
dinosaurs
developmental
assign
as,
Sad
Mrs.
MUCH
Indeed,
Energy
El
Edit
*the
"Did
worth,
resign
progression
pocket,
holidays
h
guardian
electronics
depths
continent
Feb.
Disease
Control
"my
venture
stray
stacked
smash
share&amp;utm\umedium
scratching
projecting
noble
meanwhile
humanity,
hope,
guided
failure,
dining
depressed,
collections
called,
admission
7th
warranty
vax
trickle
tipped
taller
sour
scans
only,
nominate
hear,
envelope
distraction
dimension
consciously
compelled
caps
brands
ankle
adequately
Telling
Night
NJ
Dragon
younger,
throne
she’ll
purchases
posters
opposite,
operates
lanes
influential
eventual
discourage
classify
bleed
Rich
Fortunately
##v
worst,
starvation
son's
soaked
proposals
presume
porn,
popcorn
politicians,
pistol
newborn
neck,
facilitate
affairs
Gun
Boston
*any*
“Yes,
walls,
suspension
scared,
landscape
infected,
follow-up
fathom
factually
constructed
canned
Truth
Marijuana
50,000
"Now
##ter
wanted,
vaginal
quiet,
fail,
endure
emotions,
electron
bout
assignment
WHY
(aka
wiki
wandering
stove
speeds
rightfully
recognise
parent,
niece
horrifying
fools
emerging
biologically
bartender
and..
aisle
Smith
Sanders'
;
"all
stupidly
speed,
protesters
obscure
injected
i'll
homicide
gram
furious
electrons
dryer
credit,
closer,
admit,
Wife
Ultimately
Similarly,
Haha,
FL
10-15
!”
whichever
vitamins
travels
slipping
receptor
reactors
pass,
parents'
nazis
independents
hateful
gym,
finally,
explode
example:
drift
disrupt
comparison,
anecdotes
alleviate
adrenaline
Whoever
Somebody
Moscow
Harris
Growing
Further
threat,
stares
outlook
out"
mosquito
lend
known,
bay
Learning
B,
(Not
##o,
“That
sums
slippery
pathway
migration
lil
ich
drawer
deadline
creators
content,
War,
Natural
Max
##out
subconscious
spinal
secrets
members,
limb
lame
impact,
gen
economists
eating,
demonstrating
coordinated
Save
Pennsylvania
Name
Enough
“no
vessels
suit,
rather,
myriad
magic,
fraudulent
framing
edible
draws
autism,
attach
anecdote
I.
Coming
*all*
"Good
##G
uninformed
sweating
stamps
robbed
rewards
reference,
pulse
k
incorrectly
framed
feminine
drained
bank,
Zero
TLDR
Hot
Hospital
(i.e.,
tub
tree,
tifu
suppressed
sidewalk
sake,
legalized
leaf
injection
fond
existence,
enthusiastic
chilling
ash
along,
Senate,
Massachusetts
India,
"they
weak,
tenancy
sterile
sister's
operated
mistakes,
execute
detention
chew
awarded
algorithms
LLC
Feinstein
Down
19,
(all
vicious
thanked
shorts
scrolling
reserves
prohibited
marginal
machinery
hypocritical
husbands
feminist
cereal
cash,
biting
arrangement
Report
ML
Jason
50k
weekend,
visibly
vile
sleepy
residency
pressures
letter,
grossly
friend’s
enabling
destination
contractors
Ontario
Granted
BC
Asians
5-10
*very*
success,
scanned
replication
pairs
modest
mocking
maps
highlights
exactly,
endorsement
confirms
child’s
centered
behind,
Korea,
Brown
"get
##we
##one
##ey
une
tribal
swinging
strength,
singularity
proximity
predatory
patient,
legs,
expert,
contaminated
contact,
bind
We’ll
Code
"hey
taxi
seizure
r/politics
negligent
ladder
instrument
expected,
exotic
emission
doom
blinked
activate
Nixon
Multiple
Hospitals
CRISPR
10th
##os
shapes
persistent
mankind
locally
licking
concessions
capabilities
Moving
He’d
DUI
5k
34
33
transported
towed
text,
tariffs
strive
spirits
ol'
murders
keen
je
formally
feds
correcting
blunt
bless
bargaining
awaiting
announcement
Tucker
Large
Canadians
##no
trust,
surfaces
spy
shrugged
shampoo
screen,
prize
predictable
newest
instructed
harmed
goal,
crude
comforting
bush
broadly
Told
Services
GET
Executive
inept
famine
diabetes,
curled
cats,
Regarding
Netherlands
Mental
Magic
Corporations
&gt;As
##my
wheels
whales
weapons,
testimony
tab
step,
hobbies
fold
fecal
corrupt,
copied
clickbait
cervical
castle
appeals
advancement
Who's
Ill
trolls
terrorism
stems
soul,
shop,
retrieve
pipes
oblivious
full-time
folks,
fall,
coverage,
ally
Soviets
"he
von
tl;dr
supermarket
overhead
one)
mushroom
mother’s
mean..
gauge
enjoys
deployed
concede
acids
Wouldn’t
Uh,
Tinder
Hes
Explain
Einstein
Brain
underage
spot,
sponsored
counseling
cookie
converting
consulting
bald
Including
weighing
therefore,
prayer
killed,
hopped
discriminate
creativity
collision
clueless
choices,
chickens
Thankfully,
MSNBC
CO
##ow
vodka
unity
tunnel
ready,
nodded,
narcissist
misread
millennials
employee,
debris
brother's
atmosphere,
anarchist
adopting
Section
Grand
Economic
Dan
4000
&gt;How
worms
whining
undoubtedly
smiled,
rest,
renters
proxy
people)
litter
gesture
gag
folder
eyed
deficiency
centrists
antidepressants
##H
“I’ll
sacrifices
hollow
foul
determination
analysis,
WANT
Politics
Jimmy
Arthur
"you're
yields
ward
terrorists
subway
stated,
sentence,
respect,
parts,
parameters
grasping
floated
entertain
diabetic
colder
bidding
asking,
apologizing
Type
Party,
Park
Few
##up
vapor
regression
rail
purse
noise,
mattress
imaging
dunno,
consciousness,
array
Klingons
38
##W
toilet,
squeezed
restroom
ranging
mouths
girlfriend's
educating
detection
debit
costume
contradiction
comp
beaches
af
abide
SS
Military
MS
##if
vehicle,
taxation
spewing
scientists,
peer-reviewed
now)
non-essential
neighborhoods
mercy
integrated
inadequate
fetish
dynamics
drinking,
democratically
correlates
conditioned
chuckle
ce
awkwardly
Write
Watching
Trump:
Top
Stephen
Puerto
Essentially
Against
*can*
that'd
slamming
rot
notorious
lone
glimpse
fled
evaluation
entangled
driving,
circular
atomic
apocalypse
abortion,
abolish
Hate
wager
twisting
tourist
titled
tapping
stumble
spells
since,
propaganda,
piercing
pains
painfully
outlined
masculine
indirect
heater
dual
doubt,
devoted
btw
bolt
bathrooms
Oil
Freedom
Don
COVID19
Africa,
"Where
##&gt;
##just
yourselves
winds
undergrad
uncertain
tucked
obsession
meantime,
markers
learn,
laughed,
it),
interior
glue
enjoyment
cynical
clearer
can't,
calendar
accommodation
Francisco
"Let's
“this
you,"
vegans
twelve
succeeded
reliably
muttered
into,
edit:
disconnect
battles
Round
Joker
Finding
Dead
Charlie
1k
16,
##ding
wipes
vivid
thesis
talking,
surveys
sinking
shooter
safest
oppressive
helpful,
function,
discord
combustion
Weed
Progressives
DSA
350
##000
wired
terminology
tales
recipients
judicial
insults
founding
exaggerated
defendant
contrast,
breeds
anger,
Us
Ms.
MSM
Liberal
"As
thoughtful
spouting
single,
rivers
rested
removed,
measurable
incomplete
hungry,
hrs
horrible,
galactic
exceptionally
disparity
defended
dared
barking
atrocities
arriving
ahead,
admittedly
Ex
pounding
parent's
inferior
hit,
grounded
globally
def
dawn
crawled
begged
Sleep
Overall,
Moon
Michigan,
LGBTQ
30k
"Okay,
watch,
volunteers
structured
recommending
rap
outrageous
men's
insert
fluoride
exchanged
exams
desires
cut,
cooperation
choking
bodies,
bladder
advisor
Major
Halloween
HOW
Fortunately,
Bring
Boomers
3x
##sing
straightforward
stimulate
spoon
spiral
rob
powers,
hierarchy
evening,
differing
blessed
beta
W.
GP
"There's
weighed
stir
secured
metro
masculinity
graphic
emergency,
downright
dash
corner,
circumstance
analyzed
Stupid
File
##ess
verge
tbh
sweep
surrender
stain
rinse
perpetual
peeing
million,
joints
glyphosate
erase
effected
develops
concept,
chewing
bouncing
angels
Me,
Keeping
##(s)
years)
wander
translates
subjected
shaming
shakes
rotting
rewarded
r/science
multitude
glorious
formatting
female,
fallout
cues
collapsing
boomer
boards
Washington,
Per
House,
Anybody
America’s
(there
##tic
suppressing
similarities
silence,
remarkable
reelection
pasta
kit
jokingly
hosts
fingers,
easily,
deep,
crashes
colonies
church,
appetite
Off
w/
unified
transactions
talented
stoned
spoiled
rotation
prosecute
profiting
pickup
pants,
lawsuits
import
hesitate
evils
disagreement
bots
blink
beam
WA
Easy
Charles
Boy
Association
##es,
##age
vaccinations
spill
ramifications
predominantly
misdemeanor
landlord,
binge
WTF
La
Bezos
tires
qualifies
pat
note:
not)
lose,
licensing
license,
insomnia
inheritance
genders
dumpster
cycle,
conservative,
conclusion,
allegedly
NYT
Japan,
Election
Crazy
Case
Animal
5-6
##X
symbols
superhero
someday
seized
scientist,
quest
protagonist
never,
monkeys
misery
masturbate
manifest
gallons
factor,
conducting
clutching
chuckled
abundant
Progressive
Indiana
HUMAN
Cops
Capitalist
Alright,
year's
strange,
shareholders
purity
lobbyists
knives
invention
hurricane
girl's
flora
dodged
descended
blasted
Shouldn't
(mostly
##related
##ial
##ant
“not
therapists
separating
sacrificing
retaliation
puzzle
overall,
metallic
lamp
fucker
definite
decade,
condemn
closes
UPS
People's
MUST
Gonna
:(
“I’ve
weapon,
university,
pronounced
menu
lactose
hugged
homosexuality
deem
consistency
compliment
appreciation
adhere
accelerate
900
4%
"Trump
##’,
##that
“Is
tissues
scene,
scandal
prospective
haha
enzyme
cortex
Hollywood
Eve
AP
"real"
##il
told,
stars,
powerful,
positives
motorcycle
moderately
misses
insufficient
eggs,
disconnected
chased
attachment
ant
all)
Schumer
Romney
7,
##ay
stairs,
sphere
spelled
someones
rifles
reflecting
pad
ourselves,
lesbian
ha
ghosts
doesn't,
conservation
camping
NAL
Island
“He
tide
swings
shift,
pandemics
ozone
outbreak,
nest
jail,
initiate
imperial
ibuprofen
headaches
governmental
gases
crimes,
catalyst
carts
activists
Tl;dr
Sexual
Note:
Gods
Game
China’s
##el
“it’s
whale
walk,
tropical
ticket,
soccer
smug
season,
recycle
proudly
killers
invalidate
inconsistent
healed
distrust
continued,
clarification
chunks
candle
came,
assessed
Move
Friday,
Aren't
2013
quantify
poking
nets
murder,
malpractice
fetal
fentanyl
enabled
empty,
dodge
deposited
concern,
chaotic
accepts
Warren,
R.
Possibly
Joseph
Evolution
Baby
B.
ASD
"too
upset,
standards,
seeks
scars
protein,
priced
oath
neglected
fueled
federally
embedded
crown
comprehension
cement
bounced
anarchists
Running
NOW
League
DA
(now
&gt;No
##na
“There
traps
purposes,
phenomena
narcissism
marital
interested,
hunted
generates
fatigue
contemporary
belonged
awe
appropriately
Though,
Source
Louisiana
LOVE
whipped
streets,
snacks
scum
pod
plans,
occurrence
mathematics
learning,
hype
guarantees
dysphoria
colonial
clips
That,
Sometimes,
Serious
Personal
Inside
Fewer
Alzheimer’s
suburbs
spectrum,
screens
rhythm
regain
kid's
consumption,
celebrating
buttons
birthday,
Really,
Jedi
HIS
Fear
Alpha
000
*only*
##ful
wants,
simplest
sedentary
quarters
proportional
needles
imo
farts
elected,
bureaucracy
backlash
answers,
ammo
Romans
Kim
200k
written,
shirt,
pros
party's
park,
mate,
identification
hiking
hike
heels
harass
fined
fighter
enhance
Ryan
Act,
##d"
wives
tier
stamp
reign
platform,
paranoia
nationalist
instruments
inhaling
evaluated
equals
culturally
crying,
crave
amid
UP
Turn
It’ll
Higher
Golden
Boss
##ra
##king
validate
subsidize
signaling
rival
retarded
respond,
opiate
nuke
nitrogen
liberalism
ketamine
invading
helps,
gestured
gatherings
extends
coordinate
conquer
bastards
axe
aforementioned
admits
Monday,
Israeli
Generally,
Congress,
Cats
37
well..
type,
poke
listens
kings
intelligent,
crowds
couch,
chemo
calmed
breathed
aber
Ten
Starbucks
Neanderthals
Matt
MA
Likely
Jersey
DOES
Autism
AA
18th
##LY
“Not
waste,
vomiting
traced
stunned
shine
sanitizer
participated
modification
dominate
devoid
completing
combo
attacks,
assault,
Uh
Tuesday,
Tbh
PD
MD
##am
unreliable
trial,
tortured
sides,
responsibility,
reimbursement
raping
proof,
pollution,
peed
payments,
observable
null
nominee,
motivate
manipulative
isn't,
intact
huge,
hindsight
extent,
enhanced
disk
discoveries
breeze
Talking
NPR
Iron
Afghanistan
##ze
wind,
stalking
self,
sailors
regardless,
reaction,
puke
pharmacist
moving,
meant,
loading
hi
harvesting
fertility
endorsing
elf
diesel
blasting
awful,
apt
Omg
Friends
BBC
&gt;and
"Because
##ized
##ary
toes
temper
syrup
screenshots
reluctant
reliant
quality,
opted
must've
mindful
elsewhere,
calculation
bashing
bark
Ultimately,
Information
3:
(what
##which
wars,
wandered
spraying
spice
prosecuted
photon
ocean,
now..
negative,
mug
me:
gullible
find,
ears,
draining
borrowed
baking
Kansas
upfront
stimuli
stay-at-home
rounded
rejecting
met,
infer
grim
discretion
condo
breakfast,
blinded
[I
Heart
Exercise
unintended
therapies
stereotypes
settling
reproduction
regulating
realities
quit,
picky
organization,
memo
meal,
mass,
investigations
hassle
harms
flows
far-right
evolving
design,
corruption,
Lack
LIKE
Immediately
IIRC
DMT
##The
transferring
soviet
snakes
salt,
postpone
possessed
percentages
mic
influencing
impress
examining
elephant
disastrous
cycling
calories,
blames
art,
anecdotal,
Nick
Correct
Basic
##/),
##day
“In
visitation
uphold
upgrade
trains
sweet,
stimulation
spat
scrap
ranges
premature
neighboring
mundane
mess,
i’ve
influx
doors,
boiled
bending
animal,
al
Klingon
20-30
(think
(an
##nce
unnecessarily
undergo
timely
republic
reap
outstanding
inspect
harm,
fuckup
differently,
catastrophe
cargo
browser
arranged
R&amp;D
Congressional
AFTER
startled
stained
spread,
sourced
range,
metaphor
lazy,
know..
intermittent
incomes
hello
garlic
front,
alpha
alarms
Jesus,
Dog
Compare
when,
violates
views,
that)
swine
relief,
pregnancy,
lays
interpreting
impulse
efficient,
dim
containment
Whole
Committee
401k
20k
"free
"For
warrior
unnatural
tasked
spoke,
scrambled
reacts
radar
minerals
intersection
hella
handy
elbow
ed
dies,
contamination
clinically
basket
alt
Quit
Production
&gt;&gt;
##m,
supporter,
softly
rewarding
physics,
motivations
minors
mineral
internally
ideology,
glory
explanation,
drunken
dreams,
NOTHING
McDonald's
Governors
DM
3-5
woman’s
weakened
steering
shoving
rice,
needless
motives
management,
joked
hoard
grind
diagnoses
daily,
conscience
cheaper,
bottled
asylum
UI
Sort
Kennedy
Jackson
AIDS
"is
##V
yells
yea,
sampling
prospect
president's
obligations
materials,
furry
frowned
dignity
consultation
cliff
cane
arrival
WH
Started
OUT
Market
M4A,
Feeling
whistle
upvoted
slows
simplistic
severance
servers
receipts
rare,
progressive,
popular,
medicinal
maths
like:
lessen
generalized
ecosystems
diarrhea
deflect
console
circuit
HAS
BF
tuned
stark
skew
psychosis
path,
moon,
meta
meantime
majority,
lmao
instincts
inspiration
in-person
homelessness
extracted
expressions
exhausting
dime
clicks
bubbles
antibody
Quick
Hunter
Chuck
C,
Bro
Bidens
viewpoint
vested
randomized
prejudice
peace,
overlooked
mobility
misunderstand
lucid
dice
Republican,
Land
Hispanic
Forget
FOX
Blame
5,000
40,000
worker's
won,
whispers
where,
vibe
vampire
undocumented
uber
thief
stomach,
shrink
shred
phrasing
perceptions
nationalism
misinformed
lacked
inaction
homemade
generation,
fees,
employer,
disposal
deprived
cam
calls,
bus,
achievement
[Here's
Video
Missouri
"She
##led
wins,
quick,
maternity
lucky,
locals
learns
higher,
forbidden
deposits
coral
conditioning
censorship
assisted
arrives
admire
Facebook,
Ed
(without
&gt;Why
"bad
##ee
veterans
varieties
successful,
sophisticated
rode
progress,
probe
plant,
obtaining
obey
methods,
mailing
impending
full,
flare
enables
curiosity,
capital,
boyfriends
arrow
Whats
Thousands
Saw
Jon
Amazing
(very
'The
&gt;That
##ad
villains
snuck
rays
outfit
negotiations
lemon
just,
injury,
impacting
generational
foreseeable
figure,
experiment,
dispose
descriptions
commentary
bitching
alarming
X,
Wtf
Walking
THEN
Student
Postal
Medicine
MIL
BY
@
“Yeah,
videos,
thumbs
specially
skepticism
skeleton
shore
shirts
province
probiotics
marching
haunted
freedom,
delays
cocktail
civilizations
cell,
buybacks
bedroom,
assimilate
aluminum
altogether
Rome
Board
6,
##all
whomever
steer
sarcasm
prostate
pending
observational
lengths
irritated
inherit
incident,
his/her
country’s
children’s
chairs
blend
bailing
accumulate
P.
Kelly
Bruce
99
&gt;When
##'d
tossing
speculate
senile
selectively
outline
neighbor's
modeling
method,
gist
escaping
eachother
dial
dent
defence
craving
bombing
blessing
advertised
Year
WWII
Compared
8,
##..and
##..I
zombies
velocity
variance
toast
tabs
sunk
stressing
stores,
shuts
shock,
project,
portrayed
monitored
makers
insists
hacked
gripped
fan,
enrolled
employment,
dimensions
debilitating
damn,
cooperate
charges,
asian
analyzing
Steven
REAL
Leaving
Head
Christ,
2011
&gt;but
withstand
tilted
tf
strapped
specific,
smokes
repay
proletarian
loneliness
lengthy
fuckers
foreskin
forcibly
fading
elective
easier,
distributing
dismantle
disappointment
corrupted
contradicting
carved
adventure
Where's
Quantum
Overall
Matthew
Lastly,
Kevin
Behind
Agreed,
##they
zones
who'd
whine
vegetables,
upload
strengthen
sticker
shame,
seated
say:
sacrificed
sacred
rude,
revolutions
proactive
moderation
installing
insanity
informative
greet
freezer
fit,
explored
experts,
emerge
displaying
corresponding
clubs
blinding
atop
L.
Former
2k
to)
shaved
ranking
poisoned
pacing
negotiated
migrants
mad,
foam
flee
echoing
downward
dominance
dividing
distances
disclosure
disappointing
denies
consent,
circumcision
behaving
WW2
Treasury
Stuff
Single
Judge
HS
Clinton,
Atlantic
Adding
60s
14,
whip
veins
tablet
solitary
shark
salty
mortified
interview,
ink
hive
gentleman
funding,
empathy,
divisive
dismissive
developers
creeping
comfortably
code,
bonuses
accuser
She'd
Secret
&gt;My
wrapping
worker,
vapes
unbelievable
temperature,
summoning
structure,
operator
occupy
mimic
ideally
homosexual
dreamed
dots
disabilities
commodity
bud
brighter
VR
Stock
Local
Laws
DON'T
Although,
"one
"more
yrs
three,
texture
subscription
standpoint
sign,
protocols
prices,
playbook
mood,
lien
liberal,
indeed,
incremental
fleeing
er
enrich
empathetic
correlations
billed
benefited
Pick
Nevada
Kingdom
Alexander
##ur
shoots
printer
predictive
outcome,
of)
membrane
meds,
items,
genital
center,
activation
Slowly
Politicians
Hill
85
##cy
wow,
vision,
validation
uncomfortable,
tricked
time..
tempted
suddenly,
state’s
schooling
salaried
sabotage
rewrite
resigned
porch
nowhere,
liberation
institutional
fighters
fact:
estrogen
cops,
containers
citations
christian
choked
calcium
brag
aquarium
approach,
alright,
addiction,
Windows
Syria
Starting
Self
AD
##e"
“Just
vacate
sock
sensors
relevance
posts,
personalities
paternity
museum
logo
inadvertently
immensely
elder
drinks,
downvotes
daughter's
dass
cure,
crypto
complicit
chores
btw,
bread,
[a
Universe
Moral
2.2
##zed
went,
we,
was..
verb
to..
pest
perspectives
peasants
misconception
medieval
is)
ignorant,
hints
hero,
graduating
dissolve
contradictory
comparisons
attest
arrived,
acres
absorption
US)
T.
Smoking
DeSantis
Congrats
Brexit
##what
##do
uniquely
tried,
thrust
thing:
summons
style,
override
non-profit
mediocre
isolating
freedoms
forty
extraction
exhaust
crises
corpses
coding
celebrity
articulate
arrange
Tony
Snapchat
Killing
Ended
Cue
Couple
Coke
50s
##\\
trunk
systematically
ridiculous,
rainy
pun
powerless
municipal
lab,
km
fluids
fearful
dwarf
developer
delegate
communism,
communicated
cancellation
benefit,
baseless
awfully
accounts,
Xi
Writing
Turkish
Prior
OUR
Group
GPS
##l,
##cal
“if
“Who
z
veteran
tea,
surroundings
supremacist
strangely
spikes
skirt
sight,
sided
selfish,
leftover
impeach
heterosexual
finished,
faking
evictions
demand,
believer
almond
Throw
Theory
Homo
Hannity
EVER
Die
Capital
Attorney
#2
"big
##ld
wikipedia
transform
sunny
shrug
semen
routes
risen
recognizes
preferable
posed
murderer
intervene
here..
drying
cheering
cartoon
auf
argues
advertise
abuses
Sen.
Prince
Obama’s
EVERYONE
Asked
Already
9,
##sm
vaccines,
propped
negate
mom’s
mindless
marijuana,
itch
ft
forest,
flushed
disrespectful
counsel
claw
blacked
advocated
Male
Jerry
Heck,
Angeles
3,000
17,
##ir
##ated
upward
unto
teachers,
superiority
stay,
seasons
radically
preliminary
plumbing
mais
laboratory
kindergarten
humanitarian
fork
flavors
dissolved
darkness,
Vegas
OH
Crozier
42
*at
(only
"To
vector
silent,
parrot
orders,
moisture
mans
legitimacy
intrinsic
impaired
homo
functionally
emphasize
disruption
conservatism
citizen,
candidates,
cab
apparatus
U.S
ID,
Hmm,
Fred
Fat
"for
unqualified
unacceptable
triggering
tools,
temps
silicon
rehab
identity,
hospitalization
horn
holder
grinding
goals,
extrapolate
export
disagreed
diamond
danger,
causality
byproduct
buyers
abruptly
Venezuela,
Starfleet
BECAUSE
52
*could*
##.I
wholesome
values,
trustworthy
tonight,
swift
swayed
strategy,
stage,
slope
shotgun
semantics
scanning
rug
rotating
premises
payment,
outs
offenders
of..
notoriously
nausea
medicaid
locate
infrastructure,
increase,
here)
gradual
collateral
cis
characterized
champion
bullies
booze
beforehand
bash
alliance
Suicide
RIGHT
Minnesota
Greg
Follow
*have*
##ite
truck,
stronger,
slapping
ripe
related,
rack
poo
pastor
mutate
models,
literacy
listen,
ingrained
gamble
failed,
dumber
disorders,
disappearing
consequences,
capitalistic
awoke
Youtube
Sitting
Scientific
McDonalds
Democrat,
Book
“What’s
visitors
vertical
totalitarian
taboo
searches
schedule,
polluting
pleading
pc
papers,
neighbour
minds,
masturbation
incorporate
guise
dr
divorce,
dangerously
cooperative
body's
beer,
Shame
SHOULD
PayPal
PEOPLE
Management
zinc
willful
usable
unheard
smack
regulations,
nominated
negligible
menstrual
marker
leans
leadership,
ironically
inconvenience
imagery
flirting
fields,
error,
detail,
definitively
dad’s
crept
coughed
conflating
clothing,
chime
balancing
balances
afterlife
accelerated
Karl
District
ADHD,
##rt
unit,
transparency
strawman
redditor
outraged
offender
narratives
meeting,
horns
exceptional
entropy
drum
disturbed
displays
discusses
curtain
confined
calming
bi
alley
ability,
System
Sean
SF
Frankly,
Alaska
ASAP
12%
*a
&gt;For
##y"
weirdly
wealthy,
today’s
they,
sincere
russian
presumptive
officer,
nickname
moot
hardship
german
fuzzy
funniest
ethanol
edgy
downvoting
absurdly
abandoning
[https://www.youtube.com/watch?v
Specifically
Results
Reality
NY,
FEMA
Director
Arctic
"Let
walking,
subscribe
setting,
set,
runner
restrictive
respecting
rationalize
qualifications
origins
militia
lately,
inviting
imagine,
evenly
drifted
don’t,
appease
access,
USB
Miss
Lady
HIPAA
Guns
Evil
Cat
750
4.5
"Yes
"He's
waitress
toxins
tasty
tad
records,
parasite
nation's
issuing
initiated
ignorance,
example)
disasters
correction
conception
completely,
competence
brake
bean
apologise
accordance
Islam
Ignoring
Grim
C'est
But..
95
"people
##k,
##how
you:
well-known
useful,
trade,
submitting
sanity
rents
rambling
negatives
mirror,
islands
everyday,
empathize
downloaded
dependence
deepest
cancelling
amusing
afterwards,
accustomed
Wake
U.S.,
OP’s
2500
*should*
"your
underestimating
subconsciously
sixth
sank
moments,
horrors
genitals
debunked
compassionate
clarify,
chemically
bypass
bogus
aggregate
Worked
Words
Housing
Girl
FYI
Diet
Citizens
Ancient
450
"Look,
sounds,
servants
seizures
recipient
realising
radius
offend
observer
neighbours
mathematically
libertarians
leaders,
instinctively
insane,
heartbeat
green,
evolution,
endangering
doot
detriment
bro,
balloon
adaptation
accumulation
accumulated
Religion
Music
LOL
Heaven
2x
*more*
you)
wee
utilized
survivor
separately
scarred
restaurant,
quarantine,
pathological
necessities
muscular
meta-analysis
it”
indefinitely
inconvenient
entirely,
entanglement
emit
disproportionate
destined
crap,
choke
bra
bore
administer
Stone
Denmark
Das
Called
Alright
##are
umbrella
showers
resilient
pragmatic
permits
kidnapped
habitat
drifting
dosing
cube
created,
conclusive
classification
cardboard
buddy,
academia
February,
DOJ
Alice
160
##ot
winter,
warm,
time"
suffering,
rethink
profusely
needlessly
institute
insights
halls
filtered
ethically
dans
awesome,
autonomous
Taiwan
Six
LL
Boris
BEFORE
Additionally
*some*
##ta
‘I
wicked
wasteful
tying
traffic,
this"
streams
statue
same-sex
referral
occupation
muster
mage
large-scale
inhale
infamous
houses,
glass,
excluding
dubious
drowned
digits
companion
brakes
bigotry
behaviours
baffled
articles,
ago)
Which,
Well..
Turning
Than
Hundreds
AMA
"Look
##by
withheld
wires
temple
simplified
scrape
retreat
render
recieved
psychopath
low-income
latch
included,
haunt
eyebrows
enzymes
elimination
driver,
domesticated
department,
cortisol
closure
checks,
booming
b/c
apparently,
amateur
agony
Yup
Support
PLEASE
Nations
"..
##ring
##of
##ds
them..
steep
spontaneous
prompt,
nailed
millennia
laughable
kg
juvenile
his,
goods,
glared
generator
diminish
desperation
declaration
capacity,
calculating
blackout
atheists
Play
25,
##red
##ping
yards
warming,
unlawful
transitioning
testify
tampon
swiftly
sports,
scammed
roads,
reviewing
remarkably
recruit
re-elected
prosperity
point:
patient's
minister
manually
manner,
machines,
loan,
insecurity
governed
fooled
flatten
fertile
explosive
emissions,
discharged
combining
coma
centralized
cages
armies
Midwest
---
(while
##on,
“just
unprepared
underwater
trash,
transformed
towing
takeaway
stink
steps,
statewide
stabbing
sensor
regularly,
nations,
interpretations
insurers
hunters
grow,
favored
emitted
battle,
authoritarianism
advisors
active,
acne
WI
NBA
Jake
Eric
ADA
12,
"Fuck
##sed
##men
##lly
winners
warped
venue
temporal
sideways
rogue
positions,
pinned
peanuts
opinions,
nope
mocked
licenses
knees,
justice,
hosting
hometown
gazed
fuel,
fascinated
contrary,
Trotsky
THEIR
Sea
Organization
Lee
Future
FROM
"Have
##for
whiskey
wellbeing
versed
valid,
trump's
traction
sting
socialists,
sleeps
reimburse
overwhelm
misguided
lights,
intolerant
interstellar
injecting
imbalance
icy
hypothesis,
hasnt
guiding
fungus
etc),
disrespect
ample
Tylenol
Third,
Testing
Technology
Buttigieg
Brian
Aunt
47
worm
wifi
unused
unsustainable
tool,
smell,
rag
prison,
primaries,
parasites
loophole
limp
investigation,
inverse
hate,
harness
guilty,
ensures
dot
contemplating
cling
clearance
cigarettes,
characteristic
breasts
bottom,
beneficiary
Trek
Lincoln
Anthony
##ton
##ing”
##ier
wingers
tits
tasting
swollen
sudden,
slaughter
shelter,
scrutiny
remarks
regretted
recycled
prompted
poked
pedantic
obnoxious
lingering
intuitive
incorrect,
horrendous
fungi
embraced
directing
butts
booth
believable
averages
attractive,
accrued
Tl;dr:
Specifically,
Rock
Marxists
K.
Image
IG
Environmental
Average
..and
"i
"and
“well
wide,
wealthier
vanished
thrilled
spilling
spanish
social,
scored
ratios
piles
macro
extensively
dimensional
comprised
advancements
[A
Voter
Run
Joe's
GOOD
3.
##ning
waive
tweeted
trusts
towels
tech,
supplied
specialists
soak
smaller,
single-payer
semblance
presidency,
naturally,
multiply
mit
losers
lawmakers
forgets
flung
fertilizer
endurance
do)
deter
curing
bitten
Utah
Team
Patrick
McCain
Federation,
Actual
2015,
##20
warning,
unproven
unlucky
unknowingly
screws
scarcity
restart
publications
prick
plumber
neutron
meaning,
marketed
literally,
labeling
interval
interfering
fries
dismissal
dictates
cards,
bum
browse
blackmail
balance,
album,
affair
activist
Standing
Seven
Princess
Jordan
Certain
A:
'
"white
“Hey,
ye
uphill
tout
stat
snapping
reassuring
prohibit
kitten
imprisoned
hugging
hr
hacking
few,
deduct
commenters
boarding
activities,
Pain
Oklahoma
HAD
GA
##2,
##ving
##use
sentenced
offer,
ill,
fry
frames
disbanded
device,
contributor
bumped
blame,
avenue
advising
adjacent
Sugar
Number
Machine
Leader
Hang
Following
DNA,
Castro
Cant
AN
110
you?”
weaken
thanks,
task,
spitting
seniors
schedules
referendum
obesity,
markets,
intolerance
inhibit
imminent
grade,
glancing
diplomatic
cry,
conform
commercially
classmate
calm,
brink
balcony
Zealand
Spring
Response
Drugs
35%
*What
"Yeah
welcomed
truths
treaty
trafficking
toilets
teasing
selecting
pub
psychoactive
patrol
pathogens
optics
mileage
harder,
egregious
continuation
climate,
clenched
census
bonding
WOULD
USSR,
Neanderthal
Holocaust
Gore
Donnie
CO2,
40k
1918
&gt;Do
"that's
"Ah,
##1,
zero,
tourists
taste,
superficial
stereotypical
school's
righteous
rides
pyramid
populations,
pencil
jam
deserving
debated
below,
Set
Nope
Main
##—and
##be
variants
towers
sweeteners
stock,
stakes
seperate
scaring
rigid
replicated
prefers
panties
odd,
legalize
itchy
intestinal
freshly
flair
ex,
electromagnetic
diminished
despair
danced
compares
communities,
civilized
bikes
anniversary
Worth
Works
USD
Non
Focus
FYI,
140
"so
"Please
upsetting
unarmed
truthful
surround
repetitive
renewed
rash
quote,
politicizing
part-time
meats
maker
lips,
lady,
he,
gerrymandering
flexibility
extremist
escalated
economical
credentials
conjunction
collapses
belief,
barred
bananas
Truman
Mountain
Lake
Greece
Double
9th
*I*
(other
"One
##ght
you.”
wherein
visit,
swamp
stood,
spontaneously
prosecution
perhaps,
payout
oriented
on..
mice,
memories,
lizard
lead,
knocks
initiative
incompatible
graduation
frightened
fend
cruelty
criminally
colon
circulation
began,
Royal
Property
Normal
Key
Jill
Carter
#1,
wand
traces
tone,
tick
sweaty
socialize
rapists
pirate
personality,
peppers
packet
outcomes,
middle-class
messes
longitudinal
lifts
insulted
genes,
generally,
exploration
enemy,
encounters
doctrine
diving
discriminated
disbelief
cronies
consecutive
clues
clone
burgers
Pure
Primary
One,
NAL,
Hilary
Detroit
County,
7%
0,
"Get
##i,
tray
trajectory
teenager,
swelling
sewage
required,
remnants
religious,
reconsider
profiles
paired
mitigation
lover
leaks
key,
ingest
il
helpless
descent
checked,
certification
bumper
broker
barring
airplane
adjustment
Majority
Hawaii
Guard
Fauci,
CI
##U
“Hey
volunteered
stumbling
statistics,
securing
recreate
reassure
professional,
predisposed
patents
naked,
mines
ion
heroic
handsome
govern
flicked
douche
discouraged
differential
demonstrably
defeating
controversy
budget,
bowel
attractiveness
attendance
anticipated
adolescents
Imperial
H.
EVERYTHING
April,
##ver
universes
sword,
stricter
shows,
sci-fi
rightly
recurring
policing
orbital
network,
mongering
libs
geographic
execution
escort
degradation
defender
decently
bad"
ammunition
aftermath
Vermont
Letting
Late
IR
Evidence
Credit
Billion
6000
101
"there
uploaded
up..
trespassing
timer
tags
riots
refrain
prisoner
presumed
portray
ple
pierced
peek
pedophile
nomination,
mph
mattered
loot
it,"
invoke
hose
hemp
existed,
esteem
disadvantage
daylight
communication,
cognition
chicken,
carbohydrates
bong
advancing
adolescent
abstinence
Waiting
Rather,
Minister
Lower
Hit
Hillary,
GOD
Anna
85%
39
*still*
**I
(a)
"well,
"hey,
##.pdf)
##ft
“Your
tumors
traumatized
transplants
think)
taken,
stocked
specialty
smashing
preface
pictures,
paychecks
laughing,
gasped
feral
fashioned
dope
dodging
disclosed
company’s
boyfriend's
afternoon,
adulthood
Story
MI
Earlier
(3)
&gt;Is
"go
yogurt
wrecked
weather,
warriors
violent,
sorting
sobbing
series,
saliva
respects
reckon
planetary
peacefully
lungs,
legend
impoverished
ideologically
hangs
gel
flashlight
eradicate
endangered
counter,
boats
alike
absorbing
Perfect
MANY
Je
IMO,
Feels
Americas
Adderall
25th
2006
touting
styles
se,
repaired
regimes
reductions
recordings
prayers
nerd
millionaire
mask,
imperialism,
hysteria
hedge
heavy,
governance
fructose
dismantling
disdain
caveat
blankets
authority,
anticipate
administration's
Tears
Rachel
OCD
NFL
Losing
Loeffler
Grandma
GO
(that's
(1
##this
##ny
windows,
unconstitutional
unbelievably
stiff
sovereign
sont
sliced
sectors
piano
optical
nonsensical
nefarious
fever,
fearing
comrade
chlorine
charities
beholden
albums
accelerating
academics
Truly
Switzerland
Protection
Poland
Hulk
Finland
Essentially,
15-20
'em
##50
thyroid
swallowing
spout
spear
sneaking
slack
shameful
shades
residual
raining
psychologists
pardon
paradigm
nukes
neatly
motions
moreso
lag
interrupt
fruit,
father’s
dusty
dna
crooked
contradictions
birds,
bicycle
app,
absorbs
Word
SOME
Ple
Lying
Electoral
Dick
Body
B12
Animals
8%
5)
4-6
3d
/s
&gt;..
##son
##ight
warrants
voltage
valley
then..
smartphone
responded,
psychologically
plastic,
plainly
pinch
phones,
organisation
ol
maturity
looming
intro
fairness
electricity,
economics,
droplets
distorted
directors
diagnosis,
devastated
courtesy
concealed
chef
bulb
aura
als
adamant
Shit,
Reserve
Le
Foundation
Forgive
Emperor
COULD
BIG
Arabia
Ahh
##ging
##ed”
struggle,
scarce
rendered
reflective
progressively
optimism
negotiation
mirrors
millionaires
marathon
knights
judge,
immigrants,
hydro
havoc
habitable
exploding
exaggerating
dysfunction
bribe
blockers
apathy
ages,
Zeus
Rent
Palestinian
Older
Keto
FAR
CS
CC
Breaking
Bernies
49
3M
13,
(If
wether
variability
tl;dr:
storms
statutory
spending,
spatial
sir
role,
puff
peered
nuts,
myths
muddy
member,
justifying
intuition
identifies
earns
detailing
desktop
compromising
coated
childhood,
cannabinoids
camera,
bland
Warren's
Susan
Psychology
Miami
3/4
##2)
wrestling
waiver
trim
supply,
stitches
scrub
scraping
ruler
placement
noticed,
notably
incorporated
flaming
descendants
damages,
covid19
badge
arbitrarily
apes
REM
Plan
Pharma
Kashmir
Firstly,
Fight
Currently,
Cost
Commander
*"
unions,
union,
swipe
squeezing
scaled
rumor
roar
resemble
reliance
producer
prince
mommy
marrow
marginalized
maintains
limit,
kidneys
jazz
it.”
invalid
integral
image,
hopeless
hail
dry,
assaulting
ambiguous
Tenant
Pokemon
Lucky
Islamic
Hydrogen
Hmm
Gender
Fact
Driving
CI,
40s
(still
(In
##..but
##")
ya,
treasure
thousands,
shoulders,
screaming,
scary,
region,
pregnancies
nurse,
lest
graphene
executor
erupted
dystopian
dose,
childcare
chewed
biodiversity
backstory
aid,
adhd
Tea
Rose
Physical
NYC,
Marcus
Likewise,
Libertarian
11,
##line
waits
victim,
vein
tin
stand,
seizing
scraps
relativity
misuse
interacted
incurred
hosted
homophobic
exacerbated
even,
cons
amused
amend
ambient
aint
agenda,
Won't
Rogan
Press
Nobel
Jan.
Interestingly,
F.
Area
##.com
xenophobic
wheelchair
untreated
unpredictable
turd
thy
smacked
reread
reinforced
reconcile
rationale
pollute
patches
nurses,
mosquitos
me;
matrix
mating
leash
integrate
insure
greasy
experimenting
enlightened
digit
developments
destroyed,
designer
decency
crosses
communal
cheese,
characters,
broke,
bottle,
awake,
arrogance
amyloid
again..
accountant
Milwaukee
Mail
Johnny
Carlson
Carl
Alan
ANYTHING
**all
tolerant
thou
themes
terpenes
spotlight
rhetorical
recollection
preserving
predicts
noone
merits
madness
loosing
life"
leg,
laptop,
humidity
gateway
funds,
faces,
core,
confidently
cloak
clearly,
chalk
catholic
bursts
botched
Y'all
Project
Pakistan
Job
Arab
51
"Go
##zing
“Thank
vanilla
storage,
spew
robotic
reusable
puddle
owners,
nationalized
marched
jerked
inspected
indoors
incumbent
flat,
fare
envy
doorway
demonic
concerns,
coating
capturing
benign
airborne
aboard
Online
De
Anecdotally,
AG
10/10
##rd
##mg
##ide
world"
useless,
supplemental
staple
sped
shouted,
sheriff
resisting
reside
resentment
resent
raid
pumps
preserved
precision
pornography
metal,
messenger
freaks
focus,
flux
ended,
economist
ear,
designing
democrats,
borrowing
assessing
announcing
affiliated
What,
Valley
Usually,
State,
St
Special
Somewhere
Planet
Mac
HER
Cuba,
Chomsky
15th
"bad"
##der
welcoming
way:
unexpectedly
undermining
trauma,
stench
slaughtered
saw,
salary,
reports,
protection,
plethora
noon
microphone
localized
limitation
humane
guy"
forcefully
disc
differs
degrade
cyclists
constantly,
confidential
buildings,
brow
boys,
avenues
asserting
al.,
afloat
Thanksgiving
Ohio,
Mexico,
March,
EC
Devil
Chances
CDC,
Anxiety
99.9%
yard,
uranium
unjust
though..
rocking
prob
poem
peroxide
paranormal
minimum,
liberties
knife,
instruction
inserted
hips
happiness,
given,
frightening
freed
forums
fixes
exceeds
dissonance
crippled
celebrated
bundle
biology,
beasts
associates
arrangements
accommodations
abolition
They’d
Peace
Microsoft
Maryland
Ignore
Ich
Hero
Gary
Delta
Andy
75k
2008,
/r/science
(2
##S,
##ors
##ating
worldview
trembling
transfers
snatched
shooters
scheduling
scalp
peripheral
overlook
monogamous
migraine
marriages
life's
instructor
ingested
highlighting
habits,
fucked,
fake,
faction
detached
contingent
complains
clarified
casino
careless
boundary
baggage
awakening
Place
Interesting,
Ha
Btw
64
##ol
wondering,
verification
unborn
taxable
sooo
rod
proceedings
preaching
paused,
month's
leaving,
infections,
illegals
feminism
fantasies
disability,
dictionary
detecting
cancerous
campaigned
burying
benefiting
applaud
appearances
News,
Jacob
Ironically,
Great,
Acting
*might*
"being
##!
##ure
viruses,
venom
transformation
switches
swearing
standard,
shuttle
shaky
sellers
self-reported
secular
router
resembling
recoup
newspapers
nationally
name)
mount
mortgages
lifetime,
individual's
imposing
hovering
gorgeous
forms,
forgiven
findings,
exclusion
examination
drought
dinosaur
controller
circulating
births
belonging
alt-right
Somehow,
Presidents
Marine
Louis
Koch
Idk,
IBS
Felt
Fascism
6%
500,000
2024
##land
##ance
“Where
volatile
utilizing
travelled
tiger
telephone
tears,
swirling
stretches
stands,
squat
solves
sociopath
ships,
scratches
scrambling
rows
riot
responsible,
regressive
ramen
privatized
portable
phrased
offense,
obstacle
mute
mobile,
misinterpreted
migraines
interacts
frog
fiery
circadian
charitable
calculus
breakup
boring,
battling
arresting
amazingly
aids
adapting
\\*
Them
Steam
Shut
PTSD,
Income
GOP,
4:
“it
“We’re
trials,
tailored
sniff
sneeze
slavery,
refreshing
pronounce
poses
oneself
natives
namely
mill
makeshift
legally,
inputs
inmates
hall,
gold,
folding
endlessly
doubting
disaster,
column
collapse,
circumcised
bloated
anyone’s
anti-vax
abiding
Trans
Spain,
SSRIs
Plants
Barack
ABOUT
*A
(yes,
(meaning
"Maybe
##.,
werent
weighted
urging
tantrum
stool
salmon
preferably
nonsense,
mistakenly
marble
lupus
lieu
kill,
internship
inspiring
incubation
hurdle
evangelical
emitting
don
dab
crowd,
condemned
ceased
casualties
affiliation
admins
Tldr:
Paying
Particularly
Guys
Guardian
Community
Because,
10-20
*will*
(her
zip
wounded
womb
wealthiest
villages
that:
reuse
rebellion
partnership
motherfucker
microdosing
loosely
looking,
licked
liar,
involuntary
illustrate
highlighted
funnel
festival
disputing
dictators
crotch
courthouse
cos
complicated,
charts
celebrities
briefed
breathing,
brass
bake
army,
Sunday,
Speaker
Singapore
Organic
Nowhere
Million
Ideally
Corbyn
Comparing
"Our
“how
yer
weirdest
weeds
vets
train,
trademark
there'd
surveyed
purge
pitched
paralyzed
microplastics
loopholes
lb
intending
holders
government’s
flashes
emergencies
dock
defects
decisive
crows
coward
county,
consisted
chili
boat,
backward
Policy
Indians
Houston
Elon
Agree
##ther
troubles
this;
that"
tan
stepdad
reasonable,
portfolio
political,
persuade
pads
lending
idle
hottest
gop
genie
equations
enterprise
dye
deploy
curtains
creatures,
copying
cannabis,
bunk
booking
boner
beans,
attributes
anticipation
antibiotics,
annually
Venus
Millennials
Las
Knight
Excuse
43
2007
100%,
(I've
"oh,
##time
##go
wrongly
trailed
touted
steals
stabilize
rust
rocky
responders
respondents
repeal
privileges
preparedness
pens
parroting
other’s
morphine
molten
merge
indicators
hoops
got,
curriculum
competition,
compel
colours
chambers
benevolent
Wisconsin,
Superman
SUPER
Gas
ED
DPRK
Capitalists
Billy
Anita
(due
"who
"right"
##dy
you”
valve
subpoena
stellar
stances
sink,
section,
screamed,
roast
retained
repeats
poles
piling
owing
minimizing
microbial
marrying
leaps
j
inhaled
incarceration
glued
fame
facto
drip
discarded
demonstration
darn
dam
dagger
consensual
bruises
bounds
biome
assistance,
asks,
She'll
FTL
45%
*actually*
##ma
##ard
“my
volcano
vehicles,
variant
validated
undergoing
tremendously
total,
thicker
superpower
spoil
shells
servant
sang
recommends
protestors
practices,
partake
pH
messages,
measures,
measure,
investor
implicit
eyebrow
exhaustion
dementia,
critics
corps
conspiracies
bled
assets,
allocated
Technically,
Teachers
Oscar
Manager
MLK
Luke
Idaho
ISIS
Huh,
Berlin
170
token
soil,
ride,
resignation
predictor
lifestyles
latter,
inventory
instagram
inducing
imperative
heightened
hairy
grinned
gays
gaslighting
fulfilled
connects
ceremony
agency,
abuser
Violence
POS
Ok.
Lucy
Kyle
Graham
##5)
##ped
##ks
up)
unprotected
transportation,
standpoint,
slumped
sleeve
segments
scapegoat
robe
receptive
profoundly
pills,
piece,
performance,
out..
oligarchs
no-one
nervously
more)
man"
malice
longevity
gods,
fury
flowed
era,
eligibility
disturb
disliked
deprivation
deficient
crops,
contested
confusion,
chain,
cater
breaths
Vaping
Terry
Sucks
NATO
Hahaha
Girls
Direct
Bottom
Bang
Apartment
21,
2005
*This
(his
"are
##é
##ying
wiggle
whispering
surprised,
story:
slips
sizable
sapiens
rusty
resistance,
relevant,
receptionist
rabid
queen,
parody
notifications
musician
misconduct
might've
marxist
imported
glitch
exited
elves
educated,
discern
deduction
confess
cbd
brutally
bridges
axis
asbestos
arrested,
apathetic
Yeah..
Woke
Therapy
Shortly
Mnuchin
Juul
Everytime
Demon
Cool,
BP
**the
"social
volunteering
tract
target,
tactical
supervision
streak
sprint
rooms,
reinforces
recipes
quantitative
propping
moronic
hurried
historians
headline,
hammered
gloves,
frequencies
foil
fait
exposure,
evidenced
evaluating
coordination
clears
buses
bunker
batshit
ah
Tulsi
Snow
SD
Recently,
Model
Computer
Asia,
Airbnb
90's
*always*
"new
"make
##1)
##ons
##hip
##da
waiter
vacation,
uptake
treatments,
tops
this)
that’ll
symptomatic
surgeons
suppliers
special,
sich
self-driving
sadly,
reception
qualifying
pennies
invoice
intercourse
insensitive
inequality,
illogical
hooking
homeless,
generations,
flight,
extremes
equal,
caught,
beings,
add,
Tennessee
TSA
Scotland
River
Risk
Academy
97%
*never*
##
##free
wish,
traits,
star,
sins
rooting
roared
psychology,
outlier
notes,
microbiota
making,
lower,
improper
imperfect
illicit
hypotheses
featured
feathers
embracing
differences,
deniers
declines
darkest
correlation,
censor
cafeteria
blinking
ball,
audible
arguments,
ahold
Wrong
Turned
Son
Roosevelt
PO
FedEx
Bit
*want*
##'s,
##ness,
visualize
traditions
suck,
stupidest
stone,
starved
sniffing
sighted
shrinking
sausage
prohibition
physiology
pawn
opportunity,
noodles
negativity
modifying
malignant
mailbox
intern
humanoid
flick
extracting
entrenched
energetic
enclosed
emperor
dysfunctional
distracting
disenfranchised
computers,
competitors
comes,
blades
annoy
Union,
Um,
TP
Shes
SSN
Rural
RIP
Lesson
Building
Brazilian
ADD
98%
6:
&gt;To
##0)
“Come
wartime
vacant
unchecked
testament
strained
stimulating
specializes
slander
shouts
shone
roof,
rise,
retaining
repost
reflex
recession,
reactive
one:
obliged
narrative,
muffled
littered
landlord's
infuriating
inflicted
impactful
grandchildren
exceedingly
dwelling
dreamt
divert
deductions
apologize,
anatomy
Yesterday,
Throughout
Swiss
Nordic
Honest
Greenland
Enterprise
Combine
Clean
&gt;Trump
##—the
##ue
##ls
workers'
tourism
touch,
thanking
tease
teachings
sucker
slit
share,
shaken
rock,
rests
people..
orbiting
nervous,
missile
leases
knelt
inhabitants
homeowners
hefty
graphics
geared
friction
forget,
foreigners
flour
explain,
erosion
editor
canceling
button,
bigoted
behaved
bags,
audit
angrily
adorable
administrations
accessing
Voters
Trade
Sound
Lucifer
Join
Columbia
CNN,
Agreed
44
4,000
3k
13th
*need*
(depending
"I"
unusually
tagged
strips
stripping
stains
secret,
savior
rotate
roam
preservation
persist
paperwork,
orgasms
mumbled
lucrative
instrumental
file,
fee,
faults
engineer,
dismantled
boxers
biomass
athletic
administrators
ZERO
Target
Straight
Simon
Location
Financial
Electric
Countries
2004
(yes
&gt;That's
##ing*
unintentionally
tyranny
torch
stern
speculating
south,
silly,
realtor
prophecy
populous
pathogen
parade
packaged
modifications
missing,
meditate
least)
investigator
implant
hazardous
guides
glove
germs
forgiving
fooling
embarrass
earthquake
disputes
derive
crash,
conflict,
centuries,
backwards,
armchair
arises
abolished
STD
Officer
LED
Highly
Changing
ALSO
AI,
“Can
wrongful
witnessing
volumes
types,
toothpaste
th
synthesis
soaking
snarky
robbing
reversing
progressed
photos,
oxygen,
misleading,
mislead
justices
integration
immortality
heritage
gratitude
finest
financing
fibromyalgia
expenses,
ethnicity
deforestation
count,
answered,
aims
agriculture,
Participants
PRC
Nicotine
Huge
Foreign
Christian,
25,000
130
##q
##n't
##la
##ists
“For
wonder,
woefully
trending
tougher
stationed
slightly,
sleeping,
scream,
propensity
polls,
poker
plaintiff
perpetuate
patted
obama
narrator
mortgage,
meteor
lawful
itching
intensely
homicides
hockey
golfing
flock
enrollment
disgusting,
deviation
crumbling
coal,
bones,
awkward,
alcoholism
Youre
Remove
Presumably
Palestinians
PT
80's
15,000
*was*
"at
##NG
##-related
##'t
##om
##it's
“As
year)
unfounded
turtle
supplier
sites,
septic
round,
proclaimed
pretends
pods
philosophy,
object,
mounted
monitors
minuscule
jacking
interface
in-laws
flavored
fatalities
examples,
estate,
emotion,
disappears
corridor
consisting
commits
ceiling,
careful,
brightest
binds
banned,
arthritis
analogous
advocacy
Safe
Paid
Legally
ELI5
Clinton's
Chernobyl
Boeing
33%
2-4
##10
widened
users,
transporting
taped
survives
stash
staggering
skeletal
serum
screeching
route,
neighbors,
natural,
narrowed
mutated
moaning
meanings
ludicrous
larger,
know)
idiocy
humour
garbage,
formerly
emails,
elephants
discrepancy
cursing
conflate
breaks,
affirmative
a.
Understanding
Throwaway
TIME
OSHA
Katie
Hence,
Bell
(whether
##ps
worried,
uncovered
troubling
triage
staffing
soooo
scholarship
salesman
risks,
responsibly
produce,
processes,
primal
posing
pool,
peel
painkillers
king,
influence,
incentivize
immunocompromised
gouging
gestures
farmed
faculty
ends,
doubtful
doll
distinctly
crimson
continue,
consolidate
chronically
Wild
Test
TIFU,
Original
IPCC
Hoping
Galactic
Battle
?”
(3
##):
##…”
##zation
##ass
woods,
whispered,
welfare,
volcanic
toxic,
thin,
theft,
stoner
statements,
sloppy
sinus
robes
restaurants,
private,
plaque
plagued
permafrost
patterns,
layman
joking,
inclusive
horde
herb
handouts
generalization
dog's
defer
cute,
conquered
computational
busting
bruised
blur
Whilst
Typical
Tons
Takes
Patients
Location:
Gay
Drinking
Amazon,
Across
12,000
*did*
(it’s
&gt;Also,
##ical
“don’t
“When
zoom
yada
weaknesses
watered
undergraduate
tablets
sinks
revolt
reversal
reluctantly
redundant
profits,
professionally
prestigious
penetrate
overrun
moves,
motioned
interviewing
hatch
grassroots
foot,
european
comfortable,
christmas
candles
begs
ancestor
Math
Klobuchar
How's
EU,
Close
Avengers
Agency
11th
***
(something
##ER
##year
“why
zoo
vendors
shithole
shelters
shedding
reportedly
preach
payers
outdoors
neoliberalism
microscopic
manageable
lion
jesus
inappropriately
in..
glasses,
expiration
expelled
erection
dipped
diaper
demonize
democracies
delusion
cyber
cream,
completion
civic
cites
be)
asinine
affluent
adviser
acid,
Stanford
SHE
Romulans
Rest
Reaper
Racism
O2
Jr.
Fuck,
Country
Carolina,
66
*know*
(don't
(b)
&gt;*
work"
vegetation
trainer
tenth
surprises
subsidizing
sociopathic
shuffled
recalled
psycho
posted,
pools
pond
peoples'
pensions
out)
ordeal
non-existent
mist
keys,
inflate
industrialized
hires
friendly,
forth,
flips
equilibrium
emptied
carrots
branded
article:
airing
OTC
Naturally,
Liberty
He’ll
Excellent
Chile
26,
"I'd
##ual
##ned
##er"
wrote,
uprising
tracing
tile
shattering
sharks
recruited
rebate
publicity
procedure,
outsider
maintenance,
lectures
interstate
horizontal
heads,
haircut
grass,
geographical
generalize
fossils
fists
diligence
dating,
cuts,
bracket
behaviour,
ashes
achievements
Strange
Previous
Op
Mayor
If,
Hand
Gulf
Dec
Da
Businesses
Btw,
BTW,
Alternatively,
(My
##],
##ms
“do
“but
wood,
wireless
wine,
wild,
warmed
treadmill
toddlers
thus,
therapist,
strokes
stresses
showerthoughts
sexing
regulation,
ray
random,
q
puking
puked
press,
parliament
others)
oak
nasal
lurking
labelled
irrelevant,
intestines
hooded
harassment,
forces,
dragon,
damp
culprit
crumbs
counteract
contingency
consist
buzzing
banks,
Robin
Milky
Individual
Howard
Face
England,
Couldn’t
Brother
1099
"on
##pm
“Of
yanked
thriving
tampons
sinister
sewer
renewal
reimbursed
refugee
president’s
prenatal
prayed
piled
paints
others'
obstacles
nicest
millennial
layoffs
hotel,
grazing
granting
gears
foundations
endanger
efforts,
downsides
dawned
clinging
Swedish
Standard
Liz
Ivanka
Elections
Days
Classic
AZ
;)
"real
"They're
##work
##ff
##ell
##ed*
yall
vest
vascular
urgency
swapped
shortcomings
salvage
regrets
reform,
programmer
plate,
phases
overthinking
opened,
occur,
normalized
nonprofit
nah
manic
logging
leisure
leapt
hats
feudal
exacerbate
downs
dirty,
dictated
devil's
deposit,
conservatives,
bureaucratic
brutality
bright,
arrows
architecture
allowed,
alienate
Ross
MOST
Hopefully,
BPA
Art
Advice
55%
41
"Sir,
“So,
“All
washer
urged
up”
unfairly
separates
scoop
pinpoint
pilots
pertaining
one-time
notions
neighborhood,
nearing
narrowly
lo
kzreminderbot&amp;subject
kinky
injustice
injuries,
implants
hysterical
horrid
flex
finishes
finger,
farmland
faire
drafted
diameter
devils
dependant
cue
bisexual
apex
amidst
amendments
Syrian
Sending
Roger
Rico
Prevention
Matter
Epstein
BTW
5G
*your*
(before
(along
"People
##You
##?s
ultrasound
transcript
ticking
scholars
savings,
restored
respirators
refill
redistribution
ramping
package,
minorities,
marginally
lifeless
legislation,
launching
hyperbole
haul
friendships
feminists
documents,
detained
crafted
covered,
constraints
consenting
commands
camps,
businessman
bells
banner
avocado
anti-vaxxers
advantageous
University,
SNAP
Potter
Meat
Kid
Iranian
ESA
1.2
(over
&gt;People
"You've
##A)
##?utm\usource
##way
##level
##her
traitor
thunder
them"
slides
ski
siding
self-esteem
scrolled
preexisting
poisonous
podium
pivot
petroleum
ownership,
morbid
liars
learned,
hoodie
hides
extraordinarily
expression,
excused
disruptive
defect
customers,
confidence,
concussion
circle,
beds,
balls,
avid
affection
Y’all
Silver
Sick
Roommate
Morales
Mars,
London,
Listen,
LSD,
Husband
Frankly
DR
Agent
(sometimes
"have
"be
##4,
##gs
write,
weakest
vendor
untrue
unlikely,
trope
tongue,
tighter
supervisors
sofa
sham
plane,
partying
parasitic
logs
limited,
lifestyle,
latent
inflammation,
hindsight,
governor,
gasp
fortunately
exclaimed
duct
densely
customs
commercials
clarifying
changing,
blurry
anxious,
admissions
Toronto
Todd
IRA
Heat
Diego
Covid19
Centers
Cell
Blaming
Anecdotal
28,
(A
"both
worries,
visually
turbines
tug
theatre
tenant,
romance
riddled
replaces
recognised
rain,
properties,
pipeline
peu
penis,
more..
mitigating
lender
legislators
investigative
hold,
hangover
greed,
gain,
expire
cramps
coffin
buy,
beach,
ballot,
ache
Wasn’t
THEM
Ocean
III
Earth’s
"we're
"God
##in'
”
upbringing
understood,
toothbrush
sunscreen
strap
spiked
skim
sigh,
shitload
shields
roller
request,
real-world
ranting
ram
pursued
politician,
partners,
participant
pandering
oz
obstruction
mythical
monster,
migrant
meditation,
mediation
marking
magazines
lakes
intermediate
ideal,
heinous
europe
ending,
drilling
doctor’s
dipshit
crystals
crow
cook,
chemicals,
carbs,
borders,
billion,
babies,
au
allocate
adderall
added,
[SP]
UC
Students
Representatives
Phase
OTHER
Jay
Grow
Gov
Gave
December,
Cross
City,
/r/politics
"yeah
##ES
##6)
##5,
##hat
vacations
untill
unscientific
tweeting
transcription
study's
softball
soft,
says:
sale,
repression
prevailing
perpetuating
painful,
operational
onion
indistinguishable
ice,
galaxy,
fracking
fishy
faux
earth's
disguised
carrot
bedside
bargain
audience,
at-will
archaic
aggressive,
abolishing
Zen
Taco
TX
Rep.
Network
NSA
CPU
CA,
BEEP
1,500
**not**
(less
(again,
##ans
“hey
villagers
torturing
surpass
steroids
soothing
shitshow
sheltered
sample,
roaring
rapist,
raced
postponed
positioned
peaked
paralysis
paradox
muscle,
month-to-month
monstrous
meltdown
lawyers,
kidnapping
insurer
hearing,
greens
go-to
fad
equating
enslaved
efficiency,
disadvantaged
declares
consumes
celiac
case)
batteries,
bass
are..
Schools
SHIT
Larry
Her:
Failure
Cuz
Constitutional
Communists
6-8
100s
(It
##ya
woof
vinegar
vehemently
tiny,
sympathize
substantive
sporting
slogan
signatures
shill
registering
rebuilding
reasoning,
prospects
pollutants
plant-based
peddling
nods
misrepresenting
meals,
magnet
lotion
liberals,
hostility
ham
grasped
fluent
fashion,
extreme,
exert
enlighten
elderly,
downhill
devices,
day-to-day
conjecture
confessed
clay
breaker
blinds
bigger,
bedtime
badly,
athlete
arena
anus
anesthesia
Yo
WERE
Speak
Ronald
Rice
Religious
Phil
Oval
OMG
Healthy
Development
DIY
Curious
Coronavirus,
Bolivia
50,
31,
300,000
"Wait,
##[
##3)
##'S
##pe
##ory
##ley
##even
“Did
wield
underestimated
treasury
travelers
theorists
than,
swaths
spouses
sequences
respectable
prohibits
pertinent
percent,
overheard
medications,
litigation
intoxicated
infront
hallway,
governments,
fabricated
damning
commanding
cheeky
basement,
assembled
angles
analogy,
Xbox
Twitter,
STOP
Plant
Musk
Iraq,
Important
G.
Christmas,
20's
*why*
"right
"At
##ability
“She
verifiable
undue
too..
stuffing
strike,
stormed
stable,
slew
skimmed
simply,
significant,
shamed
runners
runaway
remark
posture
overpopulation
outward
naval
musicians
mornings
missiles
miraculously
me,"
kink
ketogenic
graves
gaping
franchise
flushing
exterior
downfall
disservice
discriminatory
depended
defamation
cup,
cultures,
crunch
conspiracy,
confronting
buildup
behavioural
\u
Safety
Removing
Pearl
Ontario,
NIH
Lease
Jeremy
Ironically
Gold
Georgia,
EVEN
Davis
Criminal
Africans
2010,
100x
##ise
“in
winding
wholeheartedly
wavelength
upright
totaled
sooner,
soldiers,
slot
seventh
resembles
rainbow
projects,
possessions
polish
pets,
peculiar
overestimate
obligatory
moderator
millions,
loudest
lava
incest
in-depth
impairment
identities
heir
handgun
fractured
extremists
excruciating
currently,
criticism,
condemning
bowed
aversion
allied
abdominal
Wind
There,
I..
Facts
EXACTLY
Clinical
Abortion
13%
##thing
##ill
writings
wishful
whatsoever,
unregulated
tight,
swords
starter
soda,
smirk
skill,
skies
reinforcement
puzzled
pseudo
planning,
paycheck,
overview
oranges
obsolete
nonstop
murderous
lever
lefty
it-
grease
gravity,
frame,
founder
essential,
escorted
erased
disguise
defenses
custody,
comparatively
clumsy
budgets
backgrounds
avoids
armor,
arc
aloud
afforded
adventures
additives
acre
acceleration
Vaccines
Task
Spent
Soon,
Language
Galaxy
Example:
Engels
Daddy
Conversely,
Complete
Barry
"take
"She's
##s),
##nk
you;
weighs
vegetarians
unleashed
uh
trying,
taco
sunshine
stranded
snapchat
residue
requirements,
recall,
pushups
pharmaceuticals
mortals
merchant
kinetic
insulation
ingesting
inexperienced
hills
halted
gutted
glorified
futile
freeing
fixed,
fighting,
fermented
faithful
escalating
cashed
bushes
bumps
behold
badass
arsenal
antidepressant
aide
Van
Questions
Physics
Mario
King,
Kamala
EV
Dow
Cutting
Costco
1800
1.4
*does*
*I'm
"Alright,
##0,
##ly*
willpower
viability
unilaterally
thirsty
sur
scumbag
ribs
railing
props
precursor
player,
pizza,
peasant
opposes
ole
nodding
nipple
must’ve
motion,
minor,
men’s
mal
linguistic
invitation
holocaust
harvested
grilled
genetics,
floods
fell,
excel
elders
dolphins
diminishing
dependency
dear,
convo
clogged
chaos,
breakthroughs
bloc
biotech
baby's
avoidance
apocalyptic
aligns
administrator
acidic
accidents,
Worse
Search
Samsung
Roy
Playing
Josh
Hall
Furthermore
False
Coast
Chicken
Apologies
*and
"let's
##,*
won't,
vanguard
urges
undiagnosed
troubled
tough,
thick,
tau
tar
supremacy
suction
subsidy
stringent
stimulant
repayment
punk
poly
picturing
offending
noun
manifestation
jets
industries,
idiots,
husband’s
honorable
hastily
generals
flattening
faked
devote
desist
dedicate
crust
cosmetic
comfy
colossal
bolted
arse
accomplishments
Why,
WP
Ugh,
Trudeau
Tonight
Price
Presidency
Past
Manhattan
Independent
GPA
Evo
Crime
Buying
Atlanta
6-7
46
22,
*my*
*You
(which,
(well,
&gt;You're
"look
##30
##les
wise,
wholesale
understandably
twenties
strengths
stomped
solutions,
soluble
so)
scramble
realize,
rationally
potential,
overt
notebook
nightly
m4a
jungle
intellect
innovative
healthiest
gripping
glowed
gift,
gasping
equality,
each,
dentists
deeds
critiques
crew,
coworkers,
cough,
chanting
biased,
be..
anti-inflammatory
anchor
alienated
Heck
Fine
Final
Eh
Commission
Bought
Assembly
Angel
Albert
3am
100,
&gt;She
&gt;Not
##-up
##ys
##ung
“There’s
you,”
updating
trails
swell
shipment
revoked
revised
queer
proceeding
prioritizing
noticeably
movements,
misinformation,
me.”
mainland
jokes,
infested
humanity's
hinder
headset
groceries,
gov't
germ
fuss
frantic
feces
favor,
exemption
edge,
confuses
calculator
artistic
application,
ape
afraid,
Wednesday,
Taxes
Screw
Redditors
Mexicans
Judging
Hindu
Form
Everyone's
Congratulations
Artificial
65%
5x
(read:
##ger
##ence
ça
west,
voicemail
too)
t-shirt
squarely
socializing
smoothly
savvy
roaming
readings
quarantining
presumption
phased
originate
nurture
notifying
massive,
knob
independent,
increases,
impossibly
handbook
graduates
fuckin'
flagged
entity,
disrupting
disregarding
despicable
depleted
decree
cursory
criminal,
concise
conceal
combinations
clock,
cheating,
charger
breastfeed
bathtub
advance,
absurdity
Yours
Saturday,
Review
Random
Race
Personality
Chloroquine
Chavez
Anytime
60k
30-40
23,
2021
2012,
14th
0.5
##?
##4)
##only
##ome
##od
years..
vitro
unequal
tonnes
theories,
technician
tails
stunt
stickers
squirrel
sparks
snow,
ridden
rallying
prudent
professions
preschool
perpetually
patting
palms
overturn
moved,
mansion
liquids
informal
incompetent,
inclusion
humor,
hilariously
height,
gossip
gasses
furthest
frontal
frail
follow,
factions
epigenetic
eaters
distancing,
disciplinary
delivers
boob
blockchain
beams
audacity
attendant
activism
accidently
TL
Rape
Mad
KKK
IDK
Hydroxychloroquine
Harvey
DONT
D,
Crisis
CD
17th
"fake
##ID
##ten
##ily
##hing
weary
version,
utopia
tame
review,
revert
rejects
reactionaries
playful
planet's
old)
middle,
metropolitan
limits,
lesson,
introverted
iPad
hugs
horror,
hat,
gore
giggling
garage,
gangs
gamma
fly,
fluffy
fibers
do..
cover,
cousin,
border,
awards
aspirin
agreed,
Voyager
Unions
Phone
Flash
ER,
Cruz
Access
4x
(albeit
(Which
"as
##ky
twitch
turned,
speculative
socio-economic
sliver
sickening
satire
ring,
revolutionaries
responses,
reinforcing
queue
perpetrator
pedestrian
pasted
newfound
livable
left-leaning
leaves,
jacked
infrared
him..
harmful,
gut,
goalposts
defends
dangling
cop,
compressed
colorful
cliche
challenge,
brains,
bars,
authorization
attitude,
appreciated,
amended
administration’s
adaptive
Sit
Possible
Own
Marx's
MC
Joe,
Increased
Fish
Cars
Bear
Affordable
ACT
*lot*
*just*
*anything*
(your
(eg
(despite
unrest
unprofessional
unknown,
thigh
synonymous
sweater
suspects
sushi
straws
similarity
scaling
ruthless
rehabilitation
quarantines
punishment,
prepping
plastered
noisy
naughty
lockdowns
lax
justifies
introduces
intrinsically
intimacy
hearings
fragments
for..
flown
fission
filtering
employing
ego,
e-mail
displaced
deficits
dates,
cravings
construction,
cone
complacent
caucus
bike,
bandaid
annoys
animated
Slowly,
She’d
Sally
Population
OK.
Into
IUD
Employee
1:1
*this*
(basically
&gt;I’m
"when
"These
##tive
##gh
##ded
“Then
§
winning,
wallet,
ventilation
transitioned
tilt
there..
tainted
strides
stocks,
sow
smeared
sequester
sensations
sandwiches
roasted
republicans,
repairing
rendering
pooping
physicist
photographer
phage
patiently
patently
occupying
nutritious
neuron
mitochondrial
lettuce
knot
kilometers
it,”
incentivized
honesty,
happend
grooming
fiancee
fence,
excludes
ensured
doubles
cuddle
crux
clutched
capitalist,
betray
band,
aunts
anthropogenic
amd
altruistic
acquiring
Planned
Oliver
Mainly
Maine
GHG
Birx
Aliens
Absolutely,
12th
"Sorry
«
yelled,
week's
sync
sparked
sirens
shitty,
shaping
settles
scraped
reliability
preventive
pervasive
overlooking
outlandish
org
omega
oligarchy
now"
mitigated
misinterpreting
meditating
instituted
hum
hub
hissed
felt,
expands
estimating
electable
destiny
criminals,
compliments
clauses
chorus
carefully,
brute
breathe,
authentic
arousal
amplified
abject
Yorkers
Trillion
Timothy
Iceland
Employers
Doug
Court,
CV
Break
Birth
Biology
1.6
(95%
"because
##ied
##en,
whos
volume,
undermines
tuning
toxin
timeframe
tasks,
shovel
shocked,
reaper
re:
radio,
pro-life
pox
pleaded
phosphate
mistaken,
migrate
might,
mdma
journey,
imo,
growing,
goofy
fridge,
flawed,
flag,
ethic
epicenter
enemies,
durable
documentaries
cutoff
courts,
contradicted
collaboration
clad
charm
canal
cafe
busy,
barren
atm
Yellow
WiFi
Vietnam,
Traffic
Stick
SEE
SARS-CoV-2
Regular
PDF
Mindfulness
Auto
(For
##3,
##kin
“Now
zoning
youth,
wings,
unemployed,
to"
them;
supplying
staffed
spying
sexily
refunds
refunded
refund,
reasoned
psychic
priests
ppm
polluted
patriotic
optional
objection
na
looks,
landslide
irritating
ios\uapp&amp;utm\uname
inexpensive
indoctrinated
humanities
frequently,
forged
fails,
employer's
embassy
eliminates
doubted
dichotomy
degrees,
degrading
dedication
day)
cooking,
convictions
chapters
behaviors,
barber
attributable
anecdotally
Whitmer
Vietnamese
USS
Syndrome
MAKE
Jessica
Good,
Gene
Amsterdam
500k
##us,
##ice
##ct
##ah
“Good
way)
veg
tones
time;
theorized
teleportation
substance,
strands
sprinted
shuffle
senate,
salts
rage,
parents’
moons
minority,
local,
libraries
juice,
investigators
insides
impatient
illuminated
grieving
furloughed
exceeded
embodiment
eagerly
duty,
down"
dough
descriptive
day..
chopping
believers
assemble
alternative,
Wealth
THERE
Salt
Pokémon
Medicare,
Jobs
Fall
Dumb
Disclaimer:
Demand
Bet
Austin
Agreement
40,
(often
(He
##.’
##our
##ming
##fe
##body
wrists
withdrawals
utopian
unseen
uncontrolled
tip,
the,
that;
tattoos
tackling
superiors
stung
specialize
speaker,
spaghetti
semantic
roommate,
registry
races,
pits
obscene
mobilize
lunatic
jailed
intervention,
if/when
heel
gross,
grandma's
goat
fundraising
fountain
detectable
commuting
christ
chopped
childbirth
broadcasting
austerity
astronomical
aquatic
applicants
Younger
Worf
US's
TN
Shadow
Normally,
Lead
Hearing
Dallas
Chicago,
Appreciate
1-3
(N
##I'm
##un
##que
##ka
##ever
wrath
who’ve
wannabe
visitor
utilities,
user,
usage,
timed
strand
songs,
silencing
sharply
released,
questionnaire
probiotic
oncoming
offshore
nuances
monumental
lsd
lash
laced
jewelry
inquiry
hypocrite
herbal
grapes
grammatical
geological
gamer
foremost
fo
fetch
exhibited
excessively
evidently
employee's
documenting
disable
dataset
conceive
compact
command,
butterfly
bursting
bored,
bonded
bets
battery,
arrests
are:
annoying,
acknowledges
absolve
Winter
Viruses
Stalin,
SAME
Rules
Phoenix
Nevertheless,
Massive
Maria
Leon
It’d
Iran,
Chinese,
Chapter
Accidentally
90s,
9/11,
10000
*not
&gt;a
&gt;On
##7)
##'m
##ner
##ize
##ization
##its
##ile
wet,
victims,
uncle,
tennis
sipping
robbery
revelation
resorting
racially
put,
punitive
psychopaths
potatoes,
matter)
kitty
intends
improv
honey,
harshly
exploitative
exchange,
ex's
epidemiological
effecting
description,
deductibles
cooled
contexts
constitution,
compromises
clear:
chop
captive
behold,
auditory
abilities,
Woman
WHEN
Ugh
Trees
Stewart
Radio
PE
Mediterranean
Marx,
Figure
Bluetooth
Bar
AF
ACA,
1.8
1.3
(how
(around
(according
"Sorry,
##8)
##tes
##html)
##his
“good
writer,
victories
vanity
trashed
things:
texts,
testicular
slang
showering
scholar
say..
row,
restoring
radiation,
pine
pharmacies
owner's
outlines
outliers
officials,
masses,
lived,
liter
libido
languages,
irreversible
inpatient
incoherent
i.e.,
human's
harsher
good"
glaciers
flickering
enforceable
eg
detector
deity
currency,
cumulative
coordinating
compliant
commerce
clusters
chemistry,
carbon,
ban,
awkwardness
avoidable
ambitious
advertisement
adjuster
Wyoming
Thanos
Recent
Program
Plastic
Jokes
IANAL
Forest
BOTH
2002
"Excuse
##**:
way..
untested
um
translating
telescope
symbolic
sunset
succession
sea,
routine,
rockets
redo
plurality
pill,
physicists
periodically
onus
one..
it?”
household,
hallucinations
groaned
figures,
exposes
dispensary
discrete
crisp
cigs
cave,
buzzed
based,
barn
banged
all..
against,
We’d
Tommy
Thursday,
Tech
Pentagon
Kate
Individuals
Action
Abrams
69
60,000
2,500
18%
"no"
##youtube.com/watch?v
##ong
##back
verifying
toys,
straightened
shut,
sexes
punches
proposes
projectile
pressuring
overpriced
obese,
novelty
nous
nonetheless
loops
judgement,
ins
her..
fibre
fairness,
episode,
enacting
eldest
echoes
drivers,
discard
dept
deficiencies
day's
curved
cripple
creature,
colors,
choose,
blurred
TL;DR.
Ray
Nation
N.
John,
Haven’t
Grandpa
Drink
Catholics
Baker
ABC
2014,
1st,
11%
...
(4
"black
##7,
##);
##people
##because
vents
undesirable
unbearable
synthesize
spectacular
sociology
snaps
seldom
sales,
retroactively
pseudoscience
practitioner
particulate
oxide
outweighs
organised
occured
neo
moron,
modes
mat
masked
mammal
likewise
irregular
interpersonal
informs
illegitimate
genres
family’s
fades
facility,
entitlement
empower
discrimination,
dilemma
darted
closet,
cables
butter,
buffer
bud,
armour
advent
YEARS
Travel
TOO
Near
Naturally
Meditation
Medicaid,
Kings
Emily
C)
Banks
BPD
*after*
(possibly
"yeah,
"Very
##9,
##ere
“One
uptick
thing..
sulfur
stump
sophomore
sidebar
researchers,
reported,
rebel
pulp
predisposition
preconceived
physically,
passwords
overreacting
overcoming
oppress
kisses
jelly
intel
hopping
guesses
germany
fuels,
filming
engineering,
elicit
dwell
doomsday
divisions
discovers
defy
defective
days)
counterparts
continental
club,
cellphone
butthole
boycott
bowls
ballots,
assaults
armored
annoyance
acquisition
abstract,
Virginia,
Tomorrow
RN
Patriot
Nov
NZ
NEW
Modly
Fund
Engineering
Edward
Dream
Cognitive
Chronic
(among
##5%
##ear
wing,
wedding,
vain
unattractive
ultimately,
trustee
textbooks
technologically
survival,
summers
strategically
sponsor
sociopaths
slices
simplify
shat
scams
revolves
regions,
reassured
qualitative
privatize
principle,
pests
paw
overworked
oversee
outpatient
odor
minding
master's
instant,
him)
heaven,
genocide,
foresight
footing
flickered
factored
derivative
density,
deliveries
defenders
crumpled
course)
cooks
convict
considerations
complete,
comparative
colonialism
clap
capped
caller
bruise
betterment
assessments
allergies,
Who’s
Roe
PI
Miller
Lab
Kemp
Illegal
Farmers
Expect
Cities
Allowing
(10
###
##who
##per
##now
working-class
whatnot
tribalism
to:
swear,
stomp
siblings,
remorse
reef
recieve
rebuttal
puzzles
possibility,
polio
plugs
pillar
pesticides,
personal,
paramedics
neon
mortality,
mitochondria
mentor
mantle
mandates
library,
juices
jackass
institutions,
incompetence,
holes,
heavens
hash
happiest
grandmother's
garden,
forefront
fascism,
expect,
epidemic,
contributors
collector
civilization,
cheers
capitalize
bounty
boosting
beverages
auction
artist,
aroused
alters
alerted
affinity
W2
Summer
Stan
Rush
PAC
Oregon,
MN
Lyme
Honey
Drop
Coal
BB
9-5
80,000
24,
16th
"she
##6,
##-"
##op
##more
wiring
where's
vaccinating
turbine
structures,
stroke,
slash
silenced
shuffling
shopping,
sentiment,
seafood
retention
pot,
playing,
overnight,
murderers
missions
miners
miles,
meaningfully
legalizing
kidding,
jurisdictions
item,
isolation,
insightful
indulge
illustrates
hurdles
hookup
hilarious,
guard,
glare
fixated
fix,
exiting
exceptions,
el
edits
earners
duplicate
drinkers
dishes,
deferred
curve,
cried,
confrontation
compromise,
commodities
city's
chairman
cascade
bye
bricks
becuase
beautifully
aerobic
advantage,
adjustments
Youth
TWO
President's
Portland
Orleans
OD
NBC
Lewis
Jonathan
IM
Hopkins
Holding
HIV,
Eyes
Elder
Brazil,
Arkansas
Android
2A
25k
&gt;At
"Ok,
##ou
unauthorized
transmitting
there)
themself
suspending
spins
slick
slashed
shots,
shatter
sexsexy
sell,
segregation
respectfully
quarterly
pupils
provided,
prolong
patented
nutrition,
mounting
moderators
miracle,
livelihood
laziness
kids'
janitor
intervals
injure
hunch
homeowner
herbs
granted,
goose
geography
fruits,
familiar,
equitable
enroll
employs
eerily
editorial
downturn
confusing,
colonized
circus
charismatic
cartridges
buds
blindness
berries
belittle
assassination
alphabet
accusers
Smart
Sign
Poverty
Palm
OVER
Lawyer
Katrina
Justin
Happens
Governments
Corps
Clearly,
Boys
Above
ACTUALLY
*because*
*It
(particularly
"an
##s:
##ly)
width
visions
village,
typo
though;
ship's
right"
responsive
replicating
reopening
release,
relatable
redirect
rebound
pundits
proportions
pony
paternal
palace
organisations
orb
nur
neighbor,
neglecting
nanny
melatonin
mastered
lockdown,
letters,
legendary
intent,
infinity
impulsive
idealistic
flow,
feast
endocrine
encouragement
eBay
drilled
dove
disrupted
delivery,
decline,
converts
coincidentally
clutch
clocks
circling
chat,
beacon
backbone
attain
assigning
asserted
arose
aren't,
analytical
accompany
Walk
THINK
Stress
SAT
Pizza
Perhaps,
IL
Hillary's
Hardly
GE
French,
FELLOW
BEEN
330
##-style
##ties
##sis
##rn
##izing
“he
undeniable
tv,
tu
ticks
teacher's
sunglasses
stunning
stocking
startup
splash
soo
selfishness
revoke
resilience
regard,
refrigerator
procedural
podcasts
playlist
pieces,
pesky
parallels
meetings,
mediated
marketplace
locations,
juul
jointly
jobless
insecurities
farming,
dormant
ding
described,
debunk
cubic
credence
crab
contend
connectivity
concerted
conceived
censored
camp,
borne
betrayal
amplify
acquaintance
abhorrent
Wing
Wanna
TIFU:
Stand
Philippines
Nonetheless,
Newsom
Marriage
MIT
MAY
Looked
Level
Industrial
Hours
Genetic
Female
B:
6,000
(via
&gt;It’s
"very
"socialist"
##19
##p,
##in,
“To
zone,
whore
waves,
virginity
unavoidable
thirst
supervised
summarize
stationary
sequestration
search,
revisionist
ravaged
quo,
psychedelics,
prosperous
prohibiting
prints
physical,
lipid
jealousy
infringement
icon
haired
goddess
für
furiously
freelance
exports
evade
enforcement,
empowered
emergent
embryo
ducks
ducked
dizzy
distressed
diets,
crater
controls,
continents
constituent
clan
checkout
charcoal
analog
airports
acknowledgement
Urban
Throwing
Sue
Movie
JFK
IRL
Awesome
Airlines
2am
2000,
150,000
(well
"New
"Chinese
##ions
##ably
“Let’s
workouts
warranted
waived
viewpoints
vetted
vectors
utmost
up:
undead
track,
terminating
swarm
sis
remedies
pup
proponent
primed
ot
orbits
onboard
not..
muslim
middle-aged
illiterate
hyperbolic
hotline
guild
genius,
famously
ex-wife
document,
disclaimer
digestion
deducted
cultivated
causes,
carcinogenic
built,
blowjob
appearance,
[You
Teaching
Sweden,
Strong
Scandinavian
Option
Oddly
Obesity
Milk
MMR
Lisa
LONG
HR,
Funny,
Forcing
Federation's
Empire,
Chairman
Brett
Adult
98
(almost
"most
##’t
##tor
##sa
##bility
xenophobia
vulnerability
variables,
vague,
trips,
surpassed
subtly
spur
specificity
smears
simulating
session,
scissors
schemes
satellites
russia
rocked
river,
ptsd
protest,
proposition
privacy,
opportunistic
off"
node
navigating
lions
life-threatening
kin
jog
itemized
immigration,
hypothetically
humming
horizon,
handicapped
experiments,
encryption
emergence
elements,
disposed
didn’t,
demise
convoluted
contraception
bombarded
awareness,
assignments
amusement
alcoholics
Toyota
Thai
Spend
Porn
Palestine
Mum
Mormon
Minimum
List
Indigenous
Bonus
Beach
Alien
2.0
(people
"high
##S)
##then
##ery
##d”
wasn't,
walmart
viewer
vaping,
uncles
thugs
thighs
thee
stroking
stirring
stale
spaceship
spacecraft
scholarships
rn
reservoir
resembled
propagate
polled
polished
parse
outreach
monopolies
medicated
lonely,
intake,
inflict
included)
helium
gravel
flirt
filmed
deported
delusions
curves
conducive
compulsory
clit
circumvent
bummed
beef,
assume,
ancestry
Wayne
Square
Sent
Reducing
Reade's
Psychological
Fucked
DNC,
Bureau
AKA
53
*exactly*
(first
&gt;you
&gt;One
"essential"
y/o
welcome,
uneasy
ugly,
threats,
taps
sustaining
summed
stimulants
stagnant
sprung
solid,
silicone
scam,
revisit
resonate
replenish
relay
realized,
punishments
pollen
permission,
particles,
overturned
overblown
nobody's
nation’s
mars
m8
labour,
island,
invites
intimidating
installation
inserting
initiatives
indefinite
glances
founders
for)
depicted
considered,
connection,
celebration
beverage
belt,
assertions
appointment,
accepted,
Sweet
Setting
Raising
Opening
Indeed
Forgot
Doc
Colorado,
Collins
Apart
Admiral
Additional
10s
(same
"you"
"friend"
"Now,
##have
##ers,
wizards
unsubstantiated
unintentional
terrestrial
stressed,
sort,
softer
society's
shielding
shelter-in-place
severed
rescued
recruiting
profile,
predicated
phobia
penetration
pattern,
partner's
overtly
oversight,
organizations,
noses
mushrooms,
modeled
militant
media's
masse
magnificent
involuntarily
intentions,
insistence
incur
in)
hurts,
heap
harsh,
gospel
fumbled
font
exception,
eradicated
dues
developed,
detain
curly
compression
complaint,
competitor
coded
cm
circuits
chuck
c)
bubble,
broccoli
bragged
bolster
amygdala
allocation
abusive,
abusers
TNG
Scottish
Samuel
Night's
Knowledge
Interestingly
GOT
Fighting
Feds
FAQ
Egypt
Bush,
Bacteria
Ash
Also:
Allow
9%
2001
1980s
"less
"common
##’d
##ven
##e”
##ew
##an,
weakening
um,
turtles
troll,
trapping
traitors
trailing
sycophants
slime
slams
screened
scariest
resisted
reeks
ports
plaques
photograph
performs
normalize
logistical
internationally
interaction,
incarcerated
inactive
hunting,
huddled
generators
forwarded
fluctuations
fierce
feed,
familiarity
exceeding
doorbell
corn,
contemplate
combating
cleanup
cleaning,
clawed
chemotherapy
cat's
biologist
benzos
awhile,
applications,
antisocial
ankles
agendas
SSRI
SE
Nowadays
Lithium
Jennifer
Heard
Girlfriend
Fine,
Except,
Domestic
Correct,
Chemical
Boomer
5:
125
(5
'cause
&gt;Because
"free"
"Tell
##25
##well
##t"
##ral
##ose
##ki
##ha
wir
washes
vibrant
trough
successes
stamped
smelly
smearing
skinned
skeletons
shadowy
sequencing
sector,
returned,
restrictions,
relieving
recovery,
rails
pessimistic
person"
payday
paradise
overload
origin,
meet,
massacre
licence
jerks
ions
implicated
implanted
greeting
ginger
giggle
frogs
epilepsy
embarrassed,
eighth
drenched
disagreements
decaying
daring
conveyed
change"
caption
capitalists,
amazes
accordingly
accessed
abyss
abused,
Wolf
Weinstein
Venezuelans
South,
Same,
Overton
OT
Martha
LITERALLY
Kurds
Intercept
Illinois,
I'M
Employees
Deaths
Dean
Create
Biggest
Beijing
Aren’t
"no,
"An
##8,
##she
##over
##bly
“Yes
·
wie
weirdo
wavelengths
vomited
visuals
veil
tensions
tbh,
supremacists
strode
software,
reclaim
presence,
prefrontal
pledge
paws
operators
offence
mole
misled
me”
man-made
lobbyist
leveled
inhibits
indifferent
inclination
imposter
gymnastics
grill
etched
drop,
disqualify
deathly
credited
companions
clocked
biochemical
advertisements
addendum
TRUMP
Strike
Statistics
Science,
Revolution,
Polish
Metal
Lock
King's
Evers
1990
1984
(sorry
(hence
(As
##?’
##va
##r"
##ime
##ase
winters
watched,
vindictive
vegan,
uh..
ubiquitous
throats
suite
stranger,
stolen,
stalked
staffers
singer
showered
shockingly
shenanigans
sewing
sequel
selves
saying:
sanitation
rushes
rhino
privy
possessing
playground
persecuted
peers,
pavement
overweight,
neuronal
nationalize
monarchy
me?”
manifested
lineage
latex
intriguing
insinuating
injections
infects
imports
hyped
hunger,
hunched
honk
highs
haze
governor's
flimsy
firearms,
features,
facilities,
explained,
epitome
endured
deranged
dang
cruising
creditors
congress,
commie
collects
cheaply
charter
causation,
byproducts
burn,
argue,
accompanying
Wanting
Slow
Moderates
MD,
Later,
Genuinely
Flat
ENTIRE
Denver
Cali
Build
Ban
ANYONE
30's
*also*
(our
"Will
"Bernie
##We
##-type
##with
##pt
worsen
whim
watching,
wastes
vetting
unimaginable
unify
uncomfortably
tolerated
toaster
tightened
testicles
territory,
tempting
subjects,
stations,
stacks
stacking
sobriety
sensationalist
sail
reiterate
regulates
proteins,
procrastination
ploy
pinched
persona
periodic
peeling
passively
ofc
normally,
nonexistent
no..
myself)
monologue
mode,
life..
lenses
intrigued
intricate
intimidate
interconnected
instability
horse,
holographic
hinges
hill,
herbicides
guy’s
grape
gradient
frying
frivolous
flesh,
feedback,
equates
disputed
dispensaries
disgrace
disappeared,
dirt,
diluted
demon,
decorated
creeps
construed
consented
chilled
boy's
almonds
agent,
accretion
abrupt
Welp,
Sander's
McDonald’s
Exchange
:/
20s,
2009,
2000s
(let's
(hopefully)
(We
"Hello
##He
##))
##other
##care
work)
wich
unaffected
tobacco,
third,
therefor
syndrome,
squares
spared
solar,
sentencing
selfies
seas
scammer
rough,
roofs
rigging
republican,
primates
potency
phenomenon,
parliamentary
obsessive
none,
merry
materialist
jammed
inquire
innocuous
humility
hegemony
habitual
giants
gamers
financed
fascist,
familial
exemptions
excited,
exchanges
evangelicals
downstream
degenerate
cheesy
block,
bien
battlefield
astounding
allowance
alienating
ailments
affected,
a,
Xanax
Thoughts
Reason
Posting
Lyft
Lenin's
Karma
IIRC,
HUD
Everyday
Discord
Correlation
Cash
Campaign
7.5
62
0.1%
&gt;Are
"what's
"some
"out
##'ll
##ig
##den
wave,
wastewater
veggies,
veggie
uttered
unforeseen
tissue,
tickle
tickets,
strengthening
strawberry
stemming
standing,
shaft
puppies
public's
prof
plugging
petrol
pediatrician
patrons
paced
organs,
ominous
occasion,
nicotine,
muslims
misrepresent
mesh
match,
mages
lunar
login
lawsuit,
indie
images,
idly
historian
hesitation
giggled
farms,
elitist
electability
dust,
dress,
drains
donut
distribution,
dishwasher
dashed
crumble
cleansing
bidet
astronauts
appealed
affidavit
abort
Solidarity
Revolutionary
Polls
PPE,
Ones
Mitt
Hurricane
Franklin
Franken
Clark
15k
*for
&gt;Can
&gt;Biden
"new"
"Mr.
##ore
##e)
youd
wielding
wagon
vengeance
uterus
unvaccinated
underpaid
trimester
tiniest
thinner
subsidies,
something..
sister’s
shards
settlers
scoring
re-read
rapes
outlining
outlaw
officers,
non-violent
nodes
même
muted
measly
mantra
lord,
jacket,
infringing
ineligible
illnesses,
histories
gunshot
grumpy
gens
facade
exercised
drags
diamonds
designation
cupboard
crews
creeped
consultant
concludes
brightly
bombed
assumption,
appliances
antiviral
anomaly
aliens,
YES
Wash
Tree
Testament
Stimulus
Spending
Silence
Saint
Repeat
Putin,
Norwegian
Nine
Morning
Hotel
Harold
Guaido
FIL
Division
Avoid
150k
1400
*they*
(plus
(obviously
"We've
"Please,
"Hello,
##(I
##em
##ca
waiting,
turmoil
thrill
though:
thickness
teleport
teased
stressors
stops,
sodas
signed,
selfie
scandals
runoff
reschedule
radiating
provincial
privatization
polymer
perfectly,
pathology
p.
onions
norm,
nights,
nearby,
mechanism,
irritation
intrusive
inhumane
hurtful
hormones,
heartbreaking
generalizations
gear,
gazing
gastrointestinal
fiscally
exchanging
exaggeration
eve
evaporate
emits
earnest
dams
custodial
cowardly
copay
compass
coils
clowns
chocolate,
chicks
cheered
boxing
bolts
blind,
bitch,
baffles
attributing
Vladimir
Spotify
Realistically,
Norway,
Lenin,
Latino
June,
Juan
Iowa,
HRC
Google,
Folks
Fascist
East,
Dad's
Covid-19,
Claims
Born
BAD
Adults
Absolute
58
1.7
*He
"science"
"nothing
"Welcome
"Some
##mer
##im
##ber
“Get
withdrew
vibrating
unique,
uniforms
teens,
sweat,
surrounds
supermarkets
submissions
storm,
stalls
slimy
signalling
shortened
shooting,
scolded
sailed
rounding
regained
rabbits
processor
pint
outgoing
ours,
objects,
neuroscience
mystical
melts
medic
me,”
ketosis
interviewer
hypothesized
hominem
hierarchies
here;
handle,
handicap
gunna
graphs
gaslight
followed,
experienced,
essentially,
errors,
emphasized
departure
decipher
currents
conserve
coined
clump
certain,
cavity
category,
branch,
bowl,
behaves
beat,
apprentice
anti-capitalist
ammonia
Weight
PA,
Oxford
Laura
Kerry
Issue
Intel
Heavy
Gordon
Constitution,
Chad
Buddhist
Bruh
Bringing
4.
(based
##man,
##io
##get
“Please
workings
whereby
well)
watering
vouch
vibration
veganism
untouched
unholy
uncontrollable
tending
takeover
stutter
spawn
soybean
slay
sights
settlements
schizophrenic
sauce,
saint
reliable,
receiver
ramped
plunged
perfection
passes,
neoliberals
nan
mismanagement
miscarriage
liters
length,
lad
jab
invariably
impeachment,
heed
growled
gesturing
genocidal
floats
fleeting
farm,
expectations,
everyones
err
elevate
dipping
demo
decentralized
condone
chatter
california
besides,
bandage
anti-Trump
adherence
accessibility
abstain
Wuhan,
We,
Volume
Treatment
Thailand
Panic
POV
Months
Matrix
Johns
ITS
Honda
Grey
GREAT
Egyptian
Dakota
Contrary
Birds
4k
240
*before*
"best
##s",
##off
##bs
##ack
“get
“..
warren
uk
tyrannical
third-party
thing"
that?”
testicle
swiped
succumb
stretch,
stomping
sci
reservation
renter
reelected
rained
punishable
pounded
ponder
patio
on)
nuisance
neurologist
mr
mop
mistaking
man..
liability,
lasers
innocent,
ill.
here"
haven
fumes
fu
envision
eerie
drunkenly
diagnosing
deafening
curl
couple,
captures
boredom
bone,
attic
announces
android\uapp&amp;utm\usource
ambassador
allies,
addictions
abysmal
Treat
Tobacco
TAKE
Rob
Quebec
POC
OWN
May,
Jupiter
Jeffrey
HIM
Essential
Effect
Economy
Dunno
Drive
Calm
Breitbart
Below
Antarctica
'I'm
"On
##Q
##9)
##12
##'re
##wn
##low
windshield
whistleblower
virus"
untold
turnover
towering
torso
suppression,
spectacle
solidly
she,
shareholder
sexist,
sabotaging
rubs
rim
replacements
provoke
progressives,
planets,
peaks
paved
overseeing
occurred,
night's
networking
morale
mission,
misplaced
mishandling
may,
loosen
leftovers
i’d
investment,
interrupting
gummy
gulf
guidelines,
guardianship
growl
frustration,
former,
fitted
firm,
everybody,
establishes
established,
essence,
entertainment,
enjoy,
dividends
distilled
dissent
descend
dann
curry
cottage
contention
conditional
chatted
certificate,
cautiously
burial
brother’s
bees,
bathing
attracts
associating
assassin
asphalt
Training
Terrible
THC,
TBH
Socialism,
People,
Paper
PCP
Methane
Lot
Leo
Families
Extra
Employment
Creating
Burger
Babies
Ares
AFAIK
7-8
*We
(or,
&gt;All
"can
##AL
##old
##g,
wrongfully
workplace,
witnesses,
voiced
torture,
suspiciously
stripes
spices
specifies
sold,
shipments
schizophrenia,
sand,
retribution
reservations
replies,
raped,
rainforest
purchase,
proponents
professionals,
practitioners
phrase,
perpetuated
pediatric
paywall
omg
oblivion
nowadays,
muttering
mehr
is;
incase
harmony
haben
freshwater
foundational
flavour
doses,
decimated
cumming
cramped
correspondence
coat,
cleans
bungled
brewing
brainwashing
beep
anyway)
anti-science
Welsh
Stein
Quality
Propaganda
Pepsi
Next,
Marvel
Martian
Lindsey
Lego
Impeachment
Ideally,
Downvote
Dad,
Christine
80s,
2003
1100
(much
&gt;Your
##US
##.jpg)
##ved
##ro
##n’t
##ly"
##lt
##can
wellness
vacuum,
using,
techs
tanking
tanked
superpowers
stew
statues
state)
sneaky
smog
safer,
relentless
regenerate
potty
ordinance
nominating
morbidly
mandating
lumped
links,
inventing
introvert
inference
inanimate
improperly
impractical
howling
harbor
grandkids
geopolitical
forwards
flaws,
favorites
explosions
essentials
earths
e-cigarettes
dunk
dogma
dnc
collectors
climates
carbohydrate
blond
beast,
awaken
airport,
Wear
Tokyo
Staying
Stalin's
Smoke
Sir,
Pope
Olympic
Nintendo
GOING
Block
Billionaires
American's
1600
14%
*real*
*And
(perhaps
(either
"let
"We'll
"Uh,
"Its
##cs
“you’re
“He’s
x-ray
words:
void,
tentacles
synthesized
suppose,
summary,
stick,
starters,
sourcing
sores
sexuality,
sensational
royally
rodents
risked
reporting,
relentlessly
rains
pushback
pry
procedures,
problem:
previously,
presently
pointy
players,
participants,
out”
orgs
novels
necessarily,
nauseous
moderate,
meddling
lure
knuckles
japanese
inhibitors
inhabited
humid
grotesque
felons
divides
deceptive
congrats
conclusions,
complicate
chimps
cartels
candidacy
brim
artifact
appalled
answer:
accomplishment
a..
Wage
That'll
Table
THANK
SSI
RNC
Psychedelics
Philadelphia
Nurses
Means
Giant
Ghost
Emma
EMT
ACAB
:D.
87
(They
##But
##40
##sts
##ri
##ction
“is
“Because
yeah..
unsettling
tiring
surreal
staggered
spouse,
shifts,
seeds,
rightful
restoration
prosecutors
pornhub
pockets,
plight
peep
overhaul
overdoses
observation,
numbing
non-emergency
naps
motivation,
mistook
mac
lent
joins
jagged
hives
hesitated
hers,
helped,
gust
furnace
forge
feat
fangs
factoring
facet
evicting
entertained
dripped
discovery,
devastation
detectors
destruction,
daytime
cyclist
consolidated
compulsive
cleaner,
cerebral
ceases
butt,
arbitration
ago..
afterward
aesthetic
actionable
Timmy
Taken
TB
Sister
Peterson
Hands
HATE
God’s
Economics
Danny
Critical
Canada's
Arizona,
93
30th
1970s
*no
"better"
##%)
##cing
“Trump
w/o
visibility
upheld
unwillingness
treatable
transitional
torment
strangest
spacetime
signs,
sigil
sie
shines
scholarly
rips
right..
reproducing
repressed
reminiscent
regeneration
reefs
rectify
ragged
promise,
powering
portrait
poorly,
pleasure,
ones)
midwest
memorize
memorable
meager
juicy
intimidated
interferes
intents
insidious
hovered
herbicide
hay
gf,
genomes
gardens
funneled
functions,
formulate
flailing
fiction,
fetuses
executing
eternity,
energies
emulate
dungeon
dominating
democrat,
cushion
cocoa
celestial
caffeine,
appendix
actual,
accomplishing
Survey
Shouldn’t
Selling
Resistance
Pop
Nathan
NSC
Montana
Minecraft
KY
HHS
Courts
1-
(under
's
"did
##s’
##sion
##lbs
##ible
##ely
worlds,
work..
whatever)
vitriol
unicorn
under,
trench
transport,
tidal
thr
thing)
thieves
theorist
tender
tedious
suspicions
stinging
snot
shredded
seems,
retaliate
replaced,
regretting
r/socialism
protests,
plentiful
pact
owl
optimize
non-white
needy
nausea,
maple
literature,
lied,
leveraged
lends
inspires
grouped
greener
grader
governors,
folds
failings
exaggerate
dummy
dropped,
dilute
demons,
delta
corroborate
coloured
colonization
categorize
caregiver
cannon
await
attacker
angle,
aggression,
accuses
U.K.
Parkinson's
PS
Met
Med
Marco
Isaac
Imo
Francis
Darth
D&amp;D
Color
Caribbean
Canadian,
27,
2013,
(being
(Sorry
##ON
##"..
##—a
##type
##ok
##oh
##mp
##most
“that
wretched
worthless,
wedge
way"
wank
vibes
unskilled
unhelpful
unavailable
treated,
time:
that,"
telescopes
tangled
syringe
suitcase
staunch
skyrocketed
sind
resorted
relocate
rallies,
quietly,
psychiatrists
psyche
proliferation
pauses
parted
noted,
notch
nerds
necklace
module
mindlessly
loved,
kettle
journalistic
interpretation,
insulated
infringe
hellish
hazards
fuse
full-on
friday
experimented
expenditure
escapes
erotic
elegant
district,
disabled,
denounce
cynicism
coordinates
consulted
coil
cigar
chromosomes
bros
bribes
booted
bloodstream
author's
approved,
anonymity
administering
abortions,
[Trump
Welfare
UBI,
Teacher
Saving
Road
Legally,
Israel,
Gravity
Gavin
Extreme
Disorder
Coffee
Bible,
Anderson
8000
360
(those
(actually
&gt;However,
##’s,
##ler
##ken
##head
##d*
“Have
yielded
wrist,
wool
whipping
vivo
victory,
unsolicited
tumbled
topics,
tomatoes,
subgroup
stalk
sprinting
sober,
silk
rudimentary
rocks,
relive
rattling
ration
preoccupied
pillows
photo,
nope,
misogynistic
mil
mammalian
loaf
laughter,
inspection,
innocence
inflation,
increased,
immortal,
hippos
highways
hentai
heals
groan
greedy,
globe,
generalizing
garner
furrowed
frown
felon
farted
extortion
experimentation
excuse,
environments,
drums
discounted
disclosing
disciplined
diabetics
desalination
demented
cus
continues,
conquest
conflicted
chromosome
brunt
boosts
beginner
anticipating
Web
Victor
Thor
Silicon
Secondly
Sciences
Rise
Pull
Popular
Picture
Page
Nina
Morgan
Luther
Ken
IT,
Doesnt
Depression,
Bush's
BACK
Austria
3-6
(its
"he's
##your
##wise
##ged
wrinkled
worsening
woo
wit
whack
was:
vigilant
uneven
tighten
thermodynamics
strangers,
spoiler
scooter
retract
restless
rational,
prostitution
pristine
pretense
pinky
photosynthesis
pelvic
news"
neighbourhood
migrated
mi
mana
judgements
induces
imprisonment
ideation
homework,
healthier,
glycogen
fungal
fumbling
foresee
esp
escape,
erect
empire,
downloading
diff
diagram
dependents
contraceptives
confession
conditioner
charming
callous
bumbling
breached
bot,
barrage
averaged
author,
accrue
about..
Zoom
Yale
Ya,
Swine
Supply
Species
Meh,
Loved
Hades
HELL
Greeks
Front
Debt
Cook
Collective
Claiming
ATM
AH
:D
94
250,000
(many
##C)
##A,
##tal
##nts
##e*
##ball
vending
unleash
uncover
trashy
touchy
tingling
squandered
spores
son’s
someplace
shrimp
shorten
sensing
ridiculed
revolving
remission
relaxation
relax,
psychopathic
preparations
peering
outnumber
ostensibly
offenses
non-stop
midnight,
metres
legends
job"
impartial
hurricanes
hull
hardened
grains,
ghosted
filth
excerpt
ecology
doubly
domination
diversion
debts,
creation,
crank
cozy
counterproductive
committees
characterize
cervix
brothers,
bouts
blurted
are)
approximate
approx
amber
alas,
accumulating
Ukrainian
Similarly
Sandy
Rosa
RA
Pelosi,
Occasionally
Increasing
Ignorance
Grant
Fort
Farm
EI
D.C.
78
59
56
51%
1993
(rather
(aside
##Z
##(and
##‘s
##where
##ves
##maybe
##m)
##ility
“to
youve
weasel
weaponry
villain,
usa
upvoting
teddy
tailor
suicidal,
stride
smelt
seriousness,
scrubbed
scorched
scenarios,
sage
regimen
ranged
rainfall
prepared,
pondered
pause,
pancreatic
ovarian
organise
novel,
nano
n'est
muttered,
materialism
majorly
magnesium
joy,
indications
ignored,
housed
heats
gorilla
glacial
fb
essays
emailing
driver’s
dreaded
deserts
consequently
concrete,
commanded
colonize
choir
brace
bite,
because..
bankers
ballpark
atrocious
assholes,
VP,
Urgent
Um
Supposedly
Suppose
Ralph
Pot
Positive
Pennsylvania,
Net
Masters
Lord,
Li
LDL
Jamie
HVAC
Fix
Fidel
DPA
CAN'T
Burning
Alexa
Abraham
68
650
31st
1960s
1300
(Or
&gt;"The
"Here
##1%
##was
##ost
##ious
zipper
unpack
undeniably
tweak
tunnels
ticked
temperatures,
tank,
swaying
subtitle
staffer
spanning
solace
seats,
sap
ropes
returns,
respirator
recover,
rabies
precaution
philosophers
periods,
pans
palatable
nuclear,
nipples
myth,
mysteriously
maze
lowly
listener
laptops
intense,
ineptitude
incorporating
incite
hernia
grossed
grandmother,
fracture
evacuate
epidemiology
enraged
empowering
emerges
eleven
disregarded
demonizing
degraded
creditor
coronaviruses
cornered
consolidation
compounded
closures
candy,
burning,
blended
be:
baffling
authoritative
allegiance
aching
Trump"
Sinclair
SEX
POA
Odds
NK
Murdoch
Insider
Han
Eight
Corn
Clear
Cheers
Beautiful
4am
24th
1999
*one*
(within
&lt;3
"You'll
##15
##.5
##ville
##ism,
##ins
##ich
##art
“Our
weirded
wad
transmission,
tips,
timeline,
statutes
stadium
splits
solitude
shocks
shills
sentimental
sensed
semester,
scooped
scarring
ripple
pee,
multicellular
maneuver
loathe
literary
lifetimes
judgments
journal,
innovations
hydrocarbons
hubris
hopelessly
hobby,
hardships
groggy
gate,
forgo
eyeing
emotional,
eater
diverted
discovered,
dialed
defeats
crouched
confines
conceptual
comedic
coerced
co-op
burner
brain's
boxes,
bitcoins
barked
attracting
amphetamine
advisers
Win
VPN
Theodore
THAN
Store
Monster
Landlords
Jacobin
Indonesia
ISO
HELP
Games
Es
Duke
Contract
Continue
Bond
7-2
300k
2400
17%
*so
##F)
##ul
##ked
##ike
##down
##ative
workplaces
who’d
wenn
vibrations
timelines
time),
territories
temptation
surrogates
spiraling
spamming
sleeves
sickly
shootings,
shit"
shaking,
rulers
rivals
repetition
rats,
qualification
principled
peeked
pace,
orientation,
of:
multiplied
motivating
monsters,
mindset,
killings
instill
futures
featuring
enthusiastically
distress,
dissolution
disappear,
derogatory
corroborating
corrections
confident,
cohesive
clung
cartoons
cannabinoid
bleak
between,
backfire
approving
anonymously
aiding
aides
ads,
WhatsApp
WHICH
USDA
Taylor
Senior
SK
SES
Ring
MO
Line
Isnt
HCQ
Fresh
Foods
Dreams
Communication
Cambridge
79
70,000
60,
538
2019;
*that
"only
"Stop
##](https://youtu.be/
##when
##rs,
##li
woulda
wishes,
upgraded
things)
them),
technically,
supplementation
sturdy
study:
strewn
scummy
revenues
ranch
proportionally
pertains
persisted
overuse
obtuse
observers
nostalgia
multinational
monoxide
money)
momentarily
microorganisms
merged
mashed
lymph
luggage
leagues
lane,
knack
itll
inventions
informed,
implicitly
imperialists
humorous
healer
grinning
grandparents,
freezes
forecast
financially,
fallacies
exorbitant
enduring
empires
egalitarian
drafting
domains
desert,
delight
default,
copyrighted
concentrating
compiled
catering
cares,
car's
c.
butcher
body’s
biomedical
bachelors
astonishing
artwork
all"
algebra
absolutely,
](https://www.youtube.com/watch?v
West,
Update
Typically,
SA
Return
NDA
Mount
MIGHT
Jews,
H2
Garden
Fukushima
Cruise
Barely
Alfred
AR
75,000
6)
3500
*to
**A
##4%
##z,
##water
##oo
##ni
##looking
##ire
##hr
##end
“fuck
wrench
usefulness
twists
tenure
swears
striving
steroid
steaming
spaced
slur
simultaneous
sim
sec
scout
saved,
redistribute
rebels
rapidly,
quota
quid
protector
progressing
profiteering
pondering
pleasing
percentile
parole
packets
overtake
operative
operation,
nudge
metabolize
map,
liquid,
jeans,
jars
indica
identifiable
high-risk
haunts
gruesome
electors
downed
donors,
doable
demeanor
decision-making
day"
constrained
consistent,
considerate
congratulate
commotion
comb
colloquial
cloudy
clouds,
bronze
beforehand,
assisting
assimilated
asap
arising
anarchism
alignment
aided
additive
abandonment
YouTube,
YOU,
X-ray
Text
Patient
Nurse
Negative
LESS
Johnson,
IE
Experts
Echo
Darwin
Card
Assault
Abuse
80k
8-10
54
1,000,000
*”
*the*
*something*
*must*
*if*
(whatever
(using
(specifically
'not
"wrong"
"Thanks
"Take
##M)
##80
##y)
##some
##iness
##es"
##ace
workload
with..
witches
wird
voted,
visits,
vault
uncontrollably
translator
tents
taper
sustainability
subvert
suburb
stockpiles
stifle
st
speculation,
sexism,
scrubbing
saline
repair,
quickest
privilege,
populism
perverse
peeled
parks,
parenthood
paragraph,
now:
mucus
motivates
looting
lighten
laborers
kneeling
kittens
kinks
invoking
insomnia,
insects,
icing
hobbies,
haunting
habit,
goddamned
fulfillment
fingertips
fed,
epidemics
endorsements
economic,
dosages
cubicle
connotation
condensed
chord
charged,
capita,
bowling
awoken
assumptions,
arch
antithesis
amendment,
Tower
Pink
Papa
Operation
Neo
Nebraska
NP
Infectious
Immigration
Gray
Extremely
DEA
COVID,
Box
Analysis
63
5.5
3.3
270
12k
*their*
'You
##\\\u
##J
##(which
##pdf)
“all
“Yeah
“They’re
“Let
x,
verse
vanish
usually,
unstoppable
tangent
tack
subjective,
studied,
spirit,
soulmate
sociological
sneezing
smartphones
slicing
simple:
shudder
sharp,
sharing,
scanner
sanitary
salon
rituals
retreated
retake
resides
religiously
recruitment
qualms
provinces
prototype
pitiful
pinning
pillars
perception,
overboard
outstretched
out:
oppression,
oily
occupational
non-human
nationalists
nah,
my,
mutant
municipalities
mountain,
misconceptions
meanwhile,
majors
maid
liquidity
lapse
iron,
inhuman
improvement,
immunity,
homogeneous
homeland
him/her
guilt,
groundbreaking
funnier
farting
exam,
engages
elevation
elemental
dumbfounded
diseased
directions,
devout
delve
coolest
contemplated
constructs
congressmen
conference,
coincidence,
civilisation
cheat,
charred
chant
brownies
breastfed
boots,
boosted
bikini
attaching
android
altruism
aired
acquaintances
acoustic
abdomen
Visa
Turks
Stanley
Sara
Resources
RAM
Pushing
Pulling
Prove
Pretending
Places
PS:
NH
Marshall
LA,
Eye
Club
Christopher
Bird
Baltimore
8,000
4chan
2016.
*everyone*
(is
&gt;it
&gt;Most
"safe"
"other
"getting
"Would
##x,
##tle
##point
“so
worldwide,
vagina,
units,
unfair,
treason
traveler
titanium
switch,
sq
slender
slaves,
selfless
scythe
scripts
schon
rumbling
resonates
resolving
quiz
prostitute
prolly
preceding
pointless,
pledged
persecution
perpetrated
paying,
party’s
oversized
oval
outskirts
outlawed
newborns
neutral,
motherfuckers
meow
makeup,
major,
jaws
interim
inland
inconsistencies
incel
immunotherapy
idk,
gutting
gardening
fund,
functionality
fuckery
fetched
earthquakes
disproven
dialectical
congressman
chats
calms
burrito
bulbs
boarded
bigots
biblical
XR
Walmart,
Tyler
Steel
Provide
Protein
Plain
Numbers
Netherlands,
Moore
Mom's
Initially
Field
Doubt
Document
Demons
Day,
DAY
Click
CVD
Buddy
Bolsonaro
Bless
Alabama,
Aka
Adams
70's
*think*
*don't*
(p
"Biden
##It
##*)
##y”
##wide
##w,
##let
##ht
##hole
##ens
##com
##ain
“they
“These
uninhabitable
television,
sponge
source:
solvent
societies,
sixty
sides"
school)
sativa
restrain
refuting
react,
preceded
petting
penalized
pen,
pedo
pedestrians
nudity
net,
mirrored
miniature
melody
manifests
lovers
loop,
liver,
lemme
intergalactic
ingredients,
indictment
illuminating
hubby
heirs
heights
handout
haha,
gallery
flourish
flap
eugenics
engine,
drinker
distinctive
directive
dimly
diary
desperate,
deport
dehydrated
creepy,
country)
conversations,
confinement
complication
communist,
clog
chubby
cherish
cdc
biking
avec
atheist,
article's
apologised
adaptations
aches
Transcription:
Showing
SO,
Roughly
Realistically
No..
Madison
Lo
Lives
Likewise
Kong,
German,
Celsius
Ball
Articles
Apollo
All,
Agriculture
Afterwards
(two
(insert
&gt;Also
"everyone
"Does
##8%
##3%
##ster
##ians
##a)
“Ah,
yank
whooping
whims
warns
unsuspecting
trashing
tally
tacos
succeeding
strung
stave
skyrocket
sixteen
scarf
ran,
pulmonary
pubic
predators,
polarized
plates,
pins
pervert
penises
organizational
non-compete
networks,
morality,
misrepresented
me),
materially
mapped
lunged
layout
know"
killer,
judgmental
jizz
interviews,
iced
honored
holdings
here,"
her)
grunt
furlough
frontline
finish,
exhibiting
ethereal
einem
disheartening
deployment
denser
decide,
debates,
criticizes
cringing
crammed
congestion
conceivable
cholesterol,
caves
capsule
campaigns,
build,
budge
anarchy
ambiguity
activates
abundantly
[WP]You
Woof
Tough
Replace
Pompeo
Pointing
Parenthood
OS
Learned
Ketamine
IDs
Hair
Glass
Dawn
Complex
Aw
Antifa
86
*may*
(he's
&gt;if
"study"
"Even
##wing
##why
##tch
##ities
##een
##d'
visceral
vial
vampires
topical
terror,
telomere
surprising,
sue,
stainless
sentences,
rookie
revolve
renowned
reevaluate
recruiter
radicals
purged
pure,
productive,
presses
praises
potion
pooled
pokemon
plotting
ping
paintings
opting
nostrils
nic
nanoparticles
mustard
moratorium
mint
lust
loving,
life’s
life-saving
legislate
lamps
interactions,
input,
inferred
him;
helm
harmless,
grades,
goo
gendered
feather
fats,
eyeballs
extradition
externalities
extension,
expires
engulfed
easing
due,
dresses
dispatch
discrepancies
desire,
customer,
coz
contractual
comma
cleanse
chipped
chemist
cessation
canada
bubbling
blob
bird,
beneficiaries
aunt,
amenities
adept
additionally
[CA]
Teddy
Season
SBA
Question:
Pride
Owner
Orthodox
Mrs
LET
Jew
GOP's
EM
CPC
CANNOT
Blind
Background
BUT,
Answer
*But
&gt;Just
&gt;Even
"China
##ST
##60
##..the
##right
##lin
##ax
yet..
wraps
weirder
waged
trucks,
triangle
techniques,
swig
strawberries
stamps,
sanctioned
rodent
restrained
residing
rephrase
recess
reactions,
rallied
racked
potassium
poll,
overdue
originating
months)
laundering
latin
intently
instantly,
humiliating
government"
giant,
flowers,
fateful
edition
drugged
dosed
distinguishing
differentiation
destination,
dean
dart
crony
crackling
coronary
connected,
concession
coin,
chugging
cameras,
calf
bride
blueberries
backseat
asexual
arrive,
appreciative
acronym
achievable
That'd
Stage
SIL
Room
Needs
Navarro
Myself
MASSIVE
Imperialism
Identity
Ha,
Gilead
FIRST
Estate
Easier
Done
Delaware
Closing
Changes
Border
Anyhow,
Alternative
Aaron
67
29,
(R)
'a
"we"
"cure"
##CE
##/etc
##ses
##mo
##med
##ker
##j
##ium
##ene
##ba
“too
worsened
wardrobe
upkeep
unhealthy,
ungodly
turmeric
tugged
tournament
threesome
things..
terrain
superposition
sunlight,
sketch
sharpened
sever
server,
sanctuary
said..
routines
riders
riches
rib
rhetoric,
rebuilt
readiness
rags
produced,
plastics,
pictured
penetrated
pander
outsiders
ounces
nightmare,
nagging
mountains,
momentary
modelling
misfortune
miniscule
methanol
males,
ma
lodged
lesbians
lake,
know,"
jug
in"
ideals,
gratification
geometry
garnish
funeral,
fundamentalist
expresses
exporting
expenditures
existent
establishment,
errands
enough"
engineers,
egg,
dresser
do"
disposition
depiction
continuum
conclusively
clipboard
cinnamon
censoring
categorically
campus,
bridge,
biologists
battered
approval,
allegations,
acceptable,
Wanted
TBI
Scientist
Nevermind
Minutes
Inspector
Ian
Historically
Flying
Erik
EXTREMELY
Donny
Diabetes
Count
Costa
CVS
Alas,
Addiction
*much*
'no
&gt;I've
##RS
##—but
##ph
##ations
wonderful,
wells
virulent
uses,
undone
tyrant
tribute
tit
thrives
the..
teleported
swapping
suppresses
suggested,
sob
shortest
seals
schoolers
rigorously
pretentious
pls
oxytocin
ol’
obscured
objections
numerical
money"
moan
millenials
marketing,
lenient
invoked
insulin,
infestation
in:
hypocrites
housework
hospitality
honour
heroes,
hallways
goverment
goblin
furthering
fluff
fling
favoring
employed,
distractions
deterrent
deflecting
criticise
countryside
cocked
coats
clones
chrome
boom,
bonus,
baby’s
arctic
advisory
[In
You:
Yay
Weird,
Week
Walker
Times,
Sapiens
Russia's
R0
October,
Montreal
Marines
Marie
Kudos
Jr
Independents
Fruit
Ferengi
Exposure
Doom
Death,
DHS
Cheney
Che
2D
2-
1930s
"first
##This
##-I
##'ve
###
##ock
##logical
##ip
##illion
##ies,
##ex
“normal”
witty
vast,
untrained
tip:
tape,
tallest
subscribed
stance,
skulls
sickle
scales,
rubbish
robber
riled
revenue,
procure
probably,
prioritized
prior,
poetry
pleas
planned,
perverted
perks
panels,
ou
occasions,
now),
neurotransmitters
mayors
lousy
lords
lime
interactive
inevitable,
imagination,
hindered
hijacked
hereditary
guinea
glance,
gal
fresh,
fiancée
famine,
exhausted,
euros
enveloped
einer
eco
doggy
distinguished
disenfranchise
discriminating
dictatorship,
delighted
cult,
critic
contaminants
constitutionally
confirm,
circles,
circled
chained
c-section
blip
beads
authorize
admired
abroad,
[How
V.
Un
Speech
Rs
Resident
Proof
PP
OC
Maddow
Like..
II,
HOT
Goku
ENT
Cultural
Context
Cheeto
CP
CEO's
Brooklyn
Bro,
9/10
(per
(ie,
##7%
##-level
##-1
##ular
##ound
##e'
##ake
##ak
“that’s
“Okay,
wormhole
with)
weaponized
vulgar
us"
undermined
turnout,
tsunami
trek
tread
throne,
texas
te
sweets
substances,
stealth
sparkling
socialization
smarter,
slut
self-awareness
searing
scarier
rumble
roles,
repairs,
reconstruction
reader,
pneumonia,
pasture
neurotypical
necessity,
mythology
lol)
lenders
leeway
laughably
latched
jews
ish
incognito
impulses
hospitalizations
grips
girl’s
firsthand
fate,
factory,
exposures
excitedly
ethics,
entrance,
enterprises
entails
embryos
eh
draconian
downvoted,
deposition
decidedly
deception
converse
convention,
contracts,
contraction
constant,
compute
causative
burdens
breeder
boss's
blindsided
bleeding,
awakened
antithetical
aerosol
adolescence
activating
WHO,
STOCK
Oz
Nutrition
Mice
I‘m
Iraqi
Il
Evangelical
Define
Cole
Bobby
Billions
AB
28%
1000%
(through
(You
(No
(Also
##AM
##(or
##y'
##uck
##it’s
##ing'
##iest
##ed'
##ased
wiser
wierd
was)
wait..
veiled
upon,
unanimous
thinkers
there"
swiping
supervisor,
strikes,
stimulus,
speedy
skimming
skews
sit,
shielded
rewriting
reparations
received,
ratio,
randomness
puffs
plural
piracy
philosopher
petri
patient’s
openness
muscles,
molecules,
menopause
linger
lashing
ja
inflating
hypertension
hog
heath
guaranteeing
growers
grandma,
gleefully
four,
fool,
fiber,
exploits
enriched
encompasses
emptiness
empirically
edged
diploma
desks
counters
corresponds
controlled,
concentrates
compost
complying
company)
client,
carve
caring,
caretaker
carcinogens
canvas
cake,
brew
bins
bankruptcy,
bakery
aspiring
arrest,
appeared,
apnea
ancestral
analyse
altitude
aggravated
afterlife,
ace
accurately,
\\\u
Worker
Wondering
WHERE
Violent
Twenty
Redditor
Record
Neighbor
Les
Koreans
Hoover
Cases
Calories
Bolivian
Armed
24%
1950s
1%,
*this
*feel*
*If
(besides
"socialism"
"news"
##/?utm\usource
##ries
##res
##ised
##hy
##ead
“Go
wink
vicinity
upsets
unironically
unfinished
trick,
transition,
thorium
tha
tackled
sweetened
swath
sublet
stricken
steel,
spans
soldier,
socialistic
snowy
siren
sidewalks
si
shimmering
seeping
scamming
savage
sailing
retains
quotas
proverbial
protested
proclaim
prescription,
plots
pimple
opioids,
nsfw
minions
lib
kiddo
ketchup
jogging
intuitively
intercept
insurmountable
insofar
initially,
impressions
host,
heres
heartless
hammering
hacks
fueling
frustrating,
formulation
forehead,
finer
exes
enriching
enlightenment
endemic
dreading
dragon's
dissuade
discouraging
dictatorships
dense,
deduce
curses
cuddling
cram
counselors
concepts,
closely,
chips,
charity,
bumping
bullet,
briefing,
bottles,
boggles
bench,
astronomically
apples,
alterations
acutely
acetaminophen
aback
Z.
WaPo
VAT
TOS
Syria,
Staff
Soul
SARS,
Reports
Plot
PhD,
Pass
NYS
Moved
Moderate
Ma
MDMA,
Lawyers
Kentucky,
Ireland,
GABA
Danish
Clarence
Brady
Antarctic
6am
365
10-12
(6
#3
"man
"its
"With
##Trump
##und
##specific
##lb
##co
worker’s
winded
wheel,
werden
warehouses
unprocessed
undercover
undemocratic
torrent
tetanus
stripper
strains,
straining
squinted
skate
sisters,
sensitive,
sensationalized
self-defense
rung
retainer
resin
relatives,
refuted
rando
qu'il
pride,
prehistoric
pouch
pots
positivity
pleasantly
photographs
phase,
paleo
paint,
oxidation
one"
omitted
off..
nebulous
mumble
monday
modicum
mm
membranes
medical,
mapping
keeper
ivory
it",
importing
iirc
hunt,
home"
holidays,
highway,
hierarchical
handcuffs
half-life
glint
geniuses
frozen,
freight
forests,
flakes
fires,
faintly
erode
enslave
enlisted
emojis
dolphin
disparate
discounting
disarm
disappoint
diapers
dessert
confiscated
clerks
clapped
casts
cashing
brownie
atheism
assed
anti-imperialist
agnostic
agencies,
abnormally
W-2
Vaccine
Town
Shop
Sanders’
Ran
Quickly
Queen,
Parking
NICU
Mods
Ministry
MLs
Jenny
Gabbard
Feedback
Failing
FU,
Everywhere
DAMN
California's
Ain't
8am
1/5
*would*
"Nothing
##6%
##..”
##)..
##za
##ood
##gy
##gen
##etc
##ep
##c,
youll
wilderness
unfolding
trading,
tornado
tolls
tiles
stability,
spokesperson
soften
sipped
silhouette
sidewalk,
shortness
shorthand
shiver
settler
settings,
sentiments
seatbelt
sans
samples,
rhyme
resumed
refinance
preferring
powdered
poised
petite
people;
overarching
original,
orbit,
netflix
mow
motherboard
monogamy
methylation
menial
mark,
loudly,
jolly
injured,
ingrown
individual’s
hospice
hordes
holiday,
hillary
hazy
gravy
gleaming
frat
firearm,
falling,
failing,
erroneous
emoji
embarrassing,
elbows
dome
disparities
dishonesty
disapproval
dares
dance,
cyst
cooperating
chamber,
butthurt
buckets
blazing
bigot
benefitted
bedrooms
bacterium
appropriate,
alternating
again:
Voice
Solid
Smith,
Sleeping
Shapiro
SAY
Roll
Perry
Nelson
Movement
Internet,
ISS
IANAL,
GW
Famine
Dragons
Denmark,
Democrats'
Comments
Comcast
Colombia
BDSM
Aww
Attack
Ahh,
Ad
70s,
08
*actual*
&gt;An
"work
"old
"Only
"Holy
##](http://www.youtube.com/watch?v
##What
##yo
##ness"
##nes
##logy
“I’d
‘
wasp
upholding
unimportant
trilogy
thermostat
template
syllables
subsection
stroll
stoked
staples
sniper
smiling,
sizeable
shortcut
shit..
shellfish
screech
rife
revive
rattled
psychotherapy
processing,
probabilities
preterm
pooling
parent’s
optimized
opposition,
occurs,
occupancy
oatmeal
nepotism
molested
minimally
mafia
literate
i’ll
intended,
instantaneous
incomprehensible
imma
hysterically
hind
headache,
gerrymandering,
forgotten,
flashbacks
firefighters
expel
everything's
especially,
emptying
ectopic
dumps
drywall
diner
deprive
deleted,
decent,
dairy,
copious
configuration
concluding
china,
chills
character's
channel,
caved
carriage
burned,
bordering
booster
blooms
billionaires,
bankrupted
back"
automotive
autistic,
asteroids
approves
airplanes
agitated
Wait..
Southeast
PG
McConnell,
Maoist
Letter
Julia
Hitler,
Gets
Fellow
Et
DOWN
Christians,
Century
Broken
BTC
Apply
84
50%,
49%
(literally
"our
"never
"Like
##C,
##18
##tly
##stic
##bed
‘the
wrong..
widen
weakly
vaccinated,
underwent
ulterior
truthfully
that’d
that),
swab
summarized
stirred
starts,
starch
spies
spell,
sizes,
sexual,
rationing
punctuation
prosecuting
prolific
plagues
patriarchal
overwhelmed,
overthrowing
overloaded
orphan
operations,
opaque
now;
monitor,
moist
mixes
miserably
merging
memes,
lobe
littering
judges,
iteration
invaders
inert
industrialization
hush
homosexuals
hinted
hetero
hereby
halo
hacker
guardians
guarded
groundwork
grandfather's
grading
goats
gem
gap,
fingering
fatigue,
farmers,
eyelids
endogenous
emanating
electrician
doorstep
dogmatic
discredited
digested
dictator,
deodorant
denial,
crushes
credibly
credible,
crafting
continual
conscious,
collided
codeine
christians
chimed
cheek,
cartel
booty
biomarkers
awaited
automobile
aswell
animation
adventurers
Walter
Switch
Shows
STDs
Noah
Netflix,
Marxist-Leninist
Malcolm
MAN
Lance
Heres
Gut
Goes
Fingers
Example
Dept
DJ
Command
Bernard
Aid
400,000
1998
105
100K
0.5%
(·)
(likely
(high
(20
&gt;we
"low
"human
##My
##''
##there
##rate
##ion,
##from
##ave
“Maybe
zoned
wrong"
wouldve
wits
whopping
up;
unproductive
two-party
tuck
trend,
trans,
tradition,
tp
topped
ti
supernova
student's
streaks
somethings
slurs
simulator
shunned
runny
retailer
relocation
prion
preemptively
preclude
plunge
pierce
permanent,
pathogenic
para
occasionally,
neurotic
mowing
mouse,
misreading
mentally,
manpower
liberate
lesions
leased
knowing,
knots
kingdom,
judiciary
judgemental
irl
intestine
inspections
inconsiderate
inciting
hybrids
housemate
homophobia
hearted
handlers
give,
gf's
gets,
genus
general)
freeway
flattened
extort
excusing
euro
eroded
ensuing
enhancing
emancipation
economy"
downstairs,
distort
discounts
diffuse
depicting
debatable
cunt
consideration,
comical
clinicians
clinic,
class"
buffoon
branding
bilingual
bends
beeping
bad..
artery
anti-communist
another's
Wolff
Wilson
Warriors
Treating
Odd
Mercury
Lil
Jurassic
JAMA
Industry
Helps
Frozen
Forced
Decided
DV
Culture
Consumer
Choose
CARES
Bull
Beast
Bc
92
77
6k
2050
2.4
16%
-I
(A)
&amp;nbsp;
"come
"Those
"Hi,
##VE
##So
##.org
##.and
##–
##t's
##sive
##hl
withdrawing
wildfire
wasteland
waging
virgin,
viable,
uniting
unequivocally
tumour
tinted
theirs,
suspect,
successor
stuck,
starvation,
sport,
spooky
splattered
smacking
shrunk
servings
reviewers
retracted
regime,
redneck
recognizable
reaping
queens
provider,
pretty,
point)
people”
organisms,
notarized
mysteries
mums
modules
mens
mango
maiden
luxurious
lunches
lingerie
libertarianism
legislatures
laundry,
intertwined
inflamed
indoctrination
immoral,
hushed
humiliated
hippie
headquarters
handguns
furniture,
friends'
flustered
feeble
expertise,
euphemism
endorses
director,
debunking
dealings
databases
cults
critiquing
complimented
com
colleagues,
coaching
civility
chalked
buckle
brightness
boyfriend’s
blaring
biodegradable
barrels
artifacts
appalling
alarm,
absurd,
Williams
Tweet
Time's
Theyre
Teach
Stories
Sierra
Schiff
Rojava
Protective
Philly
Parks
PV
Michelle
Mandatory
INTO
Guys,
Grab
Faith
Clause
Centre
Cap
Bowie
Bolsheviks
Biological
Banning
BBQ
ACE2
74
5pm
57
1994
1990s
**What
(up
(out
(never
&gt;“I
&gt;While
&gt;I'd
"Hi
##I)
##@
##01
##-out
##-looking
##-free
##*"
##!’
##very
##sized
##ship
##py
##house
##hh
##ces
##ane
##ame
##air
“go
vowed
uncle's
tidy
terrified,
technique,
tantrums
suffer,
startling
speculated
situational
severe,
sailor
saddest
sabotaged
restricts
registration,
proofs
professor,
primate
precarious
platinum
persuaded
perched
pausing
panicked,
oxidative
ops
noch
necromancer
mourn
methodology,
manners
manly
louder,
kingdoms
kidnap
kicker
justifiable
individualism
humanly
hinting
heroin,
heavily,
habitats
gravitate
gown
gloss
frustrations
foggy
extinction,
explodes
execs
escalation
encountering
ecstatic
easement
dubbed
dorms
disturbance
diagnosed,
crumbled
correspond
contentious
contagion
combat,
coercion
churning
centers,
categorized
can’t,
boxer
barista
back..
aspect,
appreciates
appointments,
apologetic
allergy,
ah,
affective
Wood
Wizard
Venezuela's
VS
Stopping
Sales
Profit
Practice
Portugal
People’s
Kent
Joey
Increase
He,
Hampshire
GTA
Francisco,
Followed
Didnt
Combined
Channel
Carol
CFR
Brothers
Blasey
BS,
22%
*literally*
(say
(outside
(myself
&gt;There's
"natural"
"Okay
"By
##11
##-in
##-and
##ple
##ings
“are
‘The
yep,
winced
vid
us)
upstairs,
unfold
trump’s
transient
totals
took,
succeed,
stupidity,
stimulated
staircase
split,
sovereignty
smoker,
shingles
score,
scoff
satisfaction,
ruptured
ridicule
refuge
proven,
probes
peaking
parenting,
overestimating
offs
normalcy
mined
mammals,
luxuries
lobbied
leaped
kann
jeopardize
intoxication
inhibition
ingestion
inane
iconic
humiliation
headlights
gerrymandered
gentlemen
frank
foe
fascination
famines
expend
expansion,
enhances
ejected
egotistical
duped
driveway,
dissolving
dis
detox
deputy
deems
darkened
cuff
cousins,
comrades,
compensation,
cloaked
classroom,
clarity,
brand,
bliss
blade,
blackness
bet,
beneficial,
belive
bearded
avert
authors,
antibacterial
amphetamines
altar
african
advice:
Zinc
Spread
Simpsons
Seoul
Salon
Prepare
OFF
Murder
Mission
Minor
Mel
McConnell's
Massachusetts,
Loss
Lemme
Hire
Fully
Establishment
Empathy
Easter,
Divorce
Depot
Date
DSM
Crow
Cory
Connecticut
CPA
CAR
Assad
AITA
5-7
**We
(She
(15
"Yes,"
"See
"No,"
"Never
"Ah
##?,
##”)
##ord
##net
##mm
##long
##ick
##ese
##al,
“Tell
withdrawn
weakens
wacky
veterinary
venting
vaginas
unreasonably
unfathomable
undergone
undercut
unconsciously
traumatizing
todays
thirteen
telomeres
surgically
suns
suggestive
subsistence
splashed
spewed
specimen
spank
soap,
short-sighted
seeing,
seawater
sealing
sciences,
replacement,
refuse,
raised,
published,
prom
programming,
profited
procrastinate
prematurely
plucked
planes,
pissy
pedal
patron
pale,
overgrown
outspoken
neuro
napkin
murmured
moldy
mix,
misinterpret
medicate
locked,
jaded
hologram
ho
grunted
gouge
genomic
gall
freaky
fertilizers
dumbasses
draped
did)
destabilize
dearly
daughter’s
cubes
craziest
contraceptive
composite
comedian
colorectal
chore
cheerful
burden,
brown,
bloom
blankly
bachelor's
bachelor
atypical
any)
agonizing
[He
Wade
Tories
Surprised
Supporting
Speed
Spanish,
Skin
Sherlock
Sell
Rep
Push
Published
Prison
Mid
Lancet
Hawking
Harbor
Hans
Guide
Gee,
Fox,
Express
Dying
Dems,
Darkness
Confederate
Chapo
Books
BIL
August,
Angeles,
Affairs
96
76
24/7,
220
2.6
1/10
*most*
**This
&gt;"I
"Ok
"First
##500
##year-old
##ture
##ising
##is,
##hot
##hood
##ag
yadda
winged
vines
ventured
va
ups,
unsuccessful
unknowns
tumbling
trigger,
this?”
this,"
tanks,
tactics,
sun's
suffice
straighten
square,
soundtrack
sampled
rustling
rift
reprehensible
reinstate
reflux
recognition,
recalling
quell
proton
programme
profession,
premiums,
posit
pdf
padded
out-of-pocket
oppressing
ont
oftentimes
occupant
now,"
nieces
narcissists
mockery
misdiagnosed
mimicking
milkshake
manga
maliciously
lows
load,
listening,
inn
infidelity
hamster
grenade
greek
graveyard
fundamentals
full-blown
fortified
floss
flared
filtration
evaporated
electrolysis
elastic
douchebag
dong
dislocated
cultivate
crazies
crack,
corporatist
copy,
controversial,
constructing
commonplace
comme
clipped
clients,
buff
bath,
bastion
bandwidth
backstory,
backpack,
Vancouver
Tbh,
Skype
Prize
NA
MeToo
Libertarians
Kurdish
Jesse
Ivy
Internal
Impossible
Finnish
Experience
Dyson
DeWine
Conspiracy
Citation
CDC's
Belgium
Assume
5am
23rd
2020.
(30
&gt;So,
##SA
##OR
##E)
##.but
##zy
##rich
##nic
##ments
##ja
##field
##ect
##d)
“your
wrecking
wisdom,
watery
washroom
voicing
vag
unspoken
time”
that.”
symbiotic
swirled
sublease
stockpiling
sterilize
stepfather
stalled
squirt
something's
somebody's
science"
retailers
resemblance
recharge
proprietary
propagation
programmers
pooped
phony
phantom
persistence
overthrown
overlapping
n95
midterm
metaphorical
maximizing
mastery
managers,
lore
landfill
knee,
journalists,
jolted
introductory
insurances
hut
hideous
heavenly
grit
grandmothers
grammar,
foreplay
flurry
flicking
flicker
extracts
expansive
eased
discretionary
dinners
devised
criteria,
cortical
coop
conveying
comet
collusion
changer
cartridge
cal
bureaucrats
btw)
bourgeoisie,
biochemistry
bankruptcies
automate
aus
arsenic
apologist
animosity
anguish
all-cause
airlines,
a.m.
Wave
Taliban
Seattle,
Roundup
Potential
Philosophy
Noam
Meet
Khan
ISP
HERE
Fossil
EEG
Dry
Cohen
Circle
Chosen
Cheap
CBS
Booker
2019.
--&gt;
*nothing*
*as
*In
"there's
"maybe
"X
"Or
"**
##TE
##In
##tting
##induced
##hen
##fied
##ef
“good”
“and
“Fuck
wailing
ushered
unusual,
unnoticed
unconditional
trespass
tractor
tolerance,
terrifying,
synonym
syllable
sweetener
survey,
suffocating
study’s
straps
stinks
sterilization
squeaky
springs
soulless
slab
situated
sin,
shrooms,
rifle,
retrospect
resonated
repeatedly,
renewing
religions,
real-life
push-ups
protections,
prepaid
predetermined
powder,
positioning
plot,
pissed,
paypal
patriot
ninja
neanderthal
mourning
motto
moths
miserable,
miracles
might’ve
medium,
maxed
mangled
liked,
left"
lap,
laden
infused
hiss
here.”
helping,
halting
grey,
grandmas
god's
glee
flopped
flop
fender
eyesight
extinctions
expedition
employers,
e-cigarette
down..
don‘t
domestication
distinctions
dissertation
depletion
dependent,
demonized
deluded
deficit,
decided,
creations
conjure
comprise
compounds,
comms
comics
comforted
clasped
ceramic
bunny
better"
antivax
anecdote,
aging,
adulthood,
Y,
Two,
TVs
Station
Scary
Protect
OB
Nowadays,
Nova
Nate
Mister
Leading
KNEW
En
Emotional
Diamond
Consent
Census
Capitol
CICO
Burn
Bigger
Beto
Beth
Beatles
BEST
Autistic
ACTUAL
70k
7000
30s,
2100
1995
1700
(was
(small
(again
"stop
"Shut
##word
##rk
##jpg)
##ina
##hour
##g)
##ement
##cation
zoomed
years;
wrong)
wrestle
world..
who'll
waaaay
vividly
unmarried
unload
understandable,
tutor
throbbing
thrift
teller
tariff
tampering
sufferers
spineless
soup,
snort
smirked
shoddy
satisfactory
sarcastic,
rusted
runes
rubble
resident,
repeat,
redirected
profitable,
prerequisite
precedence
pence
pantry
p-value
outperform
outlets,
offline
occupants
noteworthy
nationals
motors
milder
medal
marvel
manned
mama
logical,
limitations,
lazily
knit
jerk,
intruder
inhibitor
imprison
ilk
i.e
hemisphere
grouping
grandson
grandfather,
giveaway
frustrated,
frenzy
flu"
finals
fax
extraterrestrial
estimation
endeavor
east,
dwindling
drama,
donald
dodgy
dm
disappearance
dictating
devotion
denominator
cutter
coughs
collide
cig
cashiers
capsaicin
bowels
boiler
bile
bailout,
anti-abortion
antagonistic
alarmed
academy
[in
Vader
TM
Sith
Saddam
ST
Married
Insulin
Instagram,
Influenza
Hint:
Haiti
FWIW,
Craig
Assistant
Arts
Argentina
Ann
Anecdotally
71
22nd
/-
*so*
*less*
(me
(But
&gt;These
##22
##-esque
##}
##ye
##will
##wer
##nal
##genic
##ale
##ab
“You’ve
“Look,
“Chinese
über
willed
widow
weakness,
was/is
warms
wallets
visible,
victimized
usher
torsion
tapes
synaptic
surroundings,
sunken
strep
state"
squash
sparse
snowflakes
shutdowns
shivering
shite
shadows,
rheumatoid
reviews,
revenge,
retrieved
restraint
reformist
refine
racking
psychiatry
prisons,
politicized
polite,
persists
perfected
parrots
offices,
obliterated
nephews
nd
naive,
mono
metabolites
manipulation,
manifesto
lounge
loose,
looked,
linked,
layman's
interrogation
implemented,
how's
hours)
heal,
forgiveness,
filler
exhibits
eagle
dude's
drills
drawings
drawers
disillusioned
days..
dat
damaged,
creaking
cows,
contrasting
coalitions
clouded
chloride
cacophony
builder
brackets
boon
bony
bluetooth
attempt,
approximation
apologists
anything..
amounts,
addictive,
addict,
accommodating
abs
abducted
Wearing
Uni
Sharing
September,
Seemed
Romeo
Roberts
Paul,
Oxygen
Nevada,
Museum
Lately
Kanye
Italy's
Homeland
Hmmm,
HOWEVER,
Greater
Gives
FREE
Detective
Deng
DARE
Caught
Breast
Arnold
Angela
Allen
Accept
ABSOLUTELY
48%
44%
40-50
1996
16,000
115
10K
*everything*
(look
(im
(4)
'we
&gt;they
&gt;Some
&gt;Bernie
"Be
"Any
##NT
##/whatever
##ust
##tz
##style
##side
##kg
##ids
##gan
##bo
##ast
##ana
year’s
wronged
wound,
whiny
whataboutism
underdeveloped
troop
transcripts
trainers
sunday
suis
submissive
strain,
stipulation
squirrels
souls,
sorts,
sorely
soils
sniffed
smiles,
shelf,
sheets,
seating
sadistic
rooftop
repealed
regular,
realistic,
rammed
radicalized
pro-Trump
precipitation
ppe
pounds,
pickle
picket
pedophiles
pant
overreaction
opium
oceans,
nutrients,
muzzle
municipality
magnets
life)
kid’s
ketone
jarring
irrespective
insecticides
iceberg
hurriedly
guideline
groping
graders
glimmer
genre,
forgave
forfeit
fireplace
films,
feats
factories,
euphoria
equivalence
encompass
eminent
embarrassment,
drawbacks
drainage
donuts
dissenting
disinfect
disadvantages
diligent
detract
deterministic
deplete
delicious,
curling
costumes
contextual
confiscate
communicable
commissions
cinematography
chug
cheats
cancers,
butterflies
broom
boomed
birthing
berate
basic,
astronomers
archaeological
across,
accountable,
[OT]
Umm
Today's
Tiger
TON
Slightly
Remind
Refusing
Received
Rate
Proper
Monty
Marxism,
Margaret
MJ
Lmao,
Julian
Helping
Grandmother
GPU
Fascists
EVs
Dealing
DHA
Claim
Cheese
COME
Belt
Background:
And..
Admittedly
6pm
5g
37%
250k
*just
*how*
(thanks
(pun
(That
&gt;No,
"going
"TIFU
"Sure,
##.The
##ward
##ug
##state
##person
##hi
##eed
##eating
##driven
##des
##cking
youths
wrought
wreak
woven
workshop
women)
validating
trooper
triumph
treat,
tracks,
tightening
tenants,
superheroes
suggestion,
streamed
snatch
shined
sergeant
see..
seasoned
resurgence
renal
recite
reason)
really)
rattle
rationality
rarer
purposeful
predictors
postponing
plains
physician,
pet,
people:
peak,
part)
pack,
orgasm,
nuggets
north,
nom
narrowing
methane,
mediate
livelihoods
libertarian,
leaky
inspectors
insistent
immigrate
hummed
hopefully,
hits,
guarding
grin,
grievances
garnishment
fused
friggin
friendship,
formulas
following,
feudalism
exits
excitement,
everybody's
estranged
estimate,
escrow
equivalency
docking
doc,
desensitized
descending
deregulation
demonstrations
curls
cruel,
crossover
criticising
covert
coordinator
conventions
confidentiality
complexes
cocaine,
clarification,
churches,
cheque
characterization
cc
carpet,
cabinets
cabal
buffet
bounces
blogs
bathed
balding
avatar
asthma,
assassinated
apply,
accord
Witch
Weeks
WHOLE
Virtually
Understand
Together
THAT'S
TF
TED
Systems
Surgeon
Sky
Rupert
Prices
PS4
Missing
Meaning,
Kaiser
Jones,
Inc.
Hitler's
HIIT
Figured
Felix
FCC
Examples
EXACT
DC,
Cubans
Chill
Battery
Alberta
Afghanistan,
99.99%
2/3rds
1997
1/3rd
1.1
*you
(mostly)
(instead
&gt;By
"liberal"
##\u,
##2%
##week
##sy
##mal
##fy
##ced
“people
world)
within,
voices,
unsecured
uniform,
transitions
trained,
toppled
tolerable
thirds
terrifies
tee
swelled
surrogate
sued,
subs,
straight-up
stings
starving,
sprang
spits
something)
sitter
short:
shithead
selection,
sauces
sadness,
rhythmic
resumes
relic
regulators
railroad
providers,
proficient
pinnacle
pick,
perplexed
ow
outsource
on"
noodle
nightstand
nickel
mir
malnutrition
leur
jolt
irrigation
iodine
interns
internalized
increasing,
inauguration
hundreds,
google,
glossed
gingerly
geographically
gagging
foreclosure
faucet
extremism
exploitation,
example),
eighteen
do:
disrupts
del
deed,
crutch
coincide
closing,
chemical,
canopy
blues
bickering
attacked,
arming
appreciating
anybody,
antimicrobial
angered
ag
adventurous
abnormalities
Whose
Uranium
Universities
Till
Spirit
Smaller
Schedule
Reagan,
Python
Picking
Panama
Ottoman
OP:
NSAIDs
Macron
Loan
Listening
LOOK
Ho
HARD
Grace
Generation
Federalist
Event
Discussion
Description:
Dementia
Declaration
DS9
Cop
Convention
Construction
Caffeine
Believing
7k
61
6.5
41%
01
(mainly
"Give
##D)
##100
##/year
##’ve
##xt
##oid
##ites
##here
##ap
whistling
wheat,
waaay
verses
undoing
trait,
tokens
there'll
tail,
spills
specifics,
soothe
snowball
snorted
shriek
safely,
sacrifice,
resonance
repeated,
renter's
rentals
refundable
reformed
recount
realm,
realisation
portraying
pancreas
overlords
overflowing
offensive,
off)
nurturing
nonessential
nominal
murky
monarch
misogyny
ministry
market"
liberty,
leech
latitude
knee-jerk
intervening
institution,
hostel
hoarded
hilt
happier,
hallmark
grudge
graft
fullest
fuck-up
foolishly
focal
federation
exterminate
expressly
evenings
erratic
eons
enormously
ducking
droves
dressed,
dollar,
do),
distortion
dieting
desolate
derail
cytokine
cyclical
cousin's
countered
cores
cookies,
competent,
classifying
clash
charisma
carrier,
capsules
cape
burnout
briefings,
bootstraps
bomb,
become,
averaging
appear,
ans
all;
ai
advanced,
Voted
Veterans
Unit
Und
Tests
See:
Rust
ROBOT
Putin's
PET
Nazis,
Members
Measles
Leftist
July,
Julie
Joy
John's
Inslee
Funnily
Ford,
Findings
Dunning-Kruger
Cuomo's
Continuing
Brits
Brad
Austrian
ALREADY
83
82
4-8
2011,
*way*
*other*
*maybe*
*is
**in
(minus
"Alright
"After
##D,
##..you
##,'
[...]
